{
  "version": "1.0",
  "truncation": null,
  "padding": null,
  "added_tokens": [
    {
      "id": 0,
      "content": "[UNK]",
      "single_word": false,
      "lstrip": false,
      "rstrip": false,
      "normalized": false,
      "special": true
    },
    {
      "id": 1,
      "content": "[PAD]",
      "single_word": false,
      "lstrip": false,
      "rstrip": false,
      "normalized": false,
      "special": true
    },
    {
      "id": 2,
      "content": "[SOS]",
      "single_word": false,
      "lstrip": false,
      "rstrip": false,
      "normalized": false,
      "special": true
    },
    {
      "id": 3,
      "content": "[EOS]",
      "single_word": false,
      "lstrip": false,
      "rstrip": false,
      "normalized": false,
      "special": true
    }
  ],
  "normalizer": null,
  "pre_tokenizer": {
    "type": "Whitespace"
  },
  "post_processor": null,
  "decoder": null,
  "model": {
    "type": "WordPiece",
    "unk_token": "[UNK]",
    "continuing_subword_prefix": "##",
    "max_input_chars_per_word": 100,
    "vocab": {
      "[UNK]": 0,
      "[PAD]": 1,
      "[SOS]": 2,
      "[EOS]": 3,
      "!": 4,
      "\"": 5,
      "#": 6,
      "$": 7,
      "%": 8,
      "&": 9,
      "'": 10,
      "(": 11,
      ")": 12,
      "*": 13,
      "+": 14,
      ",": 15,
      "-": 16,
      ".": 17,
      "/": 18,
      "0": 19,
      "1": 20,
      "2": 21,
      "3": 22,
      "4": 23,
      "5": 24,
      "6": 25,
      "7": 26,
      "8": 27,
      "9": 28,
      ":": 29,
      ";": 30,
      "<": 31,
      "=": 32,
      ">": 33,
      "?": 34,
      "@": 35,
      "A": 36,
      "B": 37,
      "C": 38,
      "D": 39,
      "E": 40,
      "F": 41,
      "G": 42,
      "H": 43,
      "I": 44,
      "J": 45,
      "K": 46,
      "L": 47,
      "M": 48,
      "N": 49,
      "O": 50,
      "P": 51,
      "Q": 52,
      "R": 53,
      "S": 54,
      "T": 55,
      "U": 56,
      "V": 57,
      "W": 58,
      "X": 59,
      "Y": 60,
      "Z": 61,
      "\\": 62,
      "a": 63,
      "b": 64,
      "c": 65,
      "d": 66,
      "e": 67,
      "f": 68,
      "g": 69,
      "h": 70,
      "i": 71,
      "j": 72,
      "k": 73,
      "l": 74,
      "m": 75,
      "n": 76,
      "o": 77,
      "p": 78,
      "q": 79,
      "r": 80,
      "s": 81,
      "t": 82,
      "u": 83,
      "v": 84,
      "w": 85,
      "x": 86,
      "y": 87,
      "z": 88,
      "á": 89,
      "â": 90,
      "ã": 91,
      "ç": 92,
      "é": 93,
      "ê": 94,
      "í": 95,
      "ð": 96,
      "ó": 97,
      "ö": 98,
      "ú": 99,
      "ü": 100,
      "ı": 101,
      "а": 102,
      "в": 103,
      "г": 104,
      "д": 105,
      "е": 106,
      "з": 107,
      "и": 108,
      "н": 109,
      "о": 110,
      "т": 111,
      "у": 112,
      "ш": 113,
      "א": 114,
      "ב": 115,
      "ו": 116,
      "ל": 117,
      "ם": 118,
      "ت": 119,
      "ر": 120,
      "ف": 121,
      "م": 122,
      "ن": 123,
      "و": 124,
      "ک": 125,
      "گ": 126,
      "ے": 127,
      "क": 128,
      "ख": 129,
      "ड": 130,
      "त": 131,
      "द": 132,
      "न": 133,
      "प": 134,
      "म": 135,
      "र": 136,
      "ल": 137,
      "ह": 138,
      "ा": 139,
      "ी": 140,
      "ु": 141,
      "ो": 142,
      "्": 143,
      "ছ": 144,
      "ট": 145,
      "য": 146,
      "হ": 147,
      "়": 148,
      "ু": 149,
      "ে": 150,
      "ਏ": 151,
      "ਗ": 152,
      "ਚ": 153,
      "ਤ": 154,
      "ਿ": 155,
      "ੀ": 156,
      "ੰ": 157,
      "ં": 158,
      "ઓ": 159,
      "મ": 160,
      "ળ": 161,
      "વ": 162,
      "ા": 163,
      "ી": 164,
      "ட": 165,
      "த": 166,
      "ந": 167,
      "ம": 168,
      "ர": 169,
      "ழ": 170,
      "வ": 171,
      "ு": 172,
      "ொ": 173,
      "்": 174,
      "త": 175,
      "ల": 176,
      "ు": 177,
      "ತ": 178,
      "ಯ": 179,
      "ವ": 180,
      "ಾ": 181,
      "ಿ": 182,
      "ು": 183,
      "တ": 184,
      "အ": 185,
      "ူ": 186,
      "—": 187,
      "’": 188,
      "“": 189,
      "”": 190,
      "お": 191,
      "が": 192,
      "じ": 193,
      "な": 194,
      "に": 195,
      "は": 196,
      "三": 197,
      "世": 198,
      "同": 199,
      "完": 200,
      "成": 201,
      "第": 202,
      "話": 203,
      "##r": 204,
      "##a": 205,
      "##v": 206,
      "##e": 207,
      "##l": 208,
      "##i": 209,
      "##n": 210,
      "##g": 211,
      "##u": 212,
      "##c": 213,
      "##s": 214,
      "##p": 215,
      "##o": 216,
      "##x": 217,
      "##m": 218,
      "##t": 219,
      "##h": 220,
      "##z": 221,
      "##k": 222,
      "##0": 223,
      "##d": 224,
      "##y": 225,
      "##H": 226,
      "##O": 227,
      "##W": 228,
      "##E": 229,
      "##R": 230,
      "##A": 231,
      "##T": 232,
      "##L": 233,
      "##b": 234,
      "##w": 235,
      "##6": 236,
      "##P": 237,
      "##D": 238,
      "##f": 239,
      "##N": 240,
      "##M": 241,
      "##j": 242,
      "##B": 243,
      "##S": 244,
      "##C": 245,
      "##9": 246,
      "##5": 247,
      "##I": 248,
      "##4": 249,
      "##Y": 250,
      "##V": 251,
      "##U": 252,
      "##F": 253,
      "##3": 254,
      "##2": 255,
      "##1": 256,
      "##q": 257,
      "##G": 258,
      "##K": 259,
      "##X": 260,
      "##J": 261,
      "##8": 262,
      "##Z": 263,
      "##7": 264,
      "##Q": 265,
      "##\\": 266,
      "##ar": 267,
      "##er": 268,
      "##ye": 269,
      "ke": 270,
      "##ai": 271,
      "kar": 272,
      "##iye": 273,
      "ko": 274,
      "##in": 275,
      "liye": 276,
      "hai": 277,
      "me": 278,
      "##he": 279,
      "ba": 280,
      "##ne": 281,
      "##ya": 282,
      "se": 283,
      "##at": 284,
      "kare": 285,
      "##le": 286,
      "##as": 287,
      "ki": 288,
      "##on": 289,
      "##ha": 290,
      "##ay": 291,
      "##te": 292,
      "al": 293,
      "##al": 294,
      "##arm": 295,
      "kya": 296,
      "alarm": 297,
      "##uj": 298,
      "##ur": 299,
      "##en": 300,
      "mer": 301,
      "##sa": 302,
      "re": 303,
      "##or": 304,
      "##ic": 305,
      "##ujhe": 306,
      "##im": 307,
      "##an": 308,
      "ho": 309,
      "set": 310,
      "tim": 311,
      "ka": 312,
      "mujhe": 313,
      "baj": 314,
      "##ah": 315,
      "##ak": 316,
      "##ad": 317,
      "##day": 318,
      "mere": 319,
      "##min": 320,
      "##ge": 321,
      "par": 322,
      "##na": 323,
      "kit": 324,
      "##mind": 325,
      "remind": 326,
      "##af": 327,
      "di": 328,
      "##st": 329,
      "##ch": 330,
      "##ee": 331,
      "reminder": 332,
      "##un": 333,
      "##aye": 334,
      "timer": 335,
      "aa": 336,
      "tr": 337,
      "karo": 338,
      "##hi": 339,
      "##ute": 340,
      "##ing": 341,
      "##am": 342,
      "ra": 343,
      "##ta": 344,
      "##fic": 345,
      "##ent": 346,
      "##ri": 347,
      "min": 348,
      "##affic": 349,
      "traffic": 350,
      "##ga": 351,
      "minute": 352,
      "ya": 353,
      "##ub": 354,
      "do": 355,
      "##se": 356,
      "cha": 357,
      "##ase": 358,
      "tak": 359,
      "##lease": 360,
      "ek": 361,
      "baje": 362,
      "sub": 363,
      "karne": 364,
      "is": 365,
      "mai": 366,
      "he": 367,
      "aur": 368,
      "aaj": 369,
      "dil": 370,
      "to": 371,
      "yaad": 372,
      "##bhi": 373,
      "kal": 374,
      "##el": 375,
      "##ssa": 376,
      "##ssage": 377,
      "ja": 378,
      "message": 379,
      "##eat": 380,
      "kai": 381,
      "ag": 382,
      "minutes": 383,
      "##eek": 384,
      "sa": 385,
      "week": 386,
      "##har": 387,
      "##nd": 388,
      "##es": 389,
      "pm": 390,
      "Kya": 391,
      "kitna": 392,
      "kaisa": 393,
      "de": 394,
      "chah": 395,
      "##oo": 396,
      "la": 397,
      "##is": 398,
      "karen": 399,
      "##th": 400,
      "##us": 401,
      "te": 402,
      "##ni": 403,
      "koi": 404,
      "please": 405,
      "hone": 406,
      "##ast": 407,
      "##au": 408,
      "##uch": 409,
      "##end": 410,
      "subah": 411,
      "##ti": 412,
      "time": 413,
      "wal": 414,
      "raat": 415,
      "##anc": 416,
      "##il": 417,
      "pl": 418,
      "##ve": 419,
      "mei": 420,
      "##ck": 421,
      "##ik": 422,
      "hu": 423,
      "##atur": 424,
      "##ow": 425,
      "##ou": 426,
      "##ec": 427,
      "##gi": 428,
      "the": 429,
      "alarms": 430,
      "##ong": 431,
      "for": 432,
      "##her": 433,
      "##sam": 434,
      "agle": 435,
      "##id": 436,
      "sak": 437,
      "##et": 438,
      "dilaye": 439,
      "weekend": 440,
      "sh": 441,
      "baar": 442,
      "chahiye": 443,
      "play": 444,
      "pa": 445,
      "##ao": 446,
      "##it": 447,
      "song": 448,
      "reminders": 449,
      "##uje": 450,
      "kitni": 451,
      "##ol": 452,
      "10": 453,
      "##gh": 454,
      "##ork": 455,
      "abhi": 456,
      "mau": 457,
      "mausam": 458,
      "##ane": 459,
      "ev": 460,
      "##eather": 461,
      "ghar": 462,
      "##ed": 463,
      "pah": 464,
      "ap": 465,
      "##ly": 466,
      "##aj": 467,
      "weather": 468,
      "ro": 469,
      "nik": 470,
      "am": 471,
      "dik": 472,
      "aj": 473,
      "har": 474,
      "haf": 475,
      "##ir": 476,
      "bajao": 477,
      "##ate": 478,
      "##and": 479,
      "st": 480,
      "mera": 481,
      "con": 482,
      "kab": 483,
      "lage": 484,
      "paas": 485,
      "hafte": 486,
      "aap": 487,
      "##usic": 488,
      "##mp": 489,
      "##ents": 490,
      "kitne": 491,
      "##xt": 492,
      "up": 493,
      "canc": 494,
      "bajhe": 495,
      "30": 496,
      "nikal": 497,
      "wala": 498,
      "hoon": 499,
      "##ish": 500,
      "sabhi": 501,
      "Aaj": 502,
      "music": 503,
      "Please": 504,
      "##ert": 505,
      "cancel": 506,
      "##han": 507,
      "##ho": 508,
      "##igh": 509,
      "sam": 510,
      "##ayen": 511,
      "##re": 512,
      "kard": 513,
      "din": 514,
      "band": 515,
      "##lete": 516,
      "##sday": 517,
      "##ew": 518,
      "##ecast": 519,
      "delete": 520,
      "forecast": 521,
      "Mujhe": 522,
      "##om": 523,
      "##um": 524,
      "meri": 525,
      "pe": 526,
      "dikha": 527,
      "dri": 528,
      "subha": 529,
      "##riday": 530,
      "samay": 531,
      "bhe": 532,
      "bhej": 533,
      "na": 534,
      "ad": 535,
      "Is": 536,
      "sun": 537,
      "##unch": 538,
      "Muje": 539,
      "bat": 540,
      "##mper": 541,
      "Mer": 542,
      "kardo": 543,
      "bad": 544,
      "##mperatur": 545,
      "##ist": 546,
      "##ahar": 547,
      "temperatur": 548,
      "##are": 549,
      "##ine": 550,
      "temperature": 551,
      "##ion": 552,
      "dila": 553,
      "##po": 554,
      "work": 555,
      "le": 556,
      "##tion": 557,
      "events": 558,
      "shur": 559,
      "baarish": 560,
      "shuru": 561,
      "dop": 562,
      "lagega": 563,
      "##la": 564,
      "##ke": 565,
      "rahe": 566,
      "##ree": 567,
      "sakte": 568,
      "sha": 569,
      "add": 570,
      "##ze": 571,
      "Friday": 572,
      "##onday": 573,
      "##urr": 574,
      "hoga": 575,
      "##aturday": 576,
      "##hle": 577,
      "##ues": 578,
      "ghan": 579,
      "dikhao": 580,
      "rep": 581,
      "aas": 582,
      "Mere": 583,
      "drive": 584,
      "wa": 585,
      "sn": 586,
      "bana": 587,
      "##hat": 588,
      "dilaayen": 589,
      "in": 590,
      "##uesday": 591,
      "##all": 592,
      "ghante": 593,
      "##ort": 594,
      "hogi": 595,
      "ac": 596,
      "dopahar": 597,
      "pahunch": 598,
      "pehle": 599,
      "##int": 600,
      "co": 601,
      "##est": 602,
      "chahta": 603,
      "text": 604,
      "##ation": 605,
      "##cert": 606,
      "##ac": 607,
      "sakta": 608,
      "##ment": 609,
      "bar": 610,
      "##ro": 611,
      "##ick": 612,
      "jaane": 613,
      "Ch": 614,
      "zar": 615,
      "agar": 616,
      "at": 617,
      "##urrent": 618,
      "kuch": 619,
      "##op": 620,
      "ne": 621,
      "sab": 622,
      "pahuch": 623,
      "15": 624,
      "toh": 625,
      "baare": 626,
      "##ight": 627,
      "##hur": 628,
      "##ath": 629,
      "sabse": 630,
      "New": 631,
      "raha": 632,
      "be": 633,
      "current": 634,
      "puch": 635,
      "##les": 636,
      "pad": 637,
      "cl": 638,
      "concert": 639,
      "##ty": 640,
      "##point": 641,
      "##ond": 642,
      "Tuesday": 643,
      "bata": 644,
      "bol": 645,
      "appoint": 646,
      "##ter": 647,
      "bataye": 648,
      "##ack": 649,
      "Monday": 650,
      "##ip": 651,
      "cr": 652,
      "20": 653,
      "mah": 654,
      "on": 655,
      "mahine": 656,
      "##art": 657,
      "rahega": 658,
      "##unga": 659,
      "appointment": 660,
      "meet": 661,
      "##land": 662,
      "Saturday": 663,
      "##hursday": 664,
      "##ana": 665,
      "##ver": 666,
      "##che": 667,
      "khar": 668,
      "of": 669,
      "pucho": 670,
      "agley": 671,
      "##mb": 672,
      "karna": 673,
      "haftey": 674,
      "wali": 675,
      "bolo": 676,
      "##ning": 677,
      "naya": 678,
      "##nesday": 679,
      "##ednesday": 680,
      "##eed": 681,
      "muje": 682,
      "##ust": 683,
      "snoo": 684,
      "snooze": 685,
      "der": 686,
      "##ry": 687,
      "##sak": 688,
      "mo": 689,
      "##ie": 690,
      "chal": 691,
      "##ce": 692,
      "##av": 693,
      "##ill": 694,
      "##ut": 695,
      "creat": 696,
      "jo": 697,
      "00": 698,
      "create": 699,
      "use": 700,
      "##nt": 701,
      "##ity": 702,
      "##rist": 703,
      "banaye": 704,
      "meeting": 705,
      "##di": 706,
      "ye": 707,
      "bee": 708,
      "##ake": 709,
      "##ct": 710,
      "bhejo": 711,
      "pas": 712,
      "wale": 713,
      "gr": 714,
      "##ahi": 715,
      "nikalta": 716,
      "che": 717,
      "jane": 718,
      "##aste": 719,
      "last": 720,
      "hat": 721,
      "sath": 722,
      "beech": 723,
      "##way": 724,
      "tha": 725,
      "##mas": 726,
      "##ner": 727,
      "karsak": 728,
      "bac": 729,
      "##own": 730,
      "badle": 731,
      "kon": 732,
      "party": 733,
      "Sun": 734,
      "##da": 735,
      "po": 736,
      "road": 737,
      "batao": 738,
      "and": 739,
      "##ook": 740,
      "##ristmas": 741,
      "##oon": 742,
      "sham": 743,
      "##ood": 744,
      "Sunday": 745,
      "Ag": 746,
      "ga": 747,
      "##ance": 748,
      "us": 749,
      "##ool": 750,
      "##ag": 751,
      "Wednesday": 752,
      "repeat": 753,
      "##urat": 754,
      "##ide": 755,
      "##und": 756,
      "zarurat": 757,
      "dinner": 758,
      "##si": 759,
      "mil": 760,
      "##ab": 761,
      "##list": 762,
      "lagegi": 763,
      "mi": 764,
      "pick": 765,
      "hour": 766,
      "##ain": 767,
      "playlist": 768,
      "badal": 769,
      "dow": 770,
      "##unt": 771,
      "##co": 772,
      "##aiye": 773,
      "baad": 774,
      "lo": 775,
      "karsakte": 776,
      "pahunchne": 777,
      "bacha": 778,
      "karke": 779,
      "##ap": 780,
      "##ul": 781,
      "next": 782,
      "Jo": 783,
      "barf": 784,
      "yaha": 785,
      "pade": 786,
      "Thursday": 787,
      "upd": 788,
      "sk": 789,
      "##ara": 790,
      "##ru": 791,
      "car": 792,
      "track": 793,
      "##nge": 794,
      "Kal": 795,
      "sunna": 796,
      "##ts": 797,
      "San": 798,
      "ex": 799,
      "##tions": 800,
      "alert": 801,
      "York": 802,
      "##ton": 803,
      "##ers": 804,
      "##thday": 805,
      "songs": 806,
      "##amb": 807,
      "##arey": 808,
      "res": 809,
      "door": 810,
      "high": 811,
      "##ary": 812,
      "##bum": 813,
      "Christmas": 814,
      "dek": 815,
      "hum": 816,
      "hata": 817,
      "lene": 818,
      "wo": 819,
      "##if": 820,
      "concerts": 821,
      "album": 822,
      "shaam": 823,
      "##ora": 824,
      "##irthday": 825,
      "update": 826,
      "##lo": 827,
      "##ame": 828,
      "lamb": 829,
      "##hen": 830,
      "route": 831,
      "##ving": 832,
      "ch": 833,
      "garm": 834,
      "rec": 835,
      "St": 836,
      "##ia": 837,
      "11": 838,
      "sec": 839,
      "##hir": 840,
      "##ff": 841,
      "acc": 842,
      "late": 843,
      "skip": 844,
      "are": 845,
      "show": 846,
      "12": 847,
      "padegi": 848,
      "##ston": 849,
      "##fy": 850,
      "##chool": 851,
      "second": 852,
      "birthday": 853,
      "##oup": 854,
      "th": 855,
      "karaye": 856,
      "##ach": 857,
      "lag": 858,
      "kiye": 859,
      "accid": 860,
      "##os": 861,
      "##hne": 862,
      "pahuchne": 863,
      "##ction": 864,
      "##io": 865,
      "fl": 866,
      "##ntown": 867,
      "##up": 868,
      "raaste": 869,
      "##ash": 870,
      "##jiye": 871,
      "kaha": 872,
      "fir": 873,
      "##val": 874,
      "##li": 875,
      "##ctor": 876,
      "##ike": 877,
      "pr": 878,
      "Mai": 879,
      "chat": 880,
      "Ju": 881,
      "badlein": 882,
      "kesa": 883,
      "school": 884,
      "##ause": 885,
      "##asta": 886,
      "##mber": 887,
      "doctor": 888,
      "##ass": 889,
      "so": 890,
      "##chne": 891,
      "##stru": 892,
      "game": 893,
      "##gree": 894,
      "degree": 895,
      "bataiye": 896,
      "agla": 897,
      "miles": 898,
      "new": 899,
      "##ue": 900,
      "##ille": 901,
      "Me": 902,
      "constru": 903,
      "stop": 904,
      "##ideo": 905,
      "dikh": 906,
      "##ug": 907,
      "you": 908,
      "thand": 909,
      "construction": 910,
      "com": 911,
      "##tle": 912,
      "group": 913,
      "pause": 914,
      "##ville": 915,
      "##our": 916,
      "driving": 917,
      "free": 918,
      "video": 919,
      "##ark": 920,
      "downtown": 921,
      "del": 922,
      "konse": 923,
      "den": 924,
      "##ari": 925,
      "##me": 926,
      "##ming": 927,
      "list": 928,
      "PM": 929,
      "Agar": 930,
      "Ro": 931,
      "##port": 932,
      "mom": 933,
      "##ago": 934,
      "##orning": 935,
      "lambi": 936,
      "##ties": 937,
      "saturday": 938,
      "mon": 939,
      "##icago": 940,
      "##ice": 941,
      "phir": 942,
      "she": 943,
      "##hn": 944,
      "Bo": 945,
      "##ds": 946,
      "##ra": 947,
      "dist": 948,
      "##ule": 949,
      "maine": 950,
      "##dy": 951,
      "##ater": 952,
      "bheje": 953,
      "distance": 954,
      "##rel": 955,
      "##ore": 956,
      "##lor": 957,
      "##ery": 958,
      "ma": 959,
      "check": 960,
      "my": 961,
      "kiya": 962,
      "bahar": 963,
      "hot": 964,
      "count": 965,
      "nahi": 966,
      "##ep": 967,
      "snow": 968,
      "##ched": 969,
      "aane": 970,
      "##out": 971,
      "event": 972,
      "##vi": 973,
      "45": 974,
      "##oor": 975,
      "##ive": 976,
      "mein": 977,
      "monday": 978,
      "##lan": 979,
      "City": 980,
      "delay": 981,
      "Be": 982,
      "kis": 983,
      "##set": 984,
      "month": 985,
      "##rec": 986,
      "Fr": 987,
      "day": 988,
      "##mbrel": 989,
      "go": 990,
      "umbrel": 991,
      "##ld": 992,
      "##tify": 993,
      "umbrella": 994,
      "bo": 995,
      "dog": 996,
      "##ening": 997,
      "##chedule": 998,
      "##ll": 999,
      "start": 1000,
      "acha": 1001,
      "loc": 1002,
      "dh": 1003,
      "##ans": 1004,
      "kaam": 1005,
      "##qu": 1006,
      "tez": 1007,
      "morning": 1008,
      "##ber": 1009,
      "direc": 1010,
      "khareed": 1011,
      "pay": 1012,
      "weekly": 1013,
      "##aw": 1014,
      "##ord": 1015,
      "##potify": 1016,
      "##esti": 1017,
      "jaoon": 1018,
      "barish": 1019,
      "mou": 1020,
      "baahar": 1021,
      "timers": 1022,
      "##ess": 1023,
      "mousam": 1024,
      "cle": 1025,
      "##estival": 1026,
      "friday": 1027,
      "##ugust": 1028,
      "pic": 1029,
      "##ney": 1030,
      "khareedne": 1031,
      "garmi": 1032,
      "class": 1033,
      "chee": 1034,
      "an": 1035,
      "sarey": 1036,
      "poho": 1037,
      "##orm": 1038,
      "Chicago": 1039,
      "ar": 1040,
      "wake": 1041,
      "dai": 1042,
      "##ume": 1043,
      "seconds": 1044,
      "jaunga": 1045,
      "jack": 1046,
      "##eg": 1047,
      "roads": 1048,
      "tho": 1049,
      "##ale": 1050,
      "Or": 1051,
      "daily": 1052,
      "Al": 1053,
      "zaroor": 1054,
      "bhi": 1055,
      "##ma": 1056,
      "##andora": 1057,
      "dikhaye": 1058,
      "##pec": 1059,
      "zaroorat": 1060,
      "John": 1061,
      "lagaye": 1062,
      "or": 1063,
      "apne": 1064,
      "station": 1065,
      "##ily": 1066,
      "##ted": 1067,
      "cheeze": 1068,
      "av": 1069,
      "##ard": 1070,
      "##ena": 1071,
      "naye": 1072,
      "##amp": 1073,
      "chan": 1074,
      "##tern": 1075,
      "ut": 1076,
      "rest": 1077,
      "##act": 1078,
      "schedule": 1079,
      "directions": 1080,
      "fr": 1081,
      "laane": 1082,
      "nikalne": 1083,
      "##ami": 1084,
      "##avy": 1085,
      "##reet": 1086,
      "##use": 1087,
      "area": 1088,
      "evening": 1089,
      "jacket": 1090,
      "bare": 1091,
      "rahi": 1092,
      "##ka": 1093,
      "lunch": 1094,
      "heavy": 1095,
      "messages": 1096,
      "dekhne": 1097,
      "baja": 1098,
      "kariye": 1099,
      "##yada": 1100,
      "zyada": 1101,
      "gaya": 1102,
      "##ace": 1103,
      "dilao": 1104,
      "doori": 1105,
      "##adio": 1106,
      "latest": 1107,
      "light": 1108,
      "##ove": 1109,
      "##riend": 1110,
      "accidents": 1111,
      "night": 1112,
      "nikalna": 1113,
      "At": 1114,
      "August": 1115,
      "thursday": 1116,
      "gir": 1117,
      "##ren": 1118,
      "report": 1119,
      "thoda": 1120,
      "##zz": 1121,
      "send": 1122,
      "##lando": 1123,
      "pohochne": 1124,
      "change": 1125,
      "sunday": 1126,
      "##lanta": 1127,
      "Seat": 1128,
      "##uff": 1129,
      "parties": 1130,
      "comm": 1131,
      "Seattle": 1132,
      "Br": 1133,
      "bajaye": 1134,
      "resume": 1135,
      "dis": 1136,
      "##ina": 1137,
      "##ngeles": 1138,
      "sw": 1139,
      "Mi": 1140,
      "##elsi": 1141,
      "##elsius": 1142,
      "##amily": 1143,
      "##ail": 1144,
      "naam": 1145,
      "rok": 1146,
      "festival": 1147,
      "##de": 1148,
      "##oop": 1149,
      "rasta": 1150,
      "konsa": 1151,
      "hun": 1152,
      "##outh": 1153,
      "un": 1154,
      "dent": 1155,
      "Abhi": 1156,
      "##ix": 1157,
      "gaane": 1158,
      "hours": 1159,
      "Mar": 1160,
      "##pr": 1161,
      "##umb": 1162,
      "##ida": 1163,
      "##sey": 1164,
      "too": 1165,
      "out": 1166,
      "Har": 1167,
      "air": 1168,
      "country": 1169,
      "clo": 1170,
      "##ght": 1171,
      "what": 1172,
      "condi": 1173,
      "lena": 1174,
      "June": 1175,
      "op": 1176,
      "mid": 1177,
      "Agle": 1178,
      "degrees": 1179,
      "dad": 1180,
      "her": 1181,
      "expec": 1182,
      "##son": 1183,
      "huw": 1184,
      "inter": 1185,
      "kho": 1186,
      "##ings": 1187,
      "##ada": 1188,
      "rain": 1189,
      "milne": 1190,
      "##ss": 1191,
      "##br": 1192,
      "##ball": 1193,
      "br": 1194,
      "##isco": 1195,
      "reset": 1196,
      "raste": 1197,
      "jaate": 1198,
      "kharab": 1199,
      "will": 1200,
      "run": 1201,
      "##his": 1202,
      "##egas": 1203,
      "jan": 1204,
      "gaaney": 1205,
      "commute": 1206,
      "##age": 1207,
      "saal": 1208,
      "Spotify": 1209,
      "friend": 1210,
      "Miami": 1211,
      "##fan": 1212,
      "delays": 1213,
      "dilayen": 1214,
      "##ustin": 1215,
      "##ven": 1216,
      "##orth": 1217,
      "kids": 1218,
      "##allas": 1219,
      "khoj": 1220,
      "##lay": 1221,
      "bus": 1222,
      "kam": 1223,
      "hon": 1224,
      "tuesday": 1225,
      "##ci": 1226,
      "##asak": 1227,
      "25": 1228,
      "Tim": 1229,
      "kaun": 1230,
      "Atlanta": 1231,
      "win": 1232,
      "reply": 1233,
      "gro": 1234,
      "Los": 1235,
      "per": 1236,
      "low": 1237,
      "saaf": 1238,
      "kijiye": 1239,
      "dentist": 1240,
      "##ith": 1241,
      "hua": 1242,
      "highway": 1243,
      "##hane": 1244,
      "##aher": 1245,
      "##ex": 1246,
      "##ancisco": 1247,
      "Angeles": 1248,
      "dopaher": 1249,
      "beach": 1250,
      "##ondon": 1251,
      "##oid": 1252,
      "##ets": 1253,
      "bre": 1254,
      "##ington": 1255,
      "Con": 1256,
      "May": 1257,
      "no": 1258,
      "##vie": 1259,
      "rock": 1260,
      "Orlando": 1261,
      "toofan": 1262,
      "avoid": 1263,
      "90": 1264,
      "##ley": 1265,
      "NY": 1266,
      "Port": 1267,
      "det": 1268,
      "##ift": 1269,
      "chi": 1270,
      "col": 1271,
      "##ko": 1272,
      "today": 1273,
      "Pandora": 1274,
      "##ies": 1275,
      "groc": 1276,
      "family": 1277,
      "##ant": 1278,
      "location": 1279,
      "cook": 1280,
      "bill": 1281,
      "pro": 1282,
      "##heit": 1283,
      "##der": 1284,
      "40": 1285,
      "walk": 1286,
      "##night": 1287,
      "##ado": 1288,
      "pehen": 1289,
      "##ont": 1290,
      "##ahren": 1291,
      "##ahrenheit": 1292,
      "dijiye": 1293,
      "LA": 1294,
      "Flor": 1295,
      "London": 1296,
      "bajne": 1297,
      "##rid": 1298,
      "airport": 1299,
      "##ars": 1300,
      "uske": 1301,
      "huwe": 1302,
      "call": 1303,
      "Celsius": 1304,
      "bhejne": 1305,
      "accident": 1306,
      "khat": 1307,
      "workout": 1308,
      "Par": 1309,
      "food": 1310,
      "hoj": 1311,
      "kharid": 1312,
      "khatam": 1313,
      "book": 1314,
      "hit": 1315,
      "##hut": 1316,
      "##by": 1317,
      "requ": 1318,
      "##ajah": 1319,
      "down": 1320,
      "wajah": 1321,
      "kaise": 1322,
      "Florida": 1323,
      "##here": 1324,
      "##ical": 1325,
      "##ite": 1326,
      "##zed": 1327,
      "park": 1328,
      "kaisi": 1329,
      "freeway": 1330,
      "##ny": 1331,
      "Boston": 1332,
      "pho": 1333,
      "Hou": 1334,
      "af": 1335,
      "raasta": 1336,
      "##ush": 1337,
      "wednesday": 1338,
      "##mm": 1339,
      "house": 1340,
      "li": 1341,
      "##go": 1342,
      "##ank": 1343,
      "##ants": 1344,
      "roke": 1345,
      "chats": 1346,
      "request": 1347,
      "Col": 1348,
      "bak": 1349,
      "##iss": 1350,
      "conditions": 1351,
      "it": 1352,
      "water": 1353,
      "movie": 1354,
      "##vers": 1355,
      "##row": 1356,
      "##ther": 1357,
      "mazed": 1358,
      "Vegas": 1359,
      "Dallas": 1360,
      "rak": 1361,
      "this": 1362,
      "shop": 1363,
      "Gr": 1364,
      "##ink": 1365,
      "##fice": 1366,
      "restart": 1367,
      "Co": 1368,
      "##asakte": 1369,
      "##wara": 1370,
      "dwara": 1371,
      "##tember": 1372,
      "banao": 1373,
      "humid": 1374,
      "office": 1375,
      "kharidne": 1376,
      "##pp": 1377,
      "##nes": 1378,
      "rem": 1379,
      "record": 1380,
      "clear": 1381,
      "##ave": 1382,
      "dhoop": 1383,
      "ham": 1384,
      "pop": 1385,
      "##mer": 1386,
      "##hil": 1387,
      "apna": 1388,
      "hota": 1389,
      "Jack": 1390,
      "##ig": 1391,
      "##arah": 1392,
      "Portland": 1393,
      "July": 1394,
      "date": 1395,
      "from": 1396,
      "Francisco": 1397,
      "##reen": 1398,
      "##ampa": 1399,
      "##ates": 1400,
      "sp": 1401,
      "shuff": 1402,
      "upar": 1403,
      "shuffle": 1404,
      "shows": 1405,
      "Houston": 1406,
      "acti": 1407,
      "##mor": 1408,
      "requests": 1409,
      "Car": 1410,
      "back": 1411,
      "##ade": 1412,
      "laga": 1413,
      "bha": 1414,
      "home": 1415,
      "saare": 1416,
      "ab": 1417,
      "top": 1418,
      "saarey": 1419,
      "dekh": 1420,
      "we": 1421,
      "##ica": 1422,
      "trip": 1423,
      "##bur": 1424,
      "jaa": 1425,
      "move": 1426,
      "##liday": 1427,
      "Mo": 1428,
      "##nia": 1429,
      "holiday": 1430,
      "##ey": 1431,
      "##ping": 1432,
      "can": 1433,
      "##len": 1434,
      "tick": 1435,
      "##hla": 1436,
      "street": 1437,
      "rah": 1438,
      "##ornia": 1439,
      "open": 1440,
      "bachne": 1441,
      "##urn": 1442,
      "jal": 1443,
      "Park": 1444,
      "##ternoon": 1445,
      "##atch": 1446,
      "banaen": 1447,
      "Sep": 1448,
      "The": 1449,
      "dr": 1450,
      "80": 1451,
      "weekday": 1452,
      "An": 1453,
      "umm": 1454,
      "##em": 1455,
      "huye": 1456,
      "afternoon": 1457,
      "keh": 1458,
      "karden": 1459,
      "get": 1460,
      "##uck": 1461,
      "janna": 1462,
      "jaldi": 1463,
      "Tr": 1464,
      "pahuchunga": 1465,
      "##urring": 1466,
      "bhaari": 1467,
      "Mom": 1468,
      "##play": 1469,
      "chance": 1470,
      "fav": 1471,
      "war": 1472,
      "zada": 1473,
      "##ati": 1474,
      "app": 1475,
      "Cal": 1476,
      "##hank": 1477,
      "remove": 1478,
      "tomor": 1479,
      "AM": 1480,
      "city": 1481,
      "roz": 1482,
      "tomorrow": 1483,
      "leta": 1484,
      "uthane": 1485,
      "bakhi": 1486,
      "sound": 1487,
      "Do": 1488,
      "##ell": 1489,
      "##brary": 1490,
      "Las": 1491,
      "jab": 1492,
      "##tim": 1493,
      "kia": 1494,
      "nika": 1495,
      "201": 1496,
      "dhund": 1497,
      "grocery": 1498,
      "Phil": 1499,
      "##aar": 1500,
      "##aster": 1501,
      "##vel": 1502,
      "##app": 1503,
      "Char": 1504,
      "##enix": 1505,
      "every": 1506,
      "pass": 1507,
      "##awai": 1508,
      "##ris": 1509,
      "hamare": 1510,
      "like": 1511,
      "end": 1512,
      "expected": 1513,
      "shopping": 1514,
      "Mera": 1515,
      "usey": 1516,
      "coat": 1517,
      "midnight": 1518,
      "radio": 1519,
      "##ger": 1520,
      "##ble": 1521,
      "Concert": 1522,
      "with": 1523,
      "##aylor": 1524,
      "modi": 1525,
      "Beach": 1526,
      "tickets": 1527,
      "library": 1528,
      "modify": 1529,
      "##ridge": 1530,
      "##ashington": 1531,
      "September": 1532,
      "jis": 1533,
      "vis": 1534,
      "##ady": 1535,
      "##ses": 1536,
      "detour": 1537,
      "if": 1538,
      "lane": 1539,
      "recurring": 1540,
      "warning": 1541,
      "mazedaar": 1542,
      "five": 1543,
      "##ym": 1544,
      "resp": 1545,
      "##ram": 1546,
      "##orn": 1547,
      "pract": 1548,
      "##air": 1549,
      "Meri": 1550,
      "hojaye": 1551,
      "dus": 1552,
      "##aur": 1553,
      "Day": 1554,
      "##ral": 1555,
      "hair": 1556,
      "jaayen": 1557,
      "##ian": 1558,
      "##form": 1559,
      "saath": 1560,
      "flight": 1561,
      "em": 1562,
      "##ece": 1563,
      "hal": 1564,
      "ru": 1565,
      "san": 1566,
      "##enter": 1567,
      "visit": 1568,
      "practice": 1569,
      "##ifornia": 1570,
      "kaunsa": 1571,
      "tw": 1572,
      "flood": 1573,
      "Fahrenheit": 1574,
      "##nivers": 1575,
      "##avel": 1576,
      "running": 1577,
      "jam": 1578,
      "grand": 1579,
      "festivals": 1580,
      "Tampa": 1581,
      "lik": 1582,
      "##iel": 1583,
      "##coming": 1584,
      "##aab": 1585,
      "mail": 1586,
      "jaga": 1587,
      "Den": 1588,
      "dilasakte": 1589,
      "##ches": 1590,
      "##tr": 1591,
      "##ding": 1592,
      "bache": 1593,
      "travel": 1594,
      "order": 1595,
      "way": 1596,
      "khoje": 1597,
      "rap": 1598,
      "break": 1599,
      "Sp": 1600,
      "##to": 1601,
      "clean": 1602,
      "Mic": 1603,
      "##ile": 1604,
      "christmas": 1605,
      "Die": 1606,
      "bed": 1607,
      "padne": 1608,
      "Ye": 1609,
      "##pas": 1610,
      "##tend": 1611,
      "Ar": 1612,
      "best": 1613,
      "##ome": 1614,
      "ummeed": 1615,
      "Ne": 1616,
      "rush": 1617,
      "##ster": 1618,
      "upcoming": 1619,
      "weeks": 1620,
      "york": 1621,
      "Diego": 1622,
      "lana": 1623,
      "##cc": 1624,
      "med": 1625,
      "waha": 1626,
      "##verage": 1627,
      "milk": 1628,
      "humidity": 1629,
      "Dis": 1630,
      "##ling": 1631,
      "jazz": 1632,
      "Dece": 1633,
      "Pet": 1634,
      "wapas": 1635,
      "Hol": 1636,
      "##ure": 1637,
      "December": 1638,
      "South": 1639,
      "Washington": 1640,
      "feed": 1641,
      "ton": 1642,
      "wine": 1643,
      "##appy": 1644,
      "Tex": 1645,
      "average": 1646,
      "##eor": 1647,
      "monthly": 1648,
      "as": 1649,
      "club": 1650,
      "Paris": 1651,
      "Pho": 1652,
      "isey": 1653,
      "60": 1654,
      "gym": 1655,
      "##per": 1656,
      "girne": 1657,
      "##lin": 1658,
      "##ason": 1659,
      "##ally": 1660,
      "train": 1661,
      "pres": 1662,
      "Concerts": 1663,
      "need": 1664,
      "##tte": 1665,
      "##orite": 1666,
      "times": 1667,
      "##inter": 1668,
      "off": 1669,
      "hits": 1670,
      "1st": 1671,
      "West": 1672,
      "##bor": 1673,
      "North": 1674,
      "mall": 1675,
      "cat": 1676,
      "##ence": 1677,
      "##ull": 1678,
      "cold": 1679,
      "Texas": 1680,
      "##ky": 1681,
      "pack": 1682,
      "tonight": 1683,
      "##IN": 1684,
      "favorite": 1685,
      "Can": 1686,
      "To": 1687,
      "Disney": 1688,
      "bh": 1689,
      "karte": 1690,
      "lamba": 1691,
      "bu": 1692,
      "south": 1693,
      "hue": 1694,
      "##cto": 1695,
      "Th": 1696,
      "##heart": 1697,
      "##hia": 1698,
      "clock": 1699,
      "Denver": 1700,
      "clou": 1701,
      "rokein": 1702,
      "What": 1703,
      "##tal": 1704,
      "##ham": 1705,
      "short": 1706,
      "##ummer": 1707,
      "honi": 1708,
      "email": 1709,
      "iheart": 1710,
      "##radio": 1711,
      "##ax": 1712,
      "##bo": 1713,
      "ban": 1714,
      "store": 1715,
      "first": 1716,
      "##ctober": 1717,
      "iheartradio": 1718,
      "das": 1719,
      "##ated": 1720,
      "trash": 1721,
      "##wn": 1722,
      "##oot": 1723,
      "Santa": 1724,
      "Jan": 1725,
      "Sy": 1726,
      "wed": 1727,
      "##yon": 1728,
      "repeating": 1729,
      "Phoenix": 1730,
      "sle": 1731,
      "##gg": 1732,
      "bhejen": 1733,
      "Mondays": 1734,
      "Sw": 1735,
      "##pm": 1736,
      "##adel": 1737,
      "gas": 1738,
      "##fer": 1739,
      "##rise": 1740,
      "going": 1741,
      "Lou": 1742,
      "##isa": 1743,
      "iste": 1744,
      "pichla": 1745,
      "live": 1746,
      "thank": 1747,
      "##gan": 1748,
      "nae": 1749,
      "##ffee": 1750,
      "California": 1751,
      "fin": 1752,
      "##une": 1753,
      "##umbs": 1754,
      "don": 1755,
      "sur": 1756,
      "##phia": 1757,
      "##aul": 1758,
      "##wood": 1759,
      "##read": 1760,
      "display": 1761,
      "respond": 1762,
      "##adelphia": 1763,
      "5th": 1764,
      "95": 1765,
      "Spr": 1766,
      "oven": 1767,
      "sc": 1768,
      "##low": 1769,
      "##ys": 1770,
      "##irf": 1771,
      "lej": 1772,
      "coffee": 1773,
      "##maal": 1774,
      "istemaal": 1775,
      "fun": 1776,
      "Street": 1777,
      "cake": 1778,
      "hor": 1779,
      "##rd": 1780,
      "##roit": 1781,
      "50": 1782,
      "Man": 1783,
      "Taylor": 1784,
      "ind": 1785,
      "##ations": 1786,
      "NYC": 1787,
      "pati": 1788,
      "sirf": 1789,
      "comp": 1790,
      "Jackson": 1791,
      "pandora": 1792,
      "##alm": 1793,
      "##tist": 1794,
      "inches": 1795,
      "baby": 1796,
      "lagta": 1797,
      "##kar": 1798,
      "kehte": 1799,
      "Austin": 1800,
      "sist": 1801,
      "spotify": 1802,
      "Philadelphia": 1803,
      "October": 1804,
      "face": 1805,
      "torn": 1806,
      "when": 1807,
      "altern": 1808,
      "bhar": 1809,
      "cho": 1810,
      "##test": 1811,
      "Timer": 1812,
      "chur": 1813,
      "##lex": 1814,
      "##chunga": 1815,
      "coming": 1816,
      "15th": 1817,
      "##undry": 1818,
      "padega": 1819,
      "local": 1820,
      "chize": 1821,
      "##asses": 1822,
      "friendly": 1823,
      "Peter": 1824,
      "laundry": 1825,
      "##view": 1826,
      "18": 1827,
      "over": 1828,
      "##ki": 1829,
      "##nel": 1830,
      "##state": 1831,
      "##ect": 1832,
      "hataye": 1833,
      "that": 1834,
      "##down": 1835,
      "tornado": 1836,
      "baak": 1837,
      "rehne": 1838,
      "4th": 1839,
      "Geor": 1840,
      "his": 1841,
      "windy": 1842,
      "wedding": 1843,
      "19": 1844,
      "bahut": 1845,
      "In": 1846,
      "Se": 1847,
      "jaye": 1848,
      "vet": 1849,
      "##adi": 1850,
      "bacch": 1851,
      "pickup": 1852,
      "phone": 1853,
      "##ield": 1854,
      "jagaane": 1855,
      "church": 1856,
      "tarah": 1857,
      "##eb": 1858,
      "##zon": 1859,
      "##ework": 1860,
      "wakeup": 1861,
      "##ces": 1862,
      "##ons": 1863,
      "pahunchunga": 1864,
      "poh": 1865,
      "card": 1866,
      "35": 1867,
      "aai": 1868,
      "has": 1869,
      "##ting": 1870,
      "##ER": 1871,
      "##qt": 1872,
      "how": 1873,
      "paayen": 1874,
      "hafton": 1875,
      "waqt": 1876,
      "cooking": 1877,
      "dhundo": 1878,
      "en": 1879,
      "##uc": 1880,
      "kharaab": 1881,
      "Dad": 1882,
      "texts": 1883,
      "three": 1884,
      "##vies": 1885,
      "##cius": 1886,
      "gaye": 1887,
      "mat": 1888,
      "summer": 1889,
      "##elcius": 1890,
      "##ough": 1891,
      "love": 1892,
      "Cl": 1893,
      "Music": 1894,
      "dry": 1895,
      "winter": 1896,
      "##olis": 1897,
      "zariye": 1898,
      "gaana": 1899,
      "jisme": 1900,
      "Ste": 1901,
      "##ments": 1902,
      "##30": 1903,
      "toll": 1904,
      "laana": 1905,
      "dino": 1906,
      "karsakta": 1907,
      "Jam": 1908,
      "Mad": 1909,
      "##ould": 1910,
      "##kaara": 1911,
      "##time": 1912,
      "Cle": 1913,
      "DC": 1914,
      "Ed": 1915,
      "gu": 1916,
      "qu": 1917,
      "##pe": 1918,
      "##any": 1919,
      "##urric": 1920,
      "attend": 1921,
      "Tuesdays": 1922,
      "##ccer": 1923,
      "##erv": 1924,
      "##eeche": 1925,
      "##oots": 1926,
      "wind": 1927,
      "Louis": 1928,
      "17": 1929,
      "And": 1930,
      "neeche": 1931,
      "##uary": 1932,
      "alerts": 1933,
      "chhut": 1934,
      "artist": 1935,
      "chhutkaara": 1936,
      "##ital": 1937,
      "movies": 1938,
      "expect": 1939,
      "bhari": 1940,
      "aaie": 1941,
      "##awa": 1942,
      "cleaning": 1943,
      "bro": 1944,
      "tast": 1945,
      "##my": 1946,
      "##gest": 1947,
      "speed": 1948,
      "##veland": 1949,
      "half": 1950,
      "##urricane": 1951,
      "Det": 1952,
      "Ind": 1953,
      "Jer": 1954,
      "Mary": 1955,
      "##gin": 1956,
      "##dney": 1957,
      "##ustral": 1958,
      "detours": 1959,
      "cloudy": 1960,
      "shorts": 1961,
      "dance": 1962,
      "##sc": 1963,
      "##AR": 1964,
      "##ico": 1965,
      "dilaen": 1966,
      "Detroit": 1967,
      "##col": 1968,
      "##ict": 1969,
      "##rip": 1970,
      "badalne": 1971,
      "Bob": 1972,
      "wants": 1973,
      "##book": 1974,
      "batayen": 1975,
      "##lock": 1976,
      "bike": 1977,
      "##lotte": 1978,
      "##ootball": 1979,
      "baaki": 1980,
      "pohchunga": 1981,
      "by": 1982,
      "sup": 1983,
      "##ise": 1984,
      "##ata": 1985,
      "##ens": 1986,
      "sister": 1987,
      "Tom": 1988,
      "oil": 1989,
      "##ft": 1990,
      "##alo": 1991,
      "classical": 1992,
      "21": 1993,
      "Austral": 1994,
      "Ev": 1995,
      "Min": 1996,
      "stu": 1997,
      "2018": 1998,
      "14": 1999,
      "Mel": 2000,
      "Ri": 2001,
      "jaana": 2002,
      "sunset": 2003,
      "behen": 2004,
      "##unty": 2005,
      "pichle": 2006,
      "Grand": 2007,
      "horahi": 2008,
      "16": 2009,
      "where": 2010,
      "theater": 2011,
      "soccer": 2012,
      "Te": 2013,
      "Us": 2014,
      "##kin": 2015,
      "##araha": 2016,
      "nikaal": 2017,
      "there": 2018,
      "pehan": 2019,
      "good": 2020,
      "have": 2021,
      "##ial": 2022,
      "##cle": 2023,
      "cance": 2024,
      "##yonce": 2025,
      "gift": 2026,
      "ll": 2027,
      "miss": 2028,
      "noon": 2029,
      "##tan": 2030,
      "##ali": 2031,
      "diya": 2032,
      "hel": 2033,
      "Rock": 2034,
      "close": 2035,
      "Australia": 2036,
      "Dr": 2037,
      "##hli": 2038,
      "##enger": 2039,
      "teen": 2040,
      "stat": 2041,
      "arri": 2042,
      "unhe": 2043,
      "happy": 2044,
      "mins": 2045,
      "thread": 2046,
      "Justin": 2047,
      "bl": 2048,
      "football": 2049,
      "##sw": 2050,
      "react": 2051,
      "parade": 2052,
      "plan": 2053,
      "andar": 2054,
      "Alex": 2055,
      "vo": 2056,
      "January": 2057,
      "Swift": 2058,
      "bacchon": 2059,
      "Bri": 2060,
      "Dan": 2061,
      "aaye": 2062,
      "mark": 2063,
      "##rai": 2064,
      "##ls": 2065,
      "beti": 2066,
      "Center": 2067,
      "##hel": 2068,
      "shahar": 2069,
      "padhen": 2070,
      "##nton": 2071,
      "dekho": 2072,
      "flow": 2073,
      "##vities": 2074,
      "sleep": 2075,
      "En": 2076,
      "##ler": 2077,
      "job": 2078,
      "utne": 2079,
      "rahunga": 2080,
      "##niversary": 2081,
      "hurricane": 2082,
      "##led": 2083,
      "##hio": 2084,
      "##ril": 2085,
      "##itch": 2086,
      "pred": 2087,
      "Next": 2088,
      "Cleveland": 2089,
      "3rd": 2090,
      "due": 2091,
      "dawai": 2092,
      "mar": 2093,
      "##ein": 2094,
      "##oom": 2095,
      "pahunchna": 2096,
      "puchiye": 2097,
      "mahiney": 2098,
      "not": 2099,
      "medic": 2100,
      "24": 2101,
      "boots": 2102,
      "##aint": 2103,
      "hoti": 2104,
      "friends": 2105,
      "Sydney": 2106,
      "bina": 2107,
      "ten": 2108,
      "ret": 2109,
      "team": 2110,
      "##reg": 2111,
      "sunrise": 2112,
      "##dio": 2113,
      "##ansas": 2114,
      "As": 2115,
      "Bl": 2116,
      "Lake": 2117,
      "Per": 2118,
      "##adium": 2119,
      "##ntonio": 2120,
      "long": 2121,
      "pre": 2122,
      "##aha": 2123,
      "##iday": 2124,
      "##zar": 2125,
      "phirse": 2126,
      "sweat": 2127,
      "El": 2128,
      "He": 2129,
      "ring": 2130,
      "##App": 2131,
      "karu": 2132,
      "hom": 2133,
      "##ento": 2134,
      "bhejna": 2135,
      "##arest": 2136,
      "boliye": 2137,
      "Alarm": 2138,
      "bring": 2139,
      "Eve": 2140,
      "##ory": 2141,
      "dekhna": 2142,
      "Holiday": 2143,
      "status": 2144,
      "75": 2145,
      "ice": 2146,
      "north": 2147,
      "##ot": 2148,
      "##hes": 2149,
      "see": 2150,
      "kahan": 2151,
      "apni": 2152,
      "banayen": 2153,
      "shower": 2154,
      "chances": 2155,
      "about": 2156,
      "13": 2157,
      "Easter": 2158,
      "spr": 2159,
      "##ating": 2160,
      "anniversary": 2161,
      "##burg": 2162,
      "Whats": 2163,
      "##gestion": 2164,
      "activities": 2165,
      "##ramento": 2166,
      "High": 2167,
      "Jen": 2168,
      "Lin": 2169,
      "Sh": 2170,
      "hip": 2171,
      "pull": 2172,
      "west": 2173,
      "##ern": 2174,
      "##erm": 2175,
      "base": 2176,
      "##ich": 2177,
      "##oma": 2178,
      "##alen": 2179,
      "Mon": 2180,
      "thir": 2181,
      "read": 2182,
      "##iche": 2183,
      "hop": 2184,
      "tour": 2185,
      "hui": 2186,
      "year": 2187,
      "##ashville": 2188,
      "weekdays": 2189,
      "Charlotte": 2190,
      "reac": 2191,
      "nearest": 2192,
      "March": 2193,
      "WhatsApp": 2194,
      "23": 2195,
      "yo": 2196,
      "##izz": 2197,
      "lagao": 2198,
      "study": 2199,
      "dora": 2200,
      "vi": 2201,
      "##mit": 2202,
      "##ony": 2203,
      "##orado": 2204,
      "recent": 2205,
      "countdown": 2206,
      "##arden": 2207,
      "scheduled": 2208,
      "bread": 2209,
      "Carol": 2210,
      "doraan": 2211,
      "28": 2212,
      "FL": 2213,
      "Kat": 2214,
      "Mark": 2215,
      "dur": 2216,
      "##ES": 2217,
      "##TA": 2218,
      "apko": 2219,
      "20th": 2220,
      "##cot": 2221,
      "Traffic": 2222,
      "dusre": 2223,
      "bhai": 2224,
      "##ric": 2225,
      "Chris": 2226,
      "chalne": 2227,
      "##onto": 2228,
      "De": 2229,
      "Sarah": 2230,
      "cool": 2231,
      "muj": 2232,
      "##vis": 2233,
      "##anch": 2234,
      "reaction": 2235,
      "Festival": 2236,
      "Pen": 2237,
      "char": 2238,
      "sm": 2239,
      "##egi": 2240,
      "badlo": 2241,
      "interstate": 2242,
      "perform": 2243,
      "Eng": 2244,
      "Tor": 2245,
      "##cy": 2246,
      "tree": 2247,
      "weekends": 2248,
      "chicago": 2249,
      "##ovember": 2250,
      "Jane": 2251,
      "Sha": 2252,
      "tax": 2253,
      "##pital": 2254,
      "##one": 2255,
      "##bour": 2256,
      "dein": 2257,
      "Ad": 2258,
      "Green": 2259,
      "fair": 2260,
      "one": 2261,
      "your": 2262,
      "##tic": 2263,
      "##hse": 2264,
      "##kee": 2265,
      "##tel": 2266,
      "##orld": 2267,
      "##rie": 2268,
      "paper": 2269,
      "##edy": 2270,
      "storm": 2271,
      "months": 2272,
      "lights": 2273,
      "mujhse": 2274,
      "70": 2275,
      "Bar": 2276,
      "Face": 2277,
      "kn": 2278,
      "main": 2279,
      "##usin": 2280,
      "10th": 2281,
      "France": 2282,
      "homework": 2283,
      "##izza": 2284,
      "Rep": 2285,
      "ed": 2286,
      "kh": 2287,
      "niche": 2288,
      "##xico": 2289,
      "##field": 2290,
      "##tact": 2291,
      "contact": 2292,
      "classes": 2293,
      "tracks": 2294,
      "humko": 2295,
      "##ife": 2296,
      "two": 2297,
      "bridge": 2298,
      "ok": 2299,
      "turn": 2300,
      "##IC": 2301,
      "##erci": 2302,
      "##let": 2303,
      "Island": 2304,
      "Rob": 2305,
      "bajaayen": 2306,
      "honge": 2307,
      "nikaalen": 2308,
      "Jim": 2309,
      "celsius": 2310,
      "fahrenheit": 2311,
      "hora": 2312,
      "vac": 2313,
      "##hr": 2314,
      "save": 2315,
      "switch": 2316,
      "tasting": 2317,
      "eye": 2318,
      "##aane": 2319,
      "##hael": 2320,
      "##als": 2321,
      "congestion": 2322,
      "##ular": 2323,
      "thr": 2324,
      "22": 2325,
      "Paul": 2326,
      "##leans": 2327,
      "##ungi": 2328,
      "take": 2329,
      "##hattan": 2330,
      "great": 2331,
      "Jose": 2332,
      "index": 2333,
      "sweater": 2334,
      "horaha": 2335,
      "wash": 2336,
      "channel": 2337,
      "midday": 2338,
      "##burgh": 2339,
      "flooding": 2340,
      "Am": 2341,
      "submit": 2342,
      "heat": 2343,
      "waali": 2344,
      "##under": 2345,
      "##raha": 2346,
      "Columb": 2347,
      "lejaane": 2348,
      "Ap": 2349,
      "Antonio": 2350,
      "now": 2351,
      "vap": 2352,
      "##wy": 2353,
      "sale": 2354,
      "12th": 2355,
      "Beyonce": 2356,
      "Year": 2357,
      "flowers": 2358,
      "Hawai": 2359,
      "Nashville": 2360,
      "Ohio": 2361,
      "au": 2362,
      "er": 2363,
      "ku": 2364,
      "slow": 2365,
      "plans": 2366,
      "100": 2367,
      "starts": 2368,
      "##kyo": 2369,
      "Dav": 2370,
      "Use": 2371,
      "ky": 2372,
      "##fast": 2373,
      "##fall": 2374,
      "##eries": 2375,
      "mess": 2376,
      "##ned": 2377,
      "seat": 2378,
      "##aska": 2379,
      "banane": 2380,
      "return": 2381,
      "baseball": 2382,
      "dhe": 2383,
      "ext": 2384,
      "##ama": 2385,
      "cousin": 2386,
      "chalaye": 2387,
      "meetings": 2388,
      "orlando": 2389,
      "Events": 2390,
      "through": 2391,
      "Fort": 2392,
      "Hall": 2393,
      "est": 2394,
      "make": 2395,
      "was": 2396,
      "dohr": 2397,
      "nap": 2398,
      "uska": 2399,
      "##ails": 2400,
      "Colorado": 2401,
      "chizein": 2402,
      "Toronto": 2403,
      "##bourne": 2404,
      "55": 2405,
      "Bill": 2406,
      "Lo": 2407,
      "Sub": 2408,
      "tar": 2409,
      "vol": 2410,
      "##iana": 2411,
      "##ox": 2412,
      "##ila": 2413,
      "adhe": 2414,
      "##ieber": 2415,
      "England": 2416,
      "Facebook": 2417,
      "Laur": 2418,
      "gar": 2419,
      "him": 2420,
      "##ather": 2421,
      "karenge": 2422,
      "interview": 2423,
      "proj": 2424,
      "grandma": 2425,
      "Springs": 2426,
      "Hey": 2427,
      "block": 2428,
      "ear": 2429,
      "##ange": 2430,
      "bajayen": 2431,
      "town": 2432,
      "inc": 2433,
      "post": 2434,
      "comedy": 2435,
      "art": 2436,
      "condition": 2437,
      "interval": 2438,
      "help": 2439,
      "Reply": 2440,
      "27": 2441,
      "Bal": 2442,
      "ju": 2443,
      "season": 2444,
      "aage": 2445,
      "##ison": 2446,
      "ghanta": 2447,
      "Joe": 2448,
      "updates": 2449,
      "##useum": 2450,
      "swim": 2451,
      "Hill": 2452,
      "khane": 2453,
      "ole": 2454,
      "##ves": 2455,
      "##OR": 2456,
      "Fridays": 2457,
      "exerci": 2458,
      "thunder": 2459,
      "classic": 2460,
      "dusra": 2461,
      "##track": 2462,
      "bank": 2463,
      "31": 2464,
      "LI": 2465,
      "##ps": 2466,
      "##ota": 2467,
      "##yc": 2468,
      "##ford": 2469,
      "##yan": 2470,
      "##ative": 2471,
      "ins": 2472,
      "pot": 2473,
      "flor": 2474,
      "sone": 2475,
      "dikhta": 2476,
      "freez": 2477,
      "##aleigh": 2478,
      "messenger": 2479,
      "Mike": 2480,
      "Morning": 2481,
      "Raleigh": 2482,
      "Scot": 2483,
      "US": 2484,
      "jana": 2485,
      "##onse": 2486,
      "##storm": 2487,
      "inform": 2488,
      "thumbs": 2489,
      "Jersey": 2490,
      "Kansas": 2491,
      "Re": 2492,
      "celcius": 2493,
      "##neap": 2494,
      "25th": 2495,
      "##neapolis": 2496,
      "Ari": 2497,
      "Main": 2498,
      "Que": 2499,
      "##aila": 2500,
      "##ines": 2501,
      "availa": 2502,
      "rakh": 2503,
      "Melbourne": 2504,
      "closest": 2505,
      "seattle": 2506,
      "ele": 2507,
      "pu": 2508,
      "##ON": 2509,
      "place": 2510,
      "##itation": 2511,
      "##itts": 2512,
      "##umber": 2513,
      "restaur": 2514,
      "kyu": 2515,
      "Jay": 2516,
      "Mil": 2517,
      "our": 2518,
      "##een": 2519,
      "##nder": 2520,
      "dece": 2521,
      "##ower": 2522,
      "sunny": 2523,
      "ache": 2524,
      "voice": 2525,
      "florida": 2526,
      "dates": 2527,
      "fo": 2528,
      "let": 2529,
      "pizza": 2530,
      "si": 2531,
      "watch": 2532,
      "##AY": 2533,
      "##aukee": 2534,
      "##dale": 2535,
      "##erson": 2536,
      "Road": 2537,
      "groceries": 2538,
      "George": 2539,
      "##zona": 2540,
      "know": 2541,
      "december": 2542,
      "2nd": 2543,
      "Bel": 2544,
      "Family": 2545,
      "Wal": 2546,
      "ride": 2547,
      "##ij": 2548,
      "##cal": 2549,
      "##watch": 2550,
      "##ino": 2551,
      "bas": 2552,
      "dest": 2553,
      "sakti": 2554,
      "##uston": 2555,
      "active": 2556,
      "##emi": 2557,
      "soundtrack": 2558,
      "available": 2559,
      "7th": 2560,
      "pool": 2561,
      "bake": 2562,
      "##lack": 2563,
      "padi": 2564,
      "dogs": 2565,
      "Canada": 2566,
      "vacation": 2567,
      "extra": 2568,
      "Dow": 2569,
      "KE": 2570,
      "Li": 2571,
      "yad": 2572,
      "##ress": 2573,
      "##lic": 2574,
      "##line": 2575,
      "houston": 2576,
      "kaho": 2577,
      "miami": 2578,
      "routes": 2579,
      "Route": 2580,
      "##timore": 2581,
      "Spain": 2582,
      "##ference": 2583,
      "Manhattan": 2584,
      "April": 2585,
      "estim": 2586,
      "Si": 2587,
      "She": 2588,
      "Sac": 2589,
      "loop": 2590,
      "##gia": 2591,
      "##key": 2592,
      "Brook": 2593,
      "likha": 2594,
      "jayega": 2595,
      "exercise": 2596,
      "##ittsburgh": 2597,
      "destin": 2598,
      "Pr": 2599,
      "sport": 2600,
      "spec": 2601,
      "##waukee": 2602,
      "##arch": 2603,
      "jaank": 2604,
      "Orleans": 2605,
      "rakho": 2606,
      "jaankari": 2607,
      "November": 2608,
      "Ok": 2609,
      "jai": 2610,
      "panch": 2611,
      "hos": 2612,
      "##nie": 2613,
      "##irgin": 2614,
      "come": 2615,
      "breakfast": 2616,
      "alternate": 2617,
      "Downtown": 2618,
      "Cin": 2619,
      "##ten": 2620,
      "temp": 2621,
      "sho": 2622,
      "appointments": 2623,
      "years": 2624,
      "popular": 2625,
      "bedtime": 2626,
      "present": 2627,
      "##irginia": 2628,
      "Bro": 2629,
      "Mall": 2630,
      "fall": 2631,
      "sare": 2632,
      "##ual": 2633,
      "##ca": 2634,
      "state": 2635,
      "hottest": 2636,
      "child": 2637,
      "Thumbs": 2638,
      "brother": 2639,
      "Minneapolis": 2640,
      "yoga": 2641,
      "vapas": 2642,
      "Sacramento": 2643,
      "Lau": 2644,
      "SE": 2645,
      "##sh": 2646,
      "##mo": 2647,
      "##oween": 2648,
      "currently": 2649,
      "los": 2650,
      "news": 2651,
      "jaoonga": 2652,
      "##press": 2653,
      "##ription": 2654,
      "##regon": 2655,
      "destination": 2656,
      "Jul": 2657,
      "Le": 2658,
      "aand": 2659,
      "bi": 2660,
      "center": 2661,
      "egg": 2662,
      "fif": 2663,
      "##ele": 2664,
      "##gn": 2665,
      "##mond": 2666,
      "##RA": 2667,
      "##inge": 2668,
      "##teen": 2669,
      "##aft": 2670,
      "conference": 2671,
      "mile": 2672,
      "lighting": 2673,
      "hoja": 2674,
      "Tokyo": 2675,
      "James": 2676,
      "guzar": 2677,
      "David": 2678,
      "aandhi": 2679,
      "eve": 2680,
      "##ann": 2681,
      "##higan": 2682,
      "plants": 2683,
      "bhejkar": 2684,
      "Mexico": 2685,
      "##ariq": 2686,
      "kehta": 2687,
      "buy": 2688,
      "Jacksonville": 2689,
      "Arizona": 2690,
      "29": 2691,
      "Buff": 2692,
      "##cast": 2693,
      "##bara": 2694,
      "kisne": 2695,
      "answ": 2696,
      "Brun": 2697,
      "rakhe": 2698,
      "drink": 2699,
      "alternative": 2700,
      "hojaungi": 2701,
      "8th": 2702,
      "Ex": 2703,
      "Virginia": 2704,
      "august": 2705,
      "paint": 2706,
      "tariq": 2707,
      "##alley": 2708,
      "##itter": 2709,
      "##irming": 2710,
      "stopwatch": 2711,
      "dikhaiye": 2712,
      "pehenna": 2713,
      "thanks": 2714,
      "Highway": 2715,
      "hospital": 2716,
      "answer": 2717,
      "tariqa": 2718,
      "Ga": 2719,
      "angeles": 2720,
      "cal": 2721,
      "##pike": 2722,
      "##00": 2723,
      "##bha": 2724,
      "##aining": 2725,
      "##get": 2726,
      "baarey": 2727,
      "chick": 2728,
      "90s": 2729,
      "26": 2730,
      "Current": 2731,
      "sune": 2732,
      "##man": 2733,
      "##ket": 2734,
      "##ang": 2735,
      "adj": 2736,
      "reserv": 2737,
      "payment": 2738,
      "Michael": 2739,
      "find": 2740,
      "pehanna": 2741,
      "audio": 2742,
      "dheemi": 2743,
      "sad": 2744,
      "vegas": 2745,
      "dilana": 2746,
      "dene": 2747,
      "##old": 2748,
      "nikle": 2749,
      "##hone": 2750,
      "Sundays": 2751,
      "Thursdays": 2752,
      "##lies": 2753,
      "jams": 2754,
      "##ijing": 2755,
      "sunen": 2756,
      "Cr": 2757,
      "HO": 2758,
      "Week": 2759,
      "##vent": 2760,
      "##ST": 2761,
      "pehla": 2762,
      "bete": 2763,
      "boston": 2764,
      "here": 2765,
      "##ebru": 2766,
      "supp": 2767,
      "adjust": 2768,
      "Don": 2769,
      "Kar": 2770,
      "kha": 2771,
      "karunga": 2772,
      "ready": 2773,
      "hold": 2774,
      "hotel": 2775,
      "##entral": 2776,
      "##cks": 2777,
      "kabb": 2778,
      "##rew": 2779,
      "##ulu": 2780,
      "pict": 2781,
      "presc": 2782,
      "chota": 2783,
      "dohrayen": 2784,
      "project": 2785,
      "##ebruary": 2786,
      "6th": 2787,
      "Bieber": 2788,
      "Je": 2789,
      "Kel": 2790,
      "sal": 2791,
      "sing": 2792,
      "##AN": 2793,
      "##ures": 2794,
      "##sapp": 2795,
      "##ades": 2796,
      "##tire": 2797,
      "##illy": 2798,
      "##hot": 2799,
      "busy": 2800,
      "erase": 2801,
      "##irmingham": 2802,
      "Air": 2803,
      "Ke": 2804,
      "bri": 2805,
      "dawa": 2806,
      "may": 2807,
      "##like": 2808,
      "##oria": 2809,
      "##tage": 2810,
      "##lyn": 2811,
      "stadium": 2812,
      "30th": 2813,
      "county": 2814,
      "cookies": 2815,
      "suraj": 2816,
      "thirty": 2817,
      "thunderstorm": 2818,
      "Milwaukee": 2819,
      "Aven": 2820,
      "Bay": 2821,
      "Dri": 2822,
      "Pe": 2823,
      "barey": 2824,
      "cer": 2825,
      "june": 2826,
      "ste": 2827,
      "##ier": 2828,
      "##ker": 2829,
      "##yn": 2830,
      "metal": 2831,
      "##andy": 2832,
      "john": 2833,
      "Mene": 2834,
      "Ken": 2835,
      "Lu": 2836,
      "Lisa": 2837,
      "camp": 2838,
      "east": 2839,
      "son": 2840,
      "##onga": 2841,
      "##orry": 2842,
      "kach": 2843,
      "##aker": 2844,
      "atlanta": 2845,
      "Wednesdays": 2846,
      "days": 2847,
      "Spring": 2848,
      "restaurant": 2849,
      "chicken": 2850,
      "##ketball": 2851,
      "Palm": 2852,
      "wre": 2853,
      "##pel": 2854,
      "##town": 2855,
      "##eran": 2856,
      "##ness": 2857,
      "sep": 2858,
      "##lena": 2859,
      "##anne": 2860,
      "##adway": 2861,
      "jaein": 2862,
      "##thing": 2863,
      "they": 2864,
      "##lywood": 2865,
      "##isting": 2866,
      "reschedule": 2867,
      "##quare": 2868,
      "jaaon": 2869,
      "bhul": 2870,
      "arrival": 2871,
      "special": 2872,
      "Pro": 2873,
      "Su": 2874,
      "Thank": 2875,
      "Zoo": 2876,
      "##vate": 2877,
      "##liye": 2878,
      "##lah": 2879,
      "bal": 2880,
      "search": 2881,
      "##sakta": 2882,
      "konsi": 2883,
      "shamil": 2884,
      "usme": 2885,
      "##oss": 2886,
      "Alaska": 2887,
      "details": 2888,
      "mazedar": 2889,
      "ruko": 2890,
      "##screen": 2891,
      "predic": 2892,
      "Baltimore": 2893,
      "Birthday": 2894,
      "My": 2895,
      "No": 2896,
      "Weather": 2897,
      "gen": 2898,
      "las": 2899,
      "mic": 2900,
      "number": 2901,
      "pol": 2902,
      "##ron": 2903,
      "##vo": 2904,
      "##vin": 2905,
      "karta": 2906,
      "##inn": 2907,
      "rel": 2908,
      "playing": 2909,
      "101": 2910,
      "sunscreen": 2911,
      "lekar": 2912,
      "exit": 2913,
      "soft": 2914,
      "thandi": 2915,
      "changed": 2916,
      "bills": 2917,
      "##lahoma": 2918,
      "Cha": 2919,
      "East": 2920,
      "Wine": 2921,
      "Walm": 2922,
      "tur": 2923,
      "##YE": 2924,
      "##chi": 2925,
      "##ighbor": 2926,
      "##ream": 2927,
      "##chester": 2928,
      "##untain": 2929,
      "barfee": 2930,
      "Alb": 2931,
      "prog": 2932,
      "lejane": 2933,
      "17th": 2934,
      "basketball": 2935,
      "kachra": 2936,
      "Walmart": 2937,
      "Aunt": 2938,
      "Ben": 2939,
      "Kim": 2940,
      "Oregon": 2941,
      "Pittsburgh": 2942,
      "Sm": 2943,
      "jit": 2944,
      "rent": 2945,
      "##MS": 2946,
      "kara": 2947,
      "##aking": 2948,
      "test": 2949,
      "lekin": 2950,
      "Saturdays": 2951,
      "##able": 2952,
      "##lantic": 2953,
      "Frank": 2954,
      "bohot": 2955,
      "note": 2956,
      "hojayega": 2957,
      "Georgia": 2958,
      "market": 2959,
      "Halloween": 2960,
      "barfeeley": 2961,
      "ETA": 2962,
      "dallas": 2963,
      "fish": 2964,
      "old": 2965,
      "thi": 2966,
      "##gy": 2967,
      "##shi": 2968,
      "##ph": 2969,
      "##gale": 2970,
      "##reets": 2971,
      "mother": 2972,
      "poora": 2973,
      "##count": 2974,
      "ruke": 2975,
      "Buffalo": 2976,
      "Happy": 2977,
      "Ital": 2978,
      "Sky": 2979,
      "Will": 2980,
      "fund": 2981,
      "garden": 2982,
      "##cr": 2983,
      "##leston": 2984,
      "advis": 2985,
      "coast": 2986,
      "badaliye": 2987,
      "##coat": 2988,
      "snowing": 2989,
      "francisco": 2990,
      "##asakta": 2991,
      "books": 2992,
      "edit": 2993,
      "children": 2994,
      "February": 2995,
      "agale": 2996,
      "laiye": 2997,
      "port": 2998,
      "##uter": 2999,
      "##fore": 3000,
      "##union": 3001,
      "##enty": 3002,
      "def": 3003,
      "##ope": 3004,
      "chalu": 3005,
      "moms": 3006,
      "raincoat": 3007,
      "photo": 3008,
      "appt": 3009,
      "asar": 3010,
      "Indiana": 3011,
      "21st": 3012,
      "##rais": 3013,
      "LIYE": 3014,
      "##ycling": 3015,
      "Hel": 3016,
      "Jason": 3017,
      "Oak": 3018,
      "RE": 3019,
      "rad": 3020,
      "six": 3021,
      "sig": 3022,
      "##eal": 3023,
      "##lf": 3024,
      "##AT": 3025,
      "done": 3026,
      "streets": 3027,
      "neighbor": 3028,
      "before": 3029,
      "rainfall": 3030,
      "kaunse": 3031,
      "freezing": 3032,
      "information": 3033,
      "Lady": 3034,
      "Miss": 3035,
      "NJ": 3036,
      "Red": 3037,
      "faster": 3038,
      "less": 3039,
      "oor": 3040,
      "##rick": 3041,
      "##ms": 3042,
      "##akhi": 3043,
      "parents": 3044,
      "bot": 3045,
      "pohoch": 3046,
      "13th": 3047,
      "intervals": 3048,
      "9th": 3049,
      "Sal": 3050,
      "World": 3051,
      "cale": 3052,
      "fix": 3053,
      "gana": 3054,
      "power": 3055,
      "room": 3056,
      "serv": 3057,
      "want": 3058,
      "##yl": 3059,
      "##eatles": 3060,
      "##ids": 3061,
      "stuck": 3062,
      "##ions": 3063,
      "most": 3064,
      "utna": 3065,
      "colle": 3066,
      "pehenne": 3067,
      "##tract": 3068,
      "16th": 3069,
      "fifteen": 3070,
      "supplies": 3071,
      "Ala": 3072,
      "Valley": 3073,
      "man": 3074,
      "dec": 3075,
      "##mphis": 3076,
      "level": 3077,
      "pichli": 3078,
      "dislike": 3079,
      "rakhiye": 3080,
      "fundrais": 3081,
      "94": 3082,
      "Amer": 3083,
      "Bridge": 3084,
      "Birmingham": 3085,
      "KO": 3086,
      "Nap": 3087,
      "TRA": 3088,
      "##sville": 3089,
      "##tney": 3090,
      "##ublin": 3091,
      "##ire": 3092,
      "replay": 3093,
      "milen": 3094,
      "ann": 3095,
      "County": 3096,
      "Dayton": 3097,
      "##niversity": 3098,
      "Michigan": 3099,
      "Years": 3100,
      "18th": 3101,
      "september": 3102,
      "related": 3103,
      "Skype": 3104,
      "Celcius": 3105,
      "SMS": 3106,
      "hawa": 3107,
      "museum": 3108,
      "tampa": 3109,
      "wish": 3110,
      "##gle": 3111,
      "reunion": 3112,
      "##aff": 3113,
      "jaaraha": 3114,
      "##gie": 3115,
      "plays": 3116,
      "got": 3117,
      "hona": 3118,
      "Time": 3119,
      "Charleston": 3120,
      "Carolina": 3121,
      "Columbus": 3122,
      "##pressway": 3123,
      "Che": 3124,
      "Sally": 3125,
      "cut": 3126,
      "fee": 3127,
      "ta": 3128,
      "##ime": 3129,
      "##ani": 3130,
      "dilane": 3131,
      "launch": 3132,
      "temperatures": 3133,
      "Steve": 3134,
      "Katy": 3135,
      "taraf": 3136,
      "estimated": 3137,
      "Oklahoma": 3138,
      "Avenue": 3139,
      "jitni": 3140,
      "KAR": 3141,
      "Love": 3142,
      "Luc": 3143,
      "cele": 3144,
      "sti": 3145,
      "##iver": 3146,
      "jaasakta": 3147,
      "batasakte": 3148,
      "##ipp": 3149,
      "Atlantic": 3150,
      "unke": 3151,
      "khojne": 3152,
      "80s": 3153,
      "twenty": 3154,
      "##cola": 3155,
      "Cinc": 3156,
      "Italy": 3157,
      "Del": 3158,
      "Fall": 3159,
      "Jess": 3160,
      "Long": 3161,
      "Mont": 3162,
      "PA": 3163,
      "fast": 3164,
      "hi": 3165,
      "pet": 3166,
      "##vid": 3167,
      "##IS": 3168,
      "##ince": 3169,
      "##lev": 3170,
      "##sacola": 3171,
      "##ores": 3172,
      "did": 3173,
      "##ancou": 3174,
      "##olf": 3175,
      "leave": 3176,
      "address": 3177,
      "account": 3178,
      "swift": 3179,
      "needs": 3180,
      "spring": 3181,
      "early": 3182,
      "##innati": 3183,
      "rukegi": 3184,
      "##ancouver": 3185,
      "App": 3186,
      "Met": 3187,
      "So": 3188,
      "Sale": 3189,
      "Un": 3190,
      "##gry": 3191,
      "##yar": 3192,
      "##Me": 3193,
      "##UT": 3194,
      "##ona": 3195,
      "kap": 3196,
      "uski": 3197,
      "bajaana": 3198,
      "phoenix": 3199,
      "Kelly": 3200,
      "Cincinnati": 3201,
      "Vict": 3202,
      "lake": 3203,
      "wai": 3204,
      "##FF": 3205,
      "##que": 3206,
      "##aulo": 3207,
      "##iking": 3208,
      "##ittle": 3209,
      "bands": 3210,
      "##ape": 3211,
      "405": 3212,
      "Louisville": 3213,
      "pehanne": 3214,
      "predict": 3215,
      "puche": 3216,
      "program": 3217,
      "celebr": 3218,
      "Central": 3219,
      "Dave": 3220,
      "KA": 3221,
      "Shan": 3222,
      "but": 3223,
      "dau": 3224,
      "look": 3225,
      "norm": 3226,
      "taylor": 3227,
      "##ns": 3228,
      "##EN": 3229,
      "baat": 3230,
      "trop": 3231,
      "paunga": 3232,
      "##omm": 3233,
      "##ross": 3234,
      "##cean": 3235,
      "pasand": 3236,
      "things": 3237,
      "##maha": 3238,
      "dental": 3239,
      "walking": 3240,
      "24th": 3241,
      "volume": 3242,
      "Gaga": 3243,
      "niklega": 3244,
      "Salem": 3245,
      "Pink": 3246,
      "would": 3247,
      "##pt": 3248,
      "##polis": 3249,
      "sever": 3250,
      "parades": 3251,
      "subtract": 3252,
      "Memphis": 3253,
      "Beijing": 3254,
      "any": 3255,
      "Mars": 3256,
      "dress": 3257,
      "##ING": 3258,
      "medicine": 3259,
      "reading": 3260,
      "31st": 3261,
      "shoes": 3262,
      "Airport": 3263,
      "Pat": 3264,
      "Rich": 3265,
      "fol": 3266,
      "##lake": 3267,
      "##cut": 3268,
      "##za": 3269,
      "bach": 3270,
      "timing": 3271,
      "dobara": 3272,
      "isliye": 3273,
      "lawn": 3274,
      "tex": 3275,
      "##rop": 3276,
      "State": 3277,
      "##lence": 3278,
      "favour": 3279,
      "##bound": 3280,
      "dono": 3281,
      "Show": 3282,
      "Queens": 3283,
      "elect": 3284,
      "still": 3285,
      "##Message": 3286,
      "8pm": 3287,
      "Vancouver": 3288,
      "aana": 3289,
      "iMessage": 3290,
      "jata": 3291,
      "ty": 3292,
      "##gl": 3293,
      "##be": 3294,
      "##work": 3295,
      "##airo": 3296,
      "##onna": 3297,
      "reg": 3298,
      "##imit": 3299,
      "##akes": 3300,
      "##ges": 3301,
      "leke": 3302,
      "reser": 3303,
      "recycling": 3304,
      "front": 3305,
      "##umbai": 3306,
      "brunch": 3307,
      "perc": 3308,
      "##derdale": 3309,
      "raho": 3310,
      "Andy": 3311,
      "Perry": 3312,
      "tropical": 3313,
      "AL": 3314,
      "Jap": 3315,
      "Nick": 3316,
      "Omaha": 3317,
      "Sa": 3318,
      "Tul": 3319,
      "later": 3320,
      "tay": 3321,
      "##atre": 3322,
      "##ics": 3323,
      "hosakta": 3324,
      "##aho": 3325,
      "##sed": 3326,
      "jaanne": 3327,
      "##olo": 3328,
      "##olulu": 3329,
      "cost": 3330,
      "batane": 3331,
      "extend": 3332,
      "dikhayen": 3333,
      "giregi": 3334,
      "recording": 3335,
      "dhundein": 3336,
      "##ucson": 3337,
      "tolls": 3338,
      "14th": 3339,
      "aayegi": 3340,
      "##annah": 3341,
      "turkey": 3342,
      "fundraiser": 3343,
      "Billy": 3344,
      "CA": 3345,
      "Jill": 3346,
      "Kent": 3347,
      "Key": 3348,
      "Mc": 3349,
      "Mat": 3350,
      "Po": 3351,
      "Uni": 3352,
      "laker": 3353,
      "mad": 3354,
      "shar": 3355,
      "side": 3356,
      "##ward": 3357,
      "##DAY": 3358,
      "##erry": 3359,
      "seven": 3360,
      "##enue": 3361,
      "chaar": 3362,
      "plac": 3363,
      "##oll": 3364,
      "##anda": 3365,
      "chalayen": 3366,
      "Josh": 3367,
      "exam": 3368,
      "Maine": 3369,
      "dikhraha": 3370,
      "Brad": 3371,
      "overnight": 3372,
      "Laura": 3373,
      "silence": 3374,
      "##FFIC": 3375,
      "severe": 3376,
      "favourite": 3377,
      "tayyar": 3378,
      "Ade": 3379,
      "Cor": 3380,
      "Mac": 3381,
      "Mari": 3382,
      "NC": 3383,
      "aunt": 3384,
      "boss": 3385,
      "##nic": 3386,
      "##cel": 3387,
      "##bama": 3388,
      "##wa": 3389,
      "##ero": 3390,
      "##giving": 3391,
      "##ational": 3392,
      "Christ": 3393,
      "pahuchna": 3394,
      "been": 3395,
      "Rochester": 3396,
      "shehar": 3397,
      "opening": 3398,
      "favorites": 3399,
      "##helle": 3400,
      "swimming": 3401,
      "Thanks": 3402,
      "Alabama": 3403,
      "530": 3404,
      "98": 3405,
      "Fair": 3406,
      "Ho": 3407,
      "Sam": 3408,
      "TA": 3409,
      "ligh": 3410,
      "sug": 3411,
      "wife": 3412,
      "##thes": 3413,
      "##door": 3414,
      "##IL": 3415,
      "ball": 3416,
      "all": 3417,
      "regi": 3418,
      "##eeth": 3419,
      "##ublic": 3420,
      "jae": 3421,
      "##oogle": 3422,
      "lanes": 3423,
      "##edi": 3424,
      "kardi": 3425,
      "mornings": 3426,
      "reports": 3427,
      "clothes": 3428,
      "Parkway": 3429,
      "medication": 3430,
      "Scotland": 3431,
      "eggs": 3432,
      "Bruno": 3433,
      "Victoria": 3434,
      "Tulsa": 3435,
      "Adele": 3436,
      "Beatles": 3437,
      "Farm": 3438,
      "Hon": 3439,
      "TH": 3440,
      "Yo": 3441,
      "dho": 3442,
      "fly": 3443,
      "father": 3444,
      "pill": 3445,
      "saf": 3446,
      "##look": 3447,
      "##nis": 3448,
      "##uation": 3449,
      "##bage": 3450,
      "##IM": 3451,
      "##UR": 3452,
      "##str": 3453,
      "##ames": 3454,
      "##uba": 3455,
      "jau": 3456,
      "##ights": 3457,
      "Newport": 3458,
      "skating": 3459,
      "box": 3460,
      "tezi": 3461,
      "##ego": 3462,
      "nights": 3463,
      "highways": 3464,
      "Anna": 3465,
      "response": 3466,
      "flooded": 3467,
      "package": 3468,
      "taxes": 3469,
      "greatest": 3470,
      "Subha": 3471,
      "Remind": 3472,
      "Broadway": 3473,
      "portland": 3474,
      "TRAFFIC": 3475,
      "Em": 3476,
      "Like": 3477,
      "School": 3478,
      "hisa": 3479,
      "soon": 3480,
      "##gr": 3481,
      "##ices": 3482,
      "##ania": 3483,
      "heart": 3484,
      "##mperature": 3485,
      "padhe": 3486,
      "online": 3487,
      "deri": 3488,
      "##sakte": 3489,
      "##iano": 3490,
      "screen": 3491,
      "Temperature": 3492,
      "Drake": 3493,
      "Daniel": 3494,
      "turnpike": 3495,
      "july": 3496,
      "jaisa": 3497,
      "prescription": 3498,
      "brithday": 3499,
      "dhoond": 3500,
      "Nor": 3501,
      "Out": 3502,
      "eight": 3503,
      "fil": 3504,
      "gi": 3505,
      "land": 3506,
      "limit": 3507,
      "mow": 3508,
      "##vd": 3509,
      "##od": 3510,
      "##hna": 3511,
      "##san": 3512,
      "should": 3513,
      "pehn": 3514,
      "cour": 3515,
      "hatao": 3516,
      "bole": 3517,
      "picnic": 3518,
      "outlook": 3519,
      "rokey": 3520,
      "activate": 3521,
      "ummed": 3522,
      "##gging": 3523,
      "##coln": 3524,
      "guzarne": 3525,
      "Jeff": 3526,
      "Uncle": 3527,
      "Japan": 3528,
      "hisaaab": 3529,
      "pehnna": 3530,
      "65": 3531,
      "Big": 3532,
      "Kate": 3533,
      "Mart": 3534,
      "lou": 3535,
      "##lane": 3536,
      "##hest": 3537,
      "##hite": 3538,
      "##ought": 3539,
      "ghantey": 3540,
      "beer": 3541,
      "existing": 3542,
      "Stadium": 3543,
      "##ffect": 3544,
      "denver": 3545,
      "haircut": 3546,
      "Hollywood": 3547,
      "##boro": 3548,
      "Whatsapp": 3549,
      "##ault": 3550,
      "entire": 3551,
      "Andrew": 3552,
      "River": 3553,
      "khule": 3554,
      "Robert": 3555,
      "garbage": 3556,
      "Siri": 3557,
      "cerem": 3558,
      "kardijiye": 3559,
      "Honolulu": 3560,
      "Chi": 3561,
      "Food": 3562,
      "Kn": 3563,
      "Tac": 3564,
      "Wil": 3565,
      "golf": 3566,
      "hig": 3567,
      "jer": 3568,
      "tab": 3569,
      "##iam": 3570,
      "##ud": 3571,
      "##band": 3572,
      "##ins": 3573,
      "##eno": 3574,
      "kabhi": 3575,
      "##usband": 3576,
      "teach": 3577,
      "##ayenge": 3578,
      "##round": 3579,
      "direction": 3580,
      "bajaaye": 3581,
      "ruka": 3582,
      "##omez": 3583,
      "aayega": 3584,
      "Linda": 3585,
      "Sheeran": 3586,
      "Lauderdale": 3587,
      "Karen": 3588,
      "##shire": 3589,
      "Jab": 3590,
      "hwy": 3591,
      "maj": 3592,
      "yard": 3593,
      "##cus": 3594,
      "##EL": 3595,
      "karni": 3596,
      "sess": 3597,
      "##urch": 3598,
      "review": 3599,
      "##anna": 3600,
      "##ung": 3601,
      "training": 3602,
      "doing": 3603,
      "##eters": 3604,
      "##edit": 3605,
      "kardegi": 3606,
      "##mbers": 3607,
      "##sia": 3608,
      "Michelle": 3609,
      "complete": 3610,
      "Inter": 3611,
      "artists": 3612,
      "Drive": 3613,
      "default": 3614,
      "Indianapolis": 3615,
      "texas": 3616,
      "Reminder": 3617,
      "dhoondne": 3618,
      "Des": 3619,
      "hall": 3620,
      "husband": 3621,
      "icy": 3622,
      "some": 3623,
      "##prise": 3624,
      "##ind": 3625,
      "apart": 3626,
      "cont": 3627,
      "##acker": 3628,
      "moon": 3629,
      "grad": 3630,
      "##ious": 3631,
      "Count": 3632,
      "Madrid": 3633,
      "blues": 3634,
      "Brooklyn": 3635,
      "kapde": 3636,
      "highest": 3637,
      "64": 3638,
      "Band": 3639,
      "Garden": 3640,
      "TIM": 3641,
      "bel": 3642,
      "big": 3643,
      "coup": 3644,
      "farm": 3645,
      "line": 3646,
      "mute": 3647,
      "mum": 3648,
      "rid": 3649,
      "##pen": 3650,
      "##ones": 3651,
      "##hy": 3652,
      "##kari": 3653,
      "##aton": 3654,
      "diego": 3655,
      "##unnel": 3656,
      "##ayed": 3657,
      "##aving": 3658,
      "jogging": 3659,
      "##arage": 3660,
      "tezz": 3661,
      "janne": 3662,
      "jankari": 3663,
      "Lincoln": 3664,
      "Monica": 3665,
      "Pensacola": 3666,
      "blocked": 3667,
      "sporting": 3668,
      "Hello": 3669,
      "jersey": 3670,
      "41": 3671,
      "Fl": 3672,
      "King": 3673,
      "hiking": 3674,
      "jayenge": 3675,
      "shan": 3676,
      "sorry": 3677,
      "##unes": 3678,
      "##tt": 3679,
      "##bile": 3680,
      "##gage": 3681,
      "jag": 3682,
      "##ouse": 3683,
      "##ghai": 3684,
      "dinon": 3685,
      "##rost": 3686,
      "puchne": 3687,
      "clos": 3688,
      "bolinge": 3689,
      "credit": 3690,
      "lagbha": 3691,
      "chill": 3692,
      "parkway": 3693,
      "Group": 3694,
      "Art": 3695,
      "##eworks": 3696,
      "Market": 3697,
      "single": 3698,
      "Smith": 3699,
      "major": 3700,
      "lagbhag": 3701,
      "Af": 3702,
      "Gu": 3703,
      "Gar": 3704,
      "Hwy": 3705,
      "Mid": 3706,
      "Ron": 3707,
      "Square": 3708,
      "UV": 3709,
      "Wa": 3710,
      "bow": 3711,
      "green": 3712,
      "garage": 3713,
      "name": 3714,
      "sus": 3715,
      "##rac": 3716,
      "##ition": 3717,
      "##xing": 3718,
      "##tou": 3719,
      "##fornia": 3720,
      "##GA": 3721,
      "##era": 3722,
      "##unk": 3723,
      "##ances": 3724,
      "haftou": 3725,
      "##lag": 3726,
      "##sakti": 3727,
      "##ntar": 3728,
      "milna": 3729,
      "##ulf": 3730,
      "ski": 3731,
      "christ": 3732,
      "freeze": 3733,
      "Fred": 3734,
      "##berlake": 3735,
      "after": 3736,
      "backed": 3737,
      "Calfornia": 3738,
      "surprise": 3739,
      "Heart": 3740,
      "23rd": 3741,
      "Subah": 3742,
      "##oxville": 3743,
      "27th": 3744,
      "painting": 3745,
      "california": 3746,
      "##ealand": 3747,
      "##lfriend": 3748,
      "Matt": 3749,
      "places": 3750,
      "##racuse": 3751,
      "Dublin": 3752,
      "Eli": 3753,
      "Kit": 3754,
      "Konse": 3755,
      "Tw": 3756,
      "Tho": 3757,
      "bir": 3758,
      "games": 3759,
      "ha": 3760,
      "piano": 3761,
      "sim": 3762,
      "shi": 3763,
      "uni": 3764,
      "ve": 3765,
      "##ugh": 3766,
      "##dd": 3767,
      "##NE": 3768,
      "##arter": 3769,
      "##ato": 3770,
      "truck": 3771,
      "##amar": 3772,
      "chaata": 3773,
      "##esha": 3774,
      "##ilton": 3775,
      "fort": 3776,
      "##athy": 3777,
      "chalana": 3778,
      "##aven": 3779,
      "expressway": 3780,
      "##load": 3781,
      "girls": 3782,
      "Adam": 3783,
      "okay": 3784,
      "22nd": 3785,
      "Columbia": 3786,
      "incre": 3787,
      "Shanghai": 3788,
      "##glasses": 3789,
      "49": 3790,
      "Ave": 3791,
      "Bre": 3792,
      "Black": 3793,
      "Dur": 3794,
      "Dance": 3795,
      "Game": 3796,
      "Mor": 3797,
      "Nat": 3798,
      "Ten": 3799,
      "Tucson": 3800,
      "cream": 3801,
      "##ret": 3802,
      "##room": 3803,
      "##cl": 3804,
      "##RI": 3805,
      "##US": 3806,
      "bay": 3807,
      "rece": 3808,
      "##tamin": 3809,
      "takhi": 3810,
      "agr": 3811,
      "##ilar": 3812,
      "them": 3813,
      "##hanna": 3814,
      "Stu": 3815,
      "##hirt": 3816,
      "girlfriend": 3817,
      "uncle": 3818,
      "Cold": 3819,
      "likh": 3820,
      "Syracuse": 3821,
      "19th": 3822,
      "third": 3823,
      "fog": 3824,
      "reservations": 3825,
      "Susan": 3826,
      "normal": 3827,
      "teacher": 3828,
      "44": 3829,
      "Hamp": 3830,
      "Men": 3831,
      "Mag": 3832,
      "Rus": 3833,
      "Ryan": 3834,
      "Sta": 3835,
      "Top": 3836,
      "aaraha": 3837,
      "sl": 3838,
      "under": 3839,
      "##sit": 3840,
      "##pool": 3841,
      "##tor": 3842,
      "##yle": 3843,
      "keys": 3844,
      "##iness": 3845,
      "men": 3846,
      "bath": 3847,
      "ref": 3848,
      "rela": 3849,
      "trans": 3850,
      "sunglasses": 3851,
      "ande": 3852,
      "log": 3853,
      "11th": 3854,
      "deliver": 3855,
      "business": 3856,
      "2017": 3857,
      "jiske": 3858,
      "Disneyland": 3859,
      "tastings": 3860,
      "28th": 3861,
      "advisory": 3862,
      "Oakland": 3863,
      "Richmond": 3864,
      "electric": 3865,
      "##gested": 3866,
      "85": 3867,
      "Aj": 3868,
      "Ange": 3869,
      "Ill": 3870,
      "Ja": 3871,
      "Zealand": 3872,
      "aisa": 3873,
      "flo": 3874,
      "ign": 3875,
      "len": 3876,
      "pat": 3877,
      "sar": 3878,
      "teeth": 3879,
      "wow": 3880,
      "##ump": 3881,
      "##pa": 3882,
      "##mont": 3883,
      "##den": 3884,
      "##MIN": 3885,
      "##ala": 3886,
      "##minem": 3887,
      "##enton": 3888,
      "##thers": 3889,
      "##its": 3890,
      "##andom": 3891,
      "congested": 3892,
      "bheja": 3893,
      "##hley": 3894,
      "##allica": 3895,
      "##ester": 3896,
      "milg": 3897,
      "Boise": 3898,
      "disney": 3899,
      "parking": 3900,
      "fairs": 3901,
      "kyuki": 3902,
      "christian": 3903,
      "Ama": 3904,
      "Amy": 3905,
      "Ft": 3906,
      "Id": 3907,
      "Kend": 3908,
      "Mess": 3909,
      "MIN": 3910,
      "Night": 3911,
      "Pas": 3912,
      "Tony": 3913,
      "black": 3914,
      "el": 3915,
      "four": 3916,
      "just": 3917,
      "nice": 3918,
      "person": 3919,
      "right": 3920,
      "##aan": 3921,
      "##ful": 3922,
      "##heim": 3923,
      "##ano": 3924,
      "island": 3925,
      "head": 3926,
      "total": 3927,
      "##ely": 3928,
      "##eath": 3929,
      "sac": 3930,
      "sales": 3931,
      "##nifer": 3932,
      "##rea": 3933,
      "Newark": 3934,
      "##utcr": 3935,
      "##lix": 3936,
      "cheese": 3937,
      "company": 3938,
      "Club": 3939,
      "khul": 3940,
      "Hills": 3941,
      "Julie": 3942,
      "Weekend": 3943,
      "pictures": 3944,
      "wrecks": 3945,
      "gener": 3946,
      "radar": 3947,
      "taakhi": 3948,
      "Apple": 3949,
      "favourites": 3950,
      "similar": 3951,
      "ignore": 3952,
      "Ana": 3953,
      "Ber": 3954,
      "Bur": 3955,
      "Ever": 3956,
      "Kara": 3957,
      "Rap": 3958,
      "Sand": 3959,
      "TX": 3960,
      "You": 3961,
      "cor": 3962,
      "dan": 3963,
      "far": 3964,
      "##rat": 3965,
      "##rtle": 3966,
      "##vania": 3967,
      "##lington": 3968,
      "##ient": 3969,
      "##hood": 3970,
      "##EE": 3971,
      "##DER": 3972,
      "##hew": 3973,
      "##entage": 3974,
      "red": 3975,
      "dilaiye": 3976,
      "theatre": 3977,
      "pehna": 3978,
      "##pot": 3979,
      "begin": 3980,
      "mix": 3981,
      "##ult": 3982,
      "Maria": 3983,
      "santa": 3984,
      "assi": 3985,
      "Manila": 3986,
      "enter": 3987,
      "arrive": 3988,
      "tennis": 3989,
      "Jennifer": 3990,
      "vitamin": 3991,
      "duri": 3992,
      "Kevin": 3993,
      "##ylvania": 3994,
      "college": 3995,
      "decor": 3996,
      "Jessica": 3997,
      "percentage": 3998,
      "TAK": 3999,
      "Interstate": 4000,
      "Messenger": 4001,
      "##utcracker": 4002,
      "For": 4003,
      "Germ": 4004,
      "Palo": 4005,
      "Paulo": 4006,
      "Sara": 4007,
      "Sue": 4008,
      "Tar": 4009,
      "University": 4010,
      "Yaha": 4011,
      "each": 4012,
      "lines": 4013,
      "pants": 4014,
      "su": 4015,
      "##miss": 4016,
      "##AS": 4017,
      "##bby": 4018,
      "##ere": 4019,
      "members": 4020,
      "##head": 4021,
      "##tead": 4022,
      "##alk": 4023,
      "##hib": 4024,
      "jaonga": 4025,
      "##ndar": 4026,
      "##isc": 4027,
      "their": 4028,
      "saku": 4029,
      "##aco": 4030,
      "China": 4031,
      "##ipe": 4032,
      "thode": 4033,
      "Alto": 4034,
      "outdoor": 4035,
      "lowest": 4036,
      "baking": 4037,
      "rahna": 4038,
      "jagane": 4039,
      "Perth": 4040,
      "eyes": 4041,
      "##nessee": 4042,
      "daud": 4043,
      "##nsylvania": 4044,
      "Thanksgiving": 4045,
      "MINUT": 4046,
      "Cairo": 4047,
      "Mumbai": 4048,
      "Sport": 4049,
      "cup": 4050,
      "hate": 4051,
      "more": 4052,
      "tum": 4053,
      "zoo": 4054,
      "##aath": 4055,
      "##ears": 4056,
      "##side": 4057,
      "##kes": 4058,
      "##AL": 4059,
      "##aise": 4060,
      "meat": 4061,
      "##new": 4062,
      "##nect": 4063,
      "alre": 4064,
      "release": 4065,
      "##unity": 4066,
      "##hie": 4067,
      "##ria": 4068,
      "##lymp": 4069,
      "niklane": 4070,
      "convent": 4071,
      "30pm": 4072,
      "inv": 4073,
      "##athon": 4074,
      "##ains": 4075,
      "chup": 4076,
      "brow": 4077,
      "brush": 4078,
      "cookie": 4079,
      "hojayegi": 4080,
      "halaath": 4081,
      "Brian": 4082,
      "ringing": 4083,
      "picture": 4084,
      "lessons": 4085,
      "Salt": 4086,
      "America": 4087,
      "jagah": 4088,
      "milgaye": 4089,
      "assign": 4090,
      "already": 4091,
      "5k": 4092,
      "Bra": 4093,
      "Ham": 4094,
      "La": 4095,
      "Lab": 4096,
      "away": 4097,
      "ide": 4098,
      "justin": 4099,
      "lis": 4100,
      "much": 4101,
      "sna": 4102,
      "tv": 4103,
      "tai": 4104,
      "##ous": 4105,
      "##do": 4106,
      "met": 4107,
      "kid": 4108,
      "##ors": 4109,
      "##ican": 4110,
      "##gether": 4111,
      "subsc": 4112,
      "iss": 4113,
      "##ooth": 4114,
      "##anche": 4115,
      "paunch": 4116,
      "left": 4117,
      "milsakti": 4118,
      "chores": 4119,
      "recomm": 4120,
      "##ospel": 4121,
      "##mington": 4122,
      "Party": 4123,
      "freeways": 4124,
      "Coast": 4125,
      "Mountain": 4126,
      "Ann": 4127,
      "likho": 4128,
      "##ledo": 4129,
      "instead": 4130,
      "reservation": 4131,
      "Springfield": 4132,
      "REMIN": 4133,
      "calendar": 4134,
      "service": 4135,
      "Daytona": 4136,
      "filter": 4137,
      "Wales": 4138,
      "Jazz": 4139,
      "Amazon": 4140,
      "sacramento": 4141,
      "recommend": 4142,
      "REMINDER": 4143,
      "Bris": 4144,
      "Cape": 4145,
      "Ice": 4146,
      "Little": 4147,
      "Museum": 4148,
      "Olymp": 4149,
      "Sav": 4150,
      "Vi": 4151,
      "bet": 4152,
      "cent": 4153,
      "file": 4154,
      "##eti": 4155,
      "##lie": 4156,
      "##pend": 4157,
      "##mart": 4158,
      "##CK": 4159,
      "##IT": 4160,
      "##80": 4161,
      "##ask": 4162,
      "renew": 4163,
      "##stown": 4164,
      "again": 4165,
      "plane": 4166,
      "##ito": 4167,
      "roast": 4168,
      "##ira": 4169,
      "bada": 4170,
      "rahegi": 4171,
      "cover": 4172,
      "groo": 4173,
      "mita": 4174,
      "areas": 4175,
      "huwa": 4176,
      "huwi": 4177,
      "backup": 4178,
      "##bury": 4179,
      "computer": 4180,
      "Grandma": 4181,
      "planning": 4182,
      "Ashley": 4183,
      "view": 4184,
      "Pennsylvania": 4185,
      "garam": 4186,
      "Laugh": 4187,
      "drinks": 4188,
      "pollen": 4189,
      "United": 4190,
      "59": 4191,
      "Cam": 4192,
      "Cry": 4193,
      "Eminem": 4194,
      "GA": 4195,
      "TV": 4196,
      "des": 4197,
      "match": 4198,
      "random": 4199,
      "sit": 4200,
      "##rica": 4201,
      "##vna": 4202,
      "##gers": 4203,
      "##uk": 4204,
      "##week": 4205,
      "##ards": 4206,
      "karwa": 4207,
      "##heville": 4208,
      "##urance": 4209,
      "##ori": 4210,
      "tone": 4211,
      "together": 4212,
      "laugh": 4213,
      "contest": 4214,
      "sambha": 4215,
      "202": 4216,
      "chalaiye": 4217,
      "##dies": 4218,
      "point": 4219,
      "carol": 4220,
      "Star": 4221,
      "##raw": 4222,
      "##quer": 4223,
      "Orange": 4224,
      "Philly": 4225,
      "cats": 4226,
      "Madison": 4227,
      "Blue": 4228,
      "Blvd": 4229,
      "prep": 4230,
      "tourna": 4231,
      "##inois": 4232,
      "jaise": 4233,
      "thunderstorms": 4234,
      "wait": 4235,
      "Sabhi": 4236,
      "share": 4237,
      "Tacoma": 4238,
      "graduation": 4239,
      "suspend": 4240,
      "Coldplay": 4241,
      "sambhavna": 4242,
      "Bank": 4243,
      "CO": 4244,
      "Cher": 4245,
      "Com": 4246,
      "Google": 4247,
      "Line": 4248,
      "Sao": 4249,
      "Sab": 4250,
      "TO": 4251,
      "Tru": 4252,
      "Tina": 4253,
      "Turn": 4254,
      "Ut": 4255,
      "hunt": 4256,
      "jaraha": 4257,
      "nail": 4258,
      "pal": 4259,
      "que": 4260,
      "ther": 4261,
      "##res": 4262,
      "##ple": 4263,
      "##bel": 4264,
      "##bane": 4265,
      "##bie": 4266,
      "##hed": 4267,
      "bag": 4268,
      "##assa": 4269,
      "rehe": 4270,
      "part": 4271,
      "##eet": 4272,
      "##ilo": 4273,
      "##iki": 4274,
      "least": 4275,
      "##lace": 4276,
      "invi": 4277,
      "padiye": 4278,
      "padho": 4279,
      "Joel": 4280,
      "avenue": 4281,
      "Timberlake": 4282,
      "##nesota": 4283,
      "holidays": 4284,
      "Theater": 4285,
      "ruk": 4286,
      "meditation": 4287,
      "final": 4288,
      "Class": 4289,
      "quarter": 4290,
      "bhulna": 4291,
      "prediction": 4292,
      "Falls": 4293,
      "##levue": 4294,
      "Knoxville": 4295,
      "session": 4296,
      "Illinois": 4297,
      "Germany": 4298,
      "##anchester": 4299,
      "Brisbane": 4300,
      "39": 4301,
      "Bon": 4302,
      "Dar": 4303,
      "Flag": 4304,
      "Hos": 4305,
      "It": 4306,
      "Max": 4307,
      "Tree": 4308,
      "ent": 4309,
      "gl": 4310,
      "geor": 4311,
      "litter": 4312,
      "public": 4313,
      "rd": 4314,
      "vers": 4315,
      "##rne": 4316,
      "##ific": 4317,
      "##ock": 4318,
      "##tos": 4319,
      "##CH": 4320,
      "key": 4321,
      "##hena": 4322,
      "toile": 4323,
      "##olk": 4324,
      "Church": 4325,
      "beyonce": 4326,
      "exhib": 4327,
      "chut": 4328,
      "boy": 4329,
      "##issipp": 4330,
      "hamari": 4331,
      "Carrie": 4332,
      "rahinge": 4333,
      "Rihanna": 4334,
      "##swick": 4335,
      "vibr": 4336,
      "26th": 4337,
      "khana": 4338,
      "softball": 4339,
      "MINUTES": 4340,
      "subscription": 4341,
      "##issippi": 4342,
      "Jake": 4343,
      "Jord": 4344,
      "Rome": 4345,
      "Ty": 4346,
      "Work": 4347,
      "achi": 4348,
      "bec": 4349,
      "ci": 4350,
      "dun": 4351,
      "drop": 4352,
      "glo": 4353,
      "had": 4354,
      "imp": 4355,
      "past": 4356,
      "phil": 4357,
      "since": 4358,
      "well": 4359,
      "##mag": 4360,
      "##TO": 4361,
      "##back": 4362,
      "meds": 4363,
      "##asota": 4364,
      "##ayi": 4365,
      "##enge": 4366,
      "##ongrat": 4367,
      "pahan": 4368,
      "##rey": 4369,
      "works": 4370,
      "##rones": 4371,
      "near": 4372,
      "##ipitation": 4373,
      "craft": 4374,
      "hatado": 4375,
      "recital": 4376,
      "Rose": 4377,
      "bone": 4378,
      "Johnny": 4379,
      "organ": 4380,
      "dish": 4381,
      "disco": 4382,
      "liya": 4383,
      "2019": 4384,
      "emails": 4385,
      "Selena": 4386,
      "dryer": 4387,
      "Madonna": 4388,
      "insurance": 4389,
      "HOGA": 4390,
      "follow": 4391,
      "lightest": 4392,
      "bowling": 4393,
      "Tennessee": 4394,
      "Karachi": 4395,
      "##weekly": 4396,
      "All": 4397,
      "Lee": 4398,
      "MA": 4399,
      "Ocean": 4400,
      "Win": 4401,
      "Winter": 4402,
      "aut": 4403,
      "bli": 4404,
      "krne": 4405,
      "lun": 4406,
      "tell": 4407,
      "washington": 4408,
      "##ua": 4409,
      "##ude": 4410,
      "##ctions": 4411,
      "##eral": 4412,
      "dead": 4413,
      "lap": 4414,
      "##til": 4415,
      "##ett": 4416,
      "##ument": 4417,
      "usual": 4418,
      "##agles": 4419,
      "prec": 4420,
      "jaaen": 4421,
      "chod": 4422,
      "Asheville": 4423,
      "prem": 4424,
      "performance": 4425,
      "Bellevue": 4426,
      "biweekly": 4427,
      "sign": 4428,
      "Paso": 4429,
      "invite": 4430,
      "Hospital": 4431,
      "pahanani": 4432,
      "blizz": 4433,
      "Bow": 4434,
      "Carey": 4435,
      "Med": 4436,
      "Mum": 4437,
      "NE": 4438,
      "Pan": 4439,
      "Rd": 4440,
      "Reb": 4441,
      "Sad": 4442,
      "War": 4443,
      "White": 4444,
      "cable": 4445,
      "danc": 4446,
      "##ear": 4447,
      "##pha": 4448,
      "##tings": 4449,
      "##yd": 4450,
      "##ji": 4451,
      "##UN": 4452,
      "##inue": 4453,
      "##asy": 4454,
      "##tazar": 4455,
      "##rill": 4456,
      "##gae": 4457,
      "walmart": 4458,
      "##ancy": 4459,
      "##olly": 4460,
      "conf": 4461,
      "waale": 4462,
      "intazar": 4463,
      "##dia": 4464,
      "andey": 4465,
      "##agram": 4466,
      "picking": 4467,
      "playlists": 4468,
      "exc": 4469,
      "fireworks": 4470,
      "doctors": 4471,
      "##vise": 4472,
      "##alent": 4473,
      "Brown": 4474,
      "##cience": 4475,
      "Parade": 4476,
      "download": 4477,
      "rakhne": 4478,
      "Angry": 4479,
      "buzz": 4480,
      "slee": 4481,
      "Jamie": 4482,
      "India": 4483,
      "blood": 4484,
      "tours": 4485,
      "sports": 4486,
      "ballet": 4487,
      "Albany": 4488,
      "William": 4489,
      "annual": 4490,
      "##vidence": 4491,
      "THE": 4492,
      "Country": 4493,
      "rehears": 4494,
      "toilet": 4495,
      "Jordan": 4496,
      "dunia": 4497,
      "##magine": 4498,
      "precipitation": 4499,
      "66": 4500,
      "81": 4501,
      "Back": 4502,
      "DV": 4503,
      "Go": 4504,
      "Link": 4505,
      "Ni": 4506,
      "Rac": 4507,
      "Worth": 4508,
      "cro": 4509,
      "mm": 4510,
      "other": 4511,
      "pen": 4512,
      "paise": 4513,
      "sy": 4514,
      "wil": 4515,
      "yes": 4516,
      "##pac": 4517,
      "##zil": 4518,
      "##ken": 4519,
      "##kara": 4520,
      "##AD": 4521,
      "##bec": 4522,
      "##ately": 4523,
      "##ords": 4524,
      "##staff": 4525,
      "race": 4526,
      "tea": 4527,
      "##olling": 4528,
      "april": 4529,
      "cons": 4530,
      "##reece": 4531,
      "##acy": 4532,
      "##lands": 4533,
      "mountain": 4534,
      "chalo": 4535,
      "##uture": 4536,
      "##ague": 4537,
      "##ults": 4538,
      "##ffer": 4539,
      "boat": 4540,
      "jackson": 4541,
      "unhone": 4542,
      "interest": 4543,
      "##ankee": 4544,
      "Dog": 4545,
      "without": 4546,
      "##box": 4547,
      "tornadoes": 4548,
      "Inst": 4549,
      "Minnesota": 4550,
      "Drag": 4551,
      "march": 4552,
      "##ermont": 4553,
      "Greenville": 4554,
      "freezer": 4555,
      "letter": 4556,
      "Luke": 4557,
      "neighborhood": 4558,
      "Emily": 4559,
      "TIMER": 4560,
      "refill": 4561,
      "generate": 4562,
      "Target": 4563,
      "##querque": 4564,
      "Turnpike": 4565,
      "gloves": 4566,
      "blizzard": 4567,
      "34": 4568,
      "Eu": 4569,
      "Eric": 4570,
      "Hay": 4571,
      "How": 4572,
      "Home": 4573,
      "Kids": 4574,
      "Ontar": 4575,
      "Rick": 4576,
      "fill": 4577,
      "frost": 4578,
      "gif": 4579,
      "gospel": 4580,
      "map": 4581,
      "push": 4582,
      "##via": 4583,
      "##luck": 4584,
      "##iz": 4585,
      "##ula": 4586,
      "##uquerque": 4587,
      "##LE": 4588,
      "##bs": 4589,
      "##bert": 4590,
      "##water": 4591,
      "setting": 4592,
      "settings": 4593,
      "##gene": 4594,
      "##unte": 4595,
      "##ndler": 4596,
      "##outs": 4597,
      "contr": 4598,
      "musical": 4599,
      "pehli": 4600,
      "pehena": 4601,
      "repair": 4602,
      "padker": 4603,
      "jode": 4604,
      "thanda": 4605,
      "stations": 4606,
      "LAX": 4607,
      "##verside": 4608,
      "Movie": 4609,
      "Toledo": 4610,
      "##oulder": 4611,
      "quit": 4612,
      "##colate": 4613,
      "Jenny": 4614,
      "Katie": 4615,
      "Dehli": 4616,
      "performances": 4617,
      "Jimmy": 4618,
      "Amanda": 4619,
      "incl": 4620,
      "##most": 4621,
      "Brunswick": 4622,
      "khaana": 4623,
      "wreck": 4624,
      "Mariah": 4625,
      "increase": 4626,
      "delivery": 4627,
      "assignment": 4628,
      "Labor": 4629,
      "Savannah": 4630,
      "achii": 4631,
      "##pacito": 4632,
      "Eugene": 4633,
      "Ontario": 4634,
      "52": 4635,
      "84": 4636,
      "Bu": 4637,
      "Dest": 4638,
      "Deb": 4639,
      "Good": 4640,
      "Hen": 4641,
      "Lar": 4642,
      "Lex": 4643,
      "Lyn": 4644,
      "Lamar": 4645,
      "Run": 4646,
      "Sher": 4647,
      "Wood": 4648,
      "aw": 4649,
      "affect": 4650,
      "bor": 4651,
      "catch": 4652,
      "fest": 4653,
      "ji": 4654,
      "ori": 4655,
      "sick": 4656,
      "square": 4657,
      "##sburg": 4658,
      "##ount": 4659,
      "##ycle": 4660,
      "##lea": 4661,
      "##anye": 4662,
      "differ": 4663,
      "##stra": 4664,
      "hei": 4665,
      "##edar": 4666,
      "star": 4667,
      "stand": 4668,
      "ups": 4669,
      "##real": 4670,
      "##lap": 4671,
      "jose": 4672,
      "hourly": 4673,
      "downed": 4674,
      "firse": 4675,
      "Augustine": 4676,
      "winds": 4677,
      "noti": 4678,
      "detroit": 4679,
      "proble": 4680,
      "##ucky": 4681,
      "potluck": 4682,
      "genre": 4683,
      "celebration": 4684,
      "Garth": 4685,
      "birth": 4686,
      "relaxing": 4687,
      "Kendrick": 4688,
      "taiz": 4689,
      "chodhne": 4690,
      "dancing": 4691,
      "jisey": 4692,
      "Free": 4693,
      "Kesha": 4694,
      "Lak": 4695,
      "MS": 4696,
      "One": 4697,
      "Oli": 4698,
      "Tur": 4699,
      "Video": 4700,
      "Way": 4701,
      "lady": 4702,
      "mort": 4703,
      "sand": 4704,
      "than": 4705,
      "##va": 4706,
      "##eth": 4707,
      "##light": 4708,
      "##issa": 4709,
      "##ize": 4710,
      "##no": 4711,
      "##una": 4712,
      "##uel": 4713,
      "##sboro": 4714,
      "##mat": 4715,
      "##kane": 4716,
      "##TI": 4717,
      "##PM": 4718,
      "##aid": 4719,
      "##inat": 4720,
      "mexico": 4721,
      "karein": 4722,
      "##tening": 4723,
      "parent": 4724,
      "##hip": 4725,
      "##illa": 4726,
      "##ouge": 4727,
      "##etta": 4728,
      "batter": 4729,
      "##pokane": 4730,
      "##ople": 4731,
      "puchsakte": 4732,
      "##chestra": 4733,
      "lot": 4734,
      "lock": 4735,
      "Jones": 4736,
      "recipe": 4737,
      "thru": 4738,
      "flash": 4739,
      "fire": 4740,
      "price": 4741,
      "snowfall": 4742,
      "locally": 4743,
      "arena": 4744,
      "orange": 4745,
      "unread": 4746,
      "jama": 4747,
      "##ggy": 4748,
      "facebook": 4749,
      "##onsin": 4750,
      "Edison": 4751,
      "Maryland": 4752,
      "marathon": 4753,
      "Myrtle": 4754,
      "Albuquerque": 4755,
      "costume": 4756,
      "Kitna": 4757,
      "Durham": 4758,
      "Menlo": 4759,
      "##isconsin": 4760,
      "therap": 4761,
      "Flagstaff": 4762,
      "because": 4763,
      "interesting": 4764,
      "46": 4765,
      "99": 4766,
      "92": 4767,
      "Chan": 4768,
      "Cedar": 4769,
      "Far": 4770,
      "Gir": 4771,
      "Hi": 4772,
      "Hend": 4773,
      "Manchester": 4774,
      "NH": 4775,
      "Ric": 4776,
      "Reno": 4777,
      "Sing": 4778,
      "Summer": 4779,
      "austin": 4780,
      "dc": 4781,
      "november": 4782,
      "ohio": 4783,
      "won": 4784,
      "##az": 4785,
      "##ek": 4786,
      "##py": 4787,
      "##LA": 4788,
      "##beat": 4789,
      "hol": 4790,
      "hein": 4791,
      "jaaye": 4792,
      "law": 4793,
      "##oul": 4794,
      "##irm": 4795,
      "stove": 4796,
      "staff": 4797,
      "##hop": 4798,
      "##omen": 4799,
      "money": 4800,
      "beep": 4801,
      "##agara": 4802,
      "cards": 4803,
      "albums": 4804,
      "##osc": 4805,
      "##reland": 4806,
      "max": 4807,
      "boys": 4808,
      "Maroon": 4809,
      "kaunsi": 4810,
      "Cost": 4811,
      "Mobile": 4812,
      "ticket": 4813,
      "dhundh": 4814,
      "##niversal": 4815,
      "##board": 4816,
      "sisters": 4817,
      "baccho": 4818,
      "hello": 4819,
      "Alexa": 4820,
      "prev": 4821,
      "springs": 4822,
      "Lauren": 4823,
      "falls": 4824,
      "Driving": 4825,
      "Kenny": 4826,
      "notes": 4827,
      "fishing": 4828,
      "calender": 4829,
      "Lucy": 4830,
      "Metallica": 4831,
      "safar": 4832,
      "##clip": 4833,
      "##esterday": 4834,
      "Idaho": 4835,
      "vitamins": 4836,
      "better": 4837,
      "vibrate": 4838,
      "Linkin": 4839,
      "Instagram": 4840,
      "37": 4841,
      "Aane": 4842,
      "Gal": 4843,
      "Greece": 4844,
      "Jon": 4845,
      "Ko": 4846,
      "Kathy": 4847,
      "Leg": 4848,
      "Paint": 4849,
      "Qu": 4850,
      "Radio": 4851,
      "Sandy": 4852,
      "Up": 4853,
      "Vo": 4854,
      "ave": 4855,
      "ant": 4856,
      "ass": 4857,
      "aakhi": 4858,
      "dunga": 4859,
      "duba": 4860,
      "emp": 4861,
      "field": 4862,
      "london": 4863,
      "making": 4864,
      "ocean": 4865,
      "tank": 4866,
      "yet": 4867,
      "yesterday": 4868,
      "##ldies": 4869,
      "##iet": 4870,
      "##gent": 4871,
      "##kron": 4872,
      "##kiki": 4873,
      "##well": 4874,
      "##fo": 4875,
      "##erville": 4876,
      "##onies": 4877,
      "##tem": 4878,
      "almost": 4879,
      "really": 4880,
      "##orted": 4881,
      "raa": 4882,
      "tow": 4883,
      "##els": 4884,
      "forward": 4885,
      "paonga": 4886,
      "##ghter": 4887,
      "amount": 4888,
      "stuff": 4889,
      "people": 4890,
      "sundown": 4891,
      "##arium": 4892,
      "board": 4893,
      "Bryan": 4894,
      "dismiss": 4895,
      "##ucks": 4896,
      "##ilent": 4897,
      "surf": 4898,
      "competi": 4899,
      "blue": 4900,
      "sprink": 4901,
      "charlotte": 4902,
      "smooth": 4903,
      "storms": 4904,
      "contacts": 4905,
      "Local": 4906,
      "Brooks": 4907,
      "advisor": 4908,
      "Montreal": 4909,
      "typ": 4910,
      "apartment": 4911,
      "sardi": 4912,
      "Anaheim": 4913,
      "decorating": 4914,
      "convention": 4915,
      "paunchunga": 4916,
      "centim": 4917,
      "version": 4918,
      "##ongratul": 4919,
      "Destin": 4920,
      "Lexington": 4921,
      "mortgage": 4922,
      "previous": 4923,
      "aakhiri": 4924,
      "dubaara": 4925,
      "BB": 4926,
      "Boulder": 4927,
      "Cook": 4928,
      "Fir": 4929,
      "Gl": 4930,
      "Gulf": 4931,
      "Hunt": 4932,
      "Imagine": 4933,
      "Ireland": 4934,
      "Kiss": 4935,
      "On": 4936,
      "Pac": 4937,
      "RO": 4938,
      "Sc": 4939,
      "SC": 4940,
      "Sup": 4941,
      "Vermont": 4942,
      "Wai": 4943,
      "cross": 4944,
      "easter": 4945,
      "mary": 4946,
      "put": 4947,
      "shirt": 4948,
      "tunnel": 4949,
      "university": 4950,
      "##rina": 4951,
      "##vide": 4952,
      "##vada": 4953,
      "##non": 4954,
      "##ging": 4955,
      "##ually": 4956,
      "##phone": 4957,
      "##occ": 4958,
      "##zab": 4959,
      "##OW": 4960,
      "##AM": 4961,
      "##wan": 4962,
      "selena": 4963,
      "##ats": 4964,
      "##ashi": 4965,
      "kahi": 4966,
      "##stone": 4967,
      "aaunga": 4968,
      "##tive": 4969,
      "##ilox": 4970,
      "played": 4971,
      "##ows": 4972,
      "##oulev": 4973,
      "forget": 4974,
      "sakenge": 4975,
      "hardy": 4976,
      "##andon": 4977,
      "cancelled": 4978,
      "badh": 4979,
      "reported": 4980,
      "carpool": 4981,
      "shaamil": 4982,
      "Alice": 4983,
      "##ternational": 4984,
      "utha": 4985,
      "until": 4986,
      "brook": 4987,
      "Thrones": 4988,
      "clouds": 4989,
      "horse": 4990,
      "Jerry": 4991,
      "##riptions": 4992,
      "canceled": 4993,
      "Britney": 4994,
      "smo": 4995,
      "smile": 4996,
      "tareek": 4997,
      "volunte": 4998,
      "Weekly": 4999,
      "prescriptions": 5000,
      "Providence": 5001,
      "michael": 5002,
      "lesson": 5003,
      "reggae": 5004,
      "Kentucky": 5005,
      "##celona": 5006,
      "Hotel": 5007,
      "register": 5008,
      "pills": 5009,
      "giri": 5010,
      "louis": 5011,
      "ceremony": 5012,
      "Russia": 5013,
      "Hamilton": 5014,
      "tournament": 5015,
      "rehearsal": 5016,
      "control": 5017,
      "##clipse": 5018,
      "##zabeth": 5019,
      "##iloxi": 5020,
      "##oulevard": 5021,
      "32": 5022,
      "End": 5023,
      "Gomez": 5024,
      "Pam": 5025,
      "Play": 5026,
      "Pump": 5027,
      "ST": 5028,
      "Tall": 5029,
      "Wat": 5030,
      "bieber": 5031,
      "care": 5032,
      "future": 5033,
      "hill": 5034,
      "kat": 5035,
      "link": 5036,
      "mill": 5037,
      "ni": 5038,
      "ph": 5039,
      "tut": 5040,
      "who": 5041,
      "##ead": 5042,
      "##hich": 5043,
      "##du": 5044,
      "##ator": 5045,
      "reocc": 5046,
      "##oring": 5047,
      "##icate": 5048,
      "##anth": 5049,
      "##akota": 5050,
      "##ayette": 5051,
      "doc": 5052,
      "jaha": 5053,
      "dep": 5054,
      "##ecca": 5055,
      "##etry": 5056,
      "nikalraha": 5057,
      "##ometers": 5058,
      "dikhaen": 5059,
      "leaving": 5060,
      "behan": 5061,
      "mode": 5062,
      "exp": 5063,
      "think": 5064,
      "Message": 5065,
      "Beau": 5066,
      "##anson": 5067,
      "##quarium": 5068,
      "fridays": 5069,
      "options": 5070,
      "##cial": 5071,
      "noise": 5072,
      "##antha": 5073,
      "provide": 5074,
      "##nesville": 5075,
      "Sept": 5076,
      "sounds": 5077,
      "likhne": 5078,
      "Canyon": 5079,
      "bumper": 5080,
      "banana": 5081,
      "Temp": 5082,
      "markets": 5083,
      "##raine": 5084,
      "paperwork": 5085,
      "Barbara": 5086,
      "Barcelona": 5087,
      "dohraye": 5088,
      "Scott": 5089,
      "foggy": 5090,
      "estimate": 5091,
      "SET": 5092,
      "29th": 5093,
      "Mississippi": 5094,
      "##ISA": 5095,
      "##ahoe": 5096,
      "rides": 5097,
      "Africa": 5098,
      "Olympia": 5099,
      "Truck": 5100,
      "Utah": 5101,
      "chutkara": 5102,
      "premier": 5103,
      "Waikiki": 5104,
      "36": 5105,
      "71": 5106,
      "AC": 5107,
      "Bru": 5108,
      "CH": 5109,
      "Di": 5110,
      "Gi": 5111,
      "Lew": 5112,
      "Law": 5113,
      "Mr": 5114,
      "MUS": 5115,
      "Ray": 5116,
      "Sn": 5117,
      "Shar": 5118,
      "Sop": 5119,
      "Tam": 5120,
      "We": 5121,
      "Yankee": 5122,
      "cur": 5123,
      "cam": 5124,
      "eclipse": 5125,
      "fit": 5126,
      "gomez": 5127,
      "lungi": 5128,
      "nine": 5129,
      "ri": 5130,
      "talk": 5131,
      "world": 5132,
      "##range": 5133,
      "##life": 5134,
      "##pass": 5135,
      "##mark": 5136,
      "##ET": 5137,
      "##aron": 5138,
      "##ais": 5139,
      "##atin": 5140,
      "##ald": 5141,
      "real": 5142,
      "retire": 5143,
      "disa": 5144,
      "diap": 5145,
      "##ries": 5146,
      "wallet": 5147,
      "##oux": 5148,
      "paar": 5149,
      "##itar": 5150,
      "hard": 5151,
      "stret": 5152,
      "hogaya": 5153,
      "##less": 5154,
      "pasta": 5155,
      "##sible": 5156,
      "badalna": 5157,
      "cars": 5158,
      "highs": 5159,
      "##orage": 5160,
      "Bear": 5161,
      "##order": 5162,
      "##actor": 5163,
      "lunchtime": 5164,
      "jisse": 5165,
      "Nevada": 5166,
      "buil": 5167,
      "scr": 5168,
      "Sea": 5169,
      "Sean": 5170,
      "Text": 5171,
      "Queen": 5172,
      "Existing": 5173,
      "Pete": 5174,
      "camping": 5175,
      "predicted": 5176,
      "Queensland": 5177,
      "khulega": 5178,
      "ceremonies": 5179,
      "couple": 5180,
      "skiing": 5181,
      "Magic": 5182,
      "Every": 5183,
      "Brazil": 5184,
      "contests": 5185,
      "Rachel": 5186,
      "include": 5187,
      "Pumpkin": 5188,
      "MUSIC": 5189,
      "retirement": 5190,
      "33": 5191,
      "48": 5192,
      "54": 5193,
      "93": 5194,
      "91": 5195,
      "Book": 5196,
      "Eagles": 5197,
      "Gold": 5198,
      "Kir": 5199,
      "Kyle": 5200,
      "Net": 5201,
      "Reg": 5202,
      "Sar": 5203,
      "UK": 5204,
      "WA": 5205,
      "bur": 5206,
      "bought": 5207,
      "cell": 5208,
      "fam": 5209,
      "give": 5210,
      "gila": 5211,
      "ite": 5212,
      "little": 5213,
      "mike": 5214,
      "made": 5215,
      "oldies": 5216,
      "roll": 5217,
      "sys": 5218,
      "silent": 5219,
      "tu": 5220,
      "tir": 5221,
      "very": 5222,
      "wri": 5223,
      "##iya": 5224,
      "##gai": 5225,
      "##mi": 5226,
      "##house": 5227,
      "##ED": 5228,
      "##ainesville": 5229,
      "##inda": 5230,
      "##asino": 5231,
      "kil": 5232,
      "##alth": 5233,
      "hote": 5234,
      "##ahu": 5235,
      "##ahass": 5236,
      "minuter": 5237,
      "label": 5238,
      "##ette": 5239,
      "shot": 5240,
      "##istory": 5241,
      "##inese": 5242,
      "clim": 5243,
      "##agne": 5244,
      "birthdays": 5245,
      "press": 5246,
      "##ouri": 5247,
      "mondays": 5248,
      "##awn": 5249,
      "##aware": 5250,
      "##amps": 5251,
      "evenings": 5252,
      "lightning": 5253,
      "community": 5254,
      "Harris": 5255,
      "perry": 5256,
      "##antic": 5257,
      "photos": 5258,
      "Great": 5259,
      "Charlie": 5260,
      "grandpa": 5261,
      "clubs": 5262,
      "199": 5263,
      "Clark": 5264,
      "Melissa": 5265,
      "hurricanes": 5266,
      "retrie": 5267,
      "Alarms": 5268,
      "dhee": 5269,
      "projec": 5270,
      "pump": 5271,
      "Walk": 5272,
      "##cala": 5273,
      "KARNE": 5274,
      "KAISA": 5275,
      "Samantha": 5276,
      "Yoga": 5277,
      "loud": 5278,
      "continue": 5279,
      "shangai": 5280,
      "closures": 5281,
      "Elizabeth": 5282,
      "Angel": 5283,
      "Berlin": 5284,
      "Rapids": 5285,
      "beginning": 5286,
      "notific": 5287,
      "##ahassee": 5288,
      "retrieve": 5289,
      "3pm": 5290,
      "57": 5291,
      "Aug": 5292,
      "Baton": 5293,
      "Canc": 5294,
      "ED": 5295,
      "Flo": 5296,
      "Glen": 5297,
      "Hal": 5298,
      "Haha": 5299,
      "Kanye": 5300,
      "ME": 5301,
      "Mau": 5302,
      "Pol": 5303,
      "Pier": 5304,
      "PTO": 5305,
      "Rid": 5306,
      "Rouge": 5307,
      "Sil": 5308,
      "Spokane": 5309,
      "Ter": 5310,
      "Town": 5311,
      "Under": 5312,
      "VA": 5313,
      "Valent": 5314,
      "Wic": 5315,
      "Wake": 5316,
      "antonio": 5317,
      "beat": 5318,
      "fridge": 5319,
      "hand": 5320,
      "je": 5321,
      "jim": 5322,
      "kut": 5323,
      "lar": 5324,
      "mars": 5325,
      "nplay": 5326,
      "pie": 5327,
      "rally": 5328,
      "sure": 5329,
      "uth": 5330,
      "wat": 5331,
      "zero": 5332,
      "##aat": 5333,
      "##vity": 5334,
      "##oming": 5335,
      "##zer": 5336,
      "##ks": 5337,
      "##TS": 5338,
      "##ware": 5339,
      "##west": 5340,
      "##flix": 5341,
      "##SV": 5342,
      "##arl": 5343,
      "mene": 5344,
      "##ayla": 5345,
      "##hita": 5346,
      "dew": 5347,
      "##oose": 5348,
      "##thony": 5349,
      "##ola": 5350,
      "##andria": 5351,
      "stay": 5352,
      "##posit": 5353,
      "##rove": 5354,
      "beijing": 5355,
      "cru": 5356,
      "##aps": 5357,
      "Joy": 5358,
      "carving": 5359,
      "##hens": 5360,
      "chu": 5361,
      "##berry": 5362,
      "girl": 5363,
      "##going": 5364,
      "800": 5365,
      "Charles": 5366,
      "Spears": 5367,
      "Northern": 5368,
      "Thai": 5369,
      "chocolate": 5370,
      "broadway": 5371,
      "brothers": 5372,
      "closed": 5373,
      "Janet": 5374,
      "saved": 5375,
      "incid": 5376,
      "USA": 5377,
      "guzarna": 5378,
      "sadak": 5379,
      "Naples": 5380,
      "butter": 5381,
      "Thomas": 5382,
      "Hampshire": 5383,
      "##anoke": 5384,
      "confirm": 5385,
      "Dragons": 5386,
      "Henderson": 5387,
      "Voice": 5388,
      "disable": 5389,
      "diapers": 5390,
      "stretch": 5391,
      "dheeme": 5392,
      "42": 5393,
      "77": 5394,
      "Ab": 5395,
      "Cir": 5396,
      "Ches": 5397,
      "Disco": 5398,
      "Ek": 5399,
      "Friend": 5400,
      "Gary": 5401,
      "Hop": 5402,
      "Ir": 5403,
      "Mt": 5404,
      "Mosc": 5405,
      "Nutcracker": 5406,
      "Sim": 5407,
      "Sus": 5408,
      "Shel": 5409,
      "Tas": 5410,
      "Tour": 5411,
      "Tahoe": 5412,
      "Wend": 5413,
      "Wow": 5414,
      "ep": 5415,
      "fur": 5416,
      "fine": 5417,
      "full": 5418,
      "imm": 5419,
      "lic": 5420,
      "life": 5421,
      "mul": 5422,
      "nde": 5423,
      "table": 5424,
      "which": 5425,
      "##rict": 5426,
      "##vine": 5427,
      "##ene": 5428,
      "##lish": 5429,
      "##ground": 5430,
      "##care": 5431,
      "##sitter": 5432,
      "##mon": 5433,
      "##mill": 5434,
      "##mouth": 5435,
      "##kansas": 5436,
      "##dom": 5437,
      "##bank": 5438,
      "##for": 5439,
      "##FK": 5440,
      "meal": 5441,
      "baal": 5442,
      "##urope": 5443,
      "##enic": 5444,
      "##ense": 5445,
      "kahe": 5446,
      "##eep": 5447,
      "##unter": 5448,
      "tread": 5449,
      "##eland": 5450,
      "##ished": 5451,
      "##enda": 5452,
      "theme": 5453,
      "##ety": 5454,
      "rom": 5455,
      "##mph": 5456,
      "##erton": 5457,
      "sunaiye": 5458,
      "info": 5459,
      "##ighters": 5460,
      "client": 5461,
      "##uts": 5462,
      "join": 5463,
      "grab": 5464,
      "grass": 5465,
      "pos": 5466,
      "poore": 5467,
      "##aper": 5468,
      "Joan": 5469,
      "cardio": 5470,
      "hume": 5471,
      "china": 5472,
      "##ugal": 5473,
      "sheeran": 5474,
      "Beth": 5475,
      "thodi": 5476,
      "Johnson": 5477,
      "lightings": 5478,
      "dads": 5479,
      "##braska": 5480,
      "House": 5481,
      "wednesdays": 5482,
      "##morial": 5483,
      "web": 5484,
      "Mount": 5485,
      "draft": 5486,
      "Anthony": 5487,
      "getting": 5488,
      "medical": 5489,
      "##lins": 5490,
      "scar": 5491,
      "babysitter": 5492,
      "Inn": 5493,
      "Steven": 5494,
      "Andrea": 5495,
      "Bobby": 5496,
      "longer": 5497,
      "Elvis": 5498,
      "Pres": 5499,
      "Prince": 5500,
      "Creek": 5501,
      "Keith": 5502,
      "Chapel": 5503,
      "thik": 5504,
      "##ship": 5505,
      "radd": 5506,
      "waiting": 5507,
      "Patrick": 5508,
      "Shows": 5509,
      "Child": 5510,
      "##itional": 5511,
      "Break": 5512,
      "bathroom": 5513,
      "snacks": 5514,
      "Niagara": 5515,
      "crock": 5516,
      "therapy": 5517,
      "advisories": 5518,
      "Pacific": 5519,
      "volunteer": 5520,
      "Tallahassee": 5521,
      "katy": 5522,
      "jahaan": 5523,
      "items": 5524,
      "system": 5525,
      "kilometers": 5526,
      "kutte": 5527,
      "Moscow": 5528,
      "ndelete": 5529,
      "treadmill": 5530,
      "56": 5531,
      "AT": 5532,
      "Aaron": 5533,
      "Bi": 5534,
      "Bet": 5535,
      "Biloxi": 5536,
      "Ci": 5537,
      "Cat": 5538,
      "Comm": 5539,
      "Fe": 5540,
      "Greg": 5541,
      "Just": 5542,
      "Kore": 5543,
      "Lily": 5544,
      "MI": 5545,
      "OH": 5546,
      "Plan": 5547,
      "RA": 5548,
      "RSV": 5549,
      "Tup": 5550,
      "Tunnel": 5551,
      "Wed": 5552,
      "alex": 5553,
      "bic": 5554,
      "dublin": 5555,
      "effect": 5556,
      "haw": 5557,
      "happ": 5558,
      "having": 5559,
      "kum": 5560,
      "nyc": 5561,
      "paulo": 5562,
      "##rus": 5563,
      "##lers": 5564,
      "##par": 5565,
      "##dle": 5566,
      "##folk": 5567,
      "##ja": 5568,
      "##VE": 5569,
      "##eri": 5570,
      "##heast": 5571,
      "aller": 5572,
      "##ench": 5573,
      "merge": 5574,
      "##icip": 5575,
      "##akers": 5576,
      "##cho": 5577,
      "##unge": 5578,
      "tri": 5579,
      "##entation": 5580,
      "##riya": 5581,
      "##asey": 5582,
      "tokyo": 5583,
      "sao": 5584,
      "Kyaa": 5585,
      "deposit": 5586,
      "##veston": 5587,
      "##gist": 5588,
      "##ider": 5589,
      "##etres": 5590,
      "shut": 5591,
      "playd": 5592,
      "page": 5593,
      "##iting": 5594,
      "upbeat": 5595,
      "advise": 5596,
      "##inema": 5597,
      "working": 5598,
      "shuruaat": 5599,
      "shaanth": 5600,
      "additional": 5601,
      "bartan": 5602,
      "##roe": 5603,
      "Chinese": 5604,
      "paused": 5605,
      "denge": 5606,
      "anti": 5607,
      "##aley": 5608,
      "Bron": 5609,
      "Brandon": 5610,
      "kholen": 5611,
      "lows": 5612,
      "Portugal": 5613,
      "provid": 5614,
      "Colle": 5615,
      "Jackie": 5616,
      "International": 5617,
      "guitar": 5618,
      "bypass": 5619,
      "planned": 5620,
      "Ash": 5621,
      "mainten": 5622,
      "earli": 5623,
      "found": 5624,
      "##castle": 5625,
      "salad": 5626,
      "cereal": 5627,
      "bottle": 5628,
      "services": 5629,
      "Napa": 5630,
      "KARE": 5631,
      "anything": 5632,
      "shant": 5633,
      "receive": 5634,
      "leng": 5635,
      "personal": 5636,
      "browse": 5637,
      "grooming": 5638,
      "philly": 5639,
      "DVR": 5640,
      "mountains": 5641,
      "Henry": 5642,
      "different": 5643,
      "Fargo": 5644,
      "Legend": 5645,
      "depart": 5646,
      "Maui": 5647,
      "Wichita": 5648,
      "RSVP": 5649,
      "provider": 5650,
      "maintenance": 5651,
      "69": 5652,
      "76": 5653,
      "Ast": 5654,
      "Baking": 5655,
      "Cel": 5656,
      "Cru": 5657,
      "Dec": 5658,
      "Dir": 5659,
      "Dist": 5660,
      "Ell": 5661,
      "EST": 5662,
      "HI": 5663,
      "Hip": 5664,
      "Hurricane": 5665,
      "Jaco": 5666,
      "JFK": 5667,
      "Ly": 5668,
      "Land": 5669,
      "Mill": 5670,
      "OR": 5671,
      "Pizza": 5672,
      "SH": 5673,
      "Saint": 5674,
      "WEE": 5675,
      "Wisconsin": 5676,
      "around": 5677,
      "cm": 5678,
      "central": 5679,
      "du": 5680,
      "king": 5681,
      "mcal": 5682,
      "ny": 5683,
      "punk": 5684,
      "venue": 5685,
      "##nast": 5686,
      "##gom": 5687,
      "##cul": 5688,
      "##kira": 5689,
      "##bucks": 5690,
      "##CE": 5691,
      "##GE": 5692,
      "##aica": 5693,
      "bab": 5694,
      "##net": 5695,
      "alter": 5696,
      "##anish": 5697,
      "##ayein": 5698,
      "raga": 5699,
      "does": 5700,
      "chandler": 5701,
      "dilai": 5702,
      "todd": 5703,
      "chahti": 5704,
      "##nies": 5705,
      "##cky": 5706,
      "##ckey": 5707,
      "uptown": 5708,
      "same": 5709,
      "inst": 5710,
      "Newcastle": 5711,
      "beau": 5712,
      "##onder": 5713,
      "created": 5714,
      "##ners": 5715,
      "##agna": 5716,
      "##iffer": 5717,
      "States": 5718,
      "print": 5719,
      "newest": 5720,
      "Roanoke": 5721,
      "bob": 5722,
      "orleans": 5723,
      "roko": 5724,
      "Harry": 5725,
      "notify": 5726,
      "locations": 5727,
      "Parties": 5728,
      "apple": 5729,
      "applic": 5730,
      "##ellow": 5731,
      "Arts": 5732,
      "Arbor": 5733,
      "Arkansas": 5734,
      "Nebraska": 5735,
      "indie": 5736,
      "Riverside": 5737,
      "Festivals": 5738,
      "charity": 5739,
      "vapis": 5740,
      "knows": 5741,
      "Cindy": 5742,
      "michigan": 5743,
      "American": 5744,
      "feeling": 5745,
      "celebrations": 5746,
      "##ology": 5747,
      "sugar": 5748,
      "belt": 5749,
      "Matthew": 5750,
      "Hampton": 5751,
      "Sports": 5752,
      "ideas": 5753,
      "Crying": 5754,
      "Sabrina": 5755,
      "Tyler": 5756,
      "Rebecca": 5757,
      "problems": 5758,
      "##inatra": 5759,
      "##ongratulations": 5760,
      "reoccurring": 5761,
      "Truckee": 5762,
      "Lewis": 5763,
      "multi": 5764,
      "romantic": 5765,
      "possible": 5766,
      "scarf": 5767,
      "WEEK": 5768,
      "mcallen": 5769,
      "##gomery": 5770,
      "##ifferent": 5771,
      "63": 5772,
      "97": 5773,
      "Dakota": 5774,
      "Different": 5775,
      "Europe": 5776,
      "Field": 5777,
      "Hart": 5778,
      "Nancy": 5779,
      "Pl": 5780,
      "Ram": 5781,
      "SF": 5782,
      "TN": 5783,
      "Tai": 5784,
      "Uk": 5785,
      "WH": 5786,
      "\\\\": 5787,
      "cinema": 5788,
      "eta": 5789,
      "easy": 5790,
      "gulf": 5791,
      "hee": 5792,
      "history": 5793,
      "ima": 5794,
      "jen": 5795,
      "pittsburgh": 5796,
      "rout": 5797,
      "sat": 5798,
      "tune": 5799,
      "went": 5800,
      "yah": 5801,
      "zones": 5802,
      "##iest": 5803,
      "##cord": 5804,
      "##pers": 5805,
      "##med": 5806,
      "##the": 5807,
      "##zen": 5808,
      "##OT": 5809,
      "##bell": 5810,
      "##fest": 5811,
      "##friend": 5812,
      "##jo": 5813,
      "##BA": 5814,
      "##ID": 5815,
      "##arma": 5816,
      "##urney": 5817,
      "##adies": 5818,
      "##afic": 5819,
      "treat": 5820,
      "trafic": 5821,
      "##gaya": 5822,
      "chala": 5823,
      "health": 5824,
      "tom": 5825,
      "saw": 5826,
      "##oof": 5827,
      "laut": 5828,
      "shore": 5829,
      "##itate": 5830,
      "105": 5831,
      "apke": 5832,
      "##mpton": 5833,
      "aasaan": 5834,
      "invo": 5835,
      "bars": 5836,
      "ongoing": 5837,
      "##cheon": 5838,
      "karsakti": 5839,
      "poetry": 5840,
      "Agala": 5841,
      "##tsdale": 5842,
      "##ambridge": 5843,
      "Station": 5844,
      "showing": 5845,
      "social": 5846,
      "Megan": 5847,
      "lists": 5848,
      "pohochunga": 5849,
      "arbor": 5850,
      "Album": 5851,
      "tooth": 5852,
      "Convent": 5853,
      "##leyball": 5854,
      "cookout": 5855,
      "Carl": 5856,
      "halki": 5857,
      "gymnast": 5858,
      "Western": 5859,
      "banaiye": 5860,
      "scenic": 5861,
      "indicate": 5862,
      "babysit": 5863,
      "choir": 5864,
      "baakhi": 5865,
      "bringing": 5866,
      "potato": 5867,
      "##mother": 5868,
      "Expressway": 5869,
      "calcul": 5870,
      "salon": 5871,
      "Missouri": 5872,
      "Delaware": 5873,
      "daughter": 5874,
      "Young": 5875,
      "##strument": 5876,
      "mowing": 5877,
      "court": 5878,
      "Despacito": 5879,
      "fortnight": 5880,
      "likhiye": 5881,
      "Stacy": 5882,
      "transfer": 5883,
      "georgia": 5884,
      "luncheon": 5885,
      "##phanie": 5886,
      "Wayne": 5887,
      "Richar": 5888,
      "Sarasota": 5889,
      "tuition": 5890,
      "Floyd": 5891,
      "Ridge": 5892,
      "license": 5893,
      "bicycle": 5894,
      "hawayein": 5895,
      "Jacob": 5896,
      "74": 5897,
      "AA": 5898,
      "Bend": 5899,
      "Ele": 5900,
      "Ghar": 5901,
      "Jol": 5902,
      "NS": 5903,
      "Nort": 5904,
      "Ocala": 5905,
      "Pal": 5906,
      "Sna": 5907,
      "Terry": 5908,
      "border": 5909,
      "cab": 5910,
      "flea": 5911,
      "gather": 5912,
      "google": 5913,
      "mumbai": 5914,
      "nutcracker": 5915,
      "ob": 5916,
      "pri": 5917,
      "paul": 5918,
      "sched": 5919,
      "worry": 5920,
      "why": 5921,
      "##azon": 5922,
      "##con": 5923,
      "##soon": 5924,
      "##ption": 5925,
      "##ples": 5926,
      "##zart": 5927,
      "##RO": 5928,
      "##LY": 5929,
      "messa": 5930,
      "sele": 5931,
      "##athan": 5932,
      "kyaa": 5933,
      "##ima": 5934,
      "##imum": 5935,
      "host": 5936,
      "hope": 5937,
      "hockey": 5938,
      "##stic": 5939,
      "##ublix": 5940,
      "taking": 5941,
      "lapt": 5942,
      "##oustic": 5943,
      "amend": 5944,
      "amazon": 5945,
      "musicals": 5946,
      "adele": 5947,
      "adults": 5948,
      "##istant": 5949,
      "acoustic": 5950,
      "coun": 5951,
      "lagana": 5952,
      "delayed": 5953,
      "monsoon": 5954,
      "Boys": 5955,
      "bound": 5956,
      "cleveland": 5957,
      "angry": 5958,
      "arvo": 5959,
      "frank": 5960,
      "lighter": 5961,
      "opera": 5962,
      "columb": 5963,
      "apply": 5964,
      "twice": 5965,
      "meditate": 5966,
      "Southern": 5967,
      "Today": 5968,
      "southbound": 5969,
      "sleet": 5970,
      "overcast": 5971,
      "Jamaica": 5972,
      "super": 5973,
      "yearly": 5974,
      "recently": 5975,
      "##ORK": 5976,
      "restaurants": 5977,
      "Craft": 5978,
      "HOUR": 5979,
      "Jean": 5980,
      "##AND": 5981,
      "steve": 5982,
      "bhulgaya": 5983,
      "Smile": 5984,
      "bachna": 5985,
      "Farmer": 5986,
      "##stration": 5987,
      "##grap": 5988,
      "Martin": 5989,
      "Sandra": 5990,
      "cupc": 5991,
      "listening": 5992,
      "issues": 5993,
      "caroling": 5994,
      "cities": 5995,
      "import": 5996,
      "auto": 5997,
      "NEW": 5998,
      "Panama": 5999,
      "sleeves": 6000,
      "anticip": 6001,
      "BBQ": 6002,
      "niece": 6003,
      "tutoring": 6004,
      "Sophie": 6005,
      "pressure": 6006,
      "EDM": 6007,
      "Underwood": 6008,
      "incidents": 6009,
      "immedi": 6010,
      "Ukraine": 6011,
      "05": 6012,
      "43": 6013,
      "51": 6014,
      "78": 6015,
      "96": 6016,
      "Are": 6017,
      "Bull": 6018,
      "Baha": 6019,
      "Bang": 6020,
      "Cro": 6021,
      "Camp": 6022,
      "Dub": 6023,
      "Haven": 6024,
      "Kid": 6025,
      "Lanc": 6026,
      "Molly": 6027,
      "Parma": 6028,
      "Song": 6029,
      "Zach": 6030,
      "cir": 6031,
      "cairo": 6032,
      "dal": 6033,
      "dess": 6034,
      "dhone": 6035,
      "khel": 6036,
      "lu": 6037,
      "october": 6038,
      "river": 6039,
      "soul": 6040,
      "valley": 6041,
      "wr": 6042,
      "whi": 6043,
      "wet": 6044,
      "white": 6045,
      "##aver": 6046,
      "##gen": 6047,
      "##gate": 6048,
      "##gery": 6049,
      "##dam": 6050,
      "##IR": 6051,
      "##IA": 6052,
      "##IF": 6053,
      "##UM": 6054,
      "##GH": 6055,
      "kesi": 6056,
      "##aire": 6057,
      "##leas": 6058,
      "##tes": 6059,
      "allow": 6060,
      "##alph": 6061,
      "##icia": 6062,
      "##imal": 6063,
      "##anny": 6064,
      "setup": 6065,
      "##afts": 6066,
      "##uble": 6067,
      "bajeke": 6068,
      "jaw": 6069,
      "##ecula": 6070,
      "paa": 6071,
      "stars": 6072,
      "stamps": 6073,
      "30am": 6074,
      "##umni": 6075,
      "leg": 6076,
      "##roy": 6077,
      "nep": 6078,
      "##onda": 6079,
      "cry": 6080,
      "meetup": 6081,
      "##chenge": 6082,
      "##avis": 6083,
      "gaga": 6084,
      "logo": 6085,
      "Jovi": 6086,
      "carry": 6087,
      "dikhti": 6088,
      "Boy": 6089,
      "daycare": 6090,
      "bajaa": 6091,
      "whatsapp": 6092,
      "rainb": 6093,
      "january": 6094,
      "Cole": 6095,
      "Moines": 6096,
      "##emy": 6097,
      "james": 6098,
      "grandmother": 6099,
      "##sterdam": 6100,
      "Toby": 6101,
      "finish": 6102,
      "finished": 6103,
      "quick": 6104,
      "Alexandria": 6105,
      "Shaun": 6106,
      "okc": 6107,
      "Joseph": 6108,
      "Amsterdam": 6109,
      "postpo": 6110,
      "jumper": 6111,
      "juice": 6112,
      "Liam": 6113,
      "presentation": 6114,
      "Julia": 6115,
      "bible": 6116,
      "mileage": 6117,
      "Pearl": 6118,
      "lasagna": 6119,
      "signing": 6120,
      "feet": 6121,
      "##celand": 6122,
      "suggest": 6123,
      "registration": 6124,
      "Norfolk": 6125,
      "Ronnie": 6126,
      "haal": 6127,
      "Natal": 6128,
      "menlo": 6129,
      "Burlington": 6130,
      "Sporting": 6131,
      "invitation": 6132,
      "prepare": 6133,
      "##ilots": 6134,
      "quarterly": 6135,
      "sydney": 6136,
      "orientation": 6137,
      "batteries": 6138,
      "Girls": 6139,
      "sprinkler": 6140,
      "typical": 6141,
      "##ashion": 6142,
      "Tempe": 6143,
      "tires": 6144,
      "chuka": 6145,
      "Wendy": 6146,
      "multiple": 6147,
      "lautne": 6148,
      "##strumental": 6149,
      "Snap": 6150,
      "laptop": 6151,
      "dessert": 6152,
      "Aur": 6153,
      "BE": 6154,
      "Bab": 6155,
      "Cy": 6156,
      "Er": 6157,
      "Fest": 6158,
      "FOR": 6159,
      "Gainesville": 6160,
      "HE": 6161,
      "LO": 6162,
      "Last": 6163,
      "Lights": 6164,
      "ON": 6165,
      "Ru": 6166,
      "Rain": 6167,
      "Ros": 6168,
      "Rey": 6169,
      "Science": 6170,
      "Tif": 6171,
      "Universal": 6172,
      "Water": 6173,
      "buff": 6174,
      "casino": 6175,
      "few": 6176,
      "greet": 6177,
      "jay": 6178,
      "nashville": 6179,
      "oak": 6180,
      "pets": 6181,
      "ser": 6182,
      "squ": 6183,
      "ter": 6184,
      "val": 6185,
      "wah": 6186,
      "zone": 6187,
      "##vic": 6188,
      "##ese": 6189,
      "##not": 6190,
      "##shirt": 6191,
      "##kers": 6192,
      "##die": 6193,
      "##EC": 6194,
      "##bay": 6195,
      "##win": 6196,
      "##wen": 6197,
      "##wards": 6198,
      "##PA": 6199,
      "##PP": 6200,
      "##20": 6201,
      "##eros": 6202,
      "karach": 6203,
      "seni": 6204,
      "##leet": 6205,
      "##hampton": 6206,
      "##imme": 6207,
      "##ads": 6208,
      "##stal": 6209,
      "##chorage": 6210,
      "##unted": 6211,
      "aamat": 6212,
      "trim": 6213,
      "##ingham": 6214,
      "hey": 6215,
      "saving": 6216,
      "##thod": 6217,
      "##nival": 6218,
      "form": 6219,
      "forcast": 6220,
      "##ident": 6221,
      "shor": 6222,
      "round": 6223,
      "states": 6224,
      "nikaliye": 6225,
      "##erto": 6226,
      "##hanak": 6227,
      "##hode": 6228,
      "samai": 6229,
      "badane": 6230,
      "wave": 6231,
      "achanak": 6232,
      "sabko": 6233,
      "pado": 6234,
      "craw": 6235,
      "##chen": 6236,
      "moder": 6237,
      "##ulla": 6238,
      "Joey": 6239,
      "sky": 6240,
      "accord": 6241,
      "access": 6242,
      "Juan": 6243,
      "Judy": 6244,
      "Mesa": 6245,
      "Memorial": 6246,
      "##rect": 6247,
      "orchestra": 6248,
      "##ardens": 6249,
      "##ailing": 6250,
      "##deo": 6251,
      "brun": 6252,
      "grove": 6253,
      "activity": 6254,
      "Moana": 6255,
      "drought": 6256,
      "flights": 6257,
      "emo": 6258,
      "jagao": 6259,
      "Spanish": 6260,
      "Arena": 6261,
      "displays": 6262,
      "Stephanie": 6263,
      "arriving": 6264,
      "medications": 6265,
      "Adri": 6266,
      "Scottsdale": 6267,
      "Liz": 6268,
      "Sioux": 6269,
      "##shine": 6270,
      "Provo": 6271,
      "baltimore": 6272,
      "Naperville": 6273,
      "KARO": 6274,
      "Lucas": 6275,
      "Montana": 6276,
      "Sound": 6277,
      "madrid": 6278,
      "Martha": 6279,
      "Wild": 6280,
      "shift": 6281,
      "pattern": 6282,
      "membership": 6283,
      "Classical": 6284,
      "boyfriend": 6285,
      "organize": 6286,
      "Debbie": 6287,
      "Lynn": 6288,
      "Olivia": 6289,
      "towels": 6290,
      "competitions": 6291,
      "millim": 6292,
      "Bruce": 6293,
      "Tammy": 6294,
      "Netflix": 6295,
      "Harrisburg": 6296,
      "pumpkin": 6297,
      "uthne": 6298,
      "Thailand": 6299,
      "Astoria": 6300,
      "Richard": 6301,
      "immediately": 6302,
      "nephew": 6303,
      "karachi": 6304,
      "aamataur": 6305,
      "according": 6306,
      "67": 6307,
      "630": 6308,
      "79": 6309,
      "Abby": 6310,
      "CD": 6311,
      "Cuba": 6312,
      "Dor": 6313,
      "Gab": 6314,
      "Hil": 6315,
      "Hum": 6316,
      "Iceland": 6317,
      "Kings": 6318,
      "Lori": 6319,
      "Pic": 6320,
      "PAR": 6321,
      "PTA": 6322,
      "Ralph": 6323,
      "Sk": 6324,
      "Send": 6325,
      "UP": 6326,
      "cow": 6327,
      "elap": 6328,
      "gall": 6329,
      "gold": 6330,
      "gear": 6331,
      "hr": 6332,
      "mag": 6333,
      "mph": 6334,
      "nh": 6335,
      "pur": 6336,
      "pan": 6337,
      "pee": 6338,
      "path": 6339,
      "pup": 6340,
      "raining": 6341,
      "say": 6342,
      "said": 6343,
      "tunes": 6344,
      "vaha": 6345,
      "##rance": 6346,
      "##gar": 6347,
      "##more": 6348,
      "##tti": 6349,
      "##than": 6350,
      "##ba": 6351,
      "##ffic": 6352,
      "##aide": 6353,
      "##inburgh": 6354,
      "##heet": 6355,
      "##leep": 6356,
      "reme": 6357,
      "##icut": 6358,
      "##icure": 6359,
      "##anton": 6360,
      "##street": 6361,
      "held": 6362,
      "jaasakte": 6363,
      "##ism": 6364,
      "##ikes": 6365,
      "forty": 6366,
      "##hops": 6367,
      "adop": 6368,
      "badhe": 6369,
      "ghanton": 6370,
      "##acti": 6371,
      "being": 6372,
      "##ters": 6373,
      "##ceans": 6374,
      "joe": 6375,
      "##astest": 6376,
      "##ainment": 6377,
      "##los": 6378,
      "comic": 6379,
      "snowy": 6380,
      "located": 6381,
      "arrange": 6382,
      "changes": 6383,
      "Branson": 6384,
      "unp": 6385,
      "tuesdays": 6386,
      "Times": 6387,
      "proc": 6388,
      "produ": 6389,
      "pehenni": 6390,
      "topi": 6391,
      "Mozart": 6392,
      "Trenton": 6393,
      "appro": 6394,
      "coldest": 6395,
      "Canton": 6396,
      "bud": 6397,
      "southern": 6398,
      "surve": 6399,
      "Edinburgh": 6400,
      "quiet": 6401,
      "Louisiana": 6402,
      "supper": 6403,
      "Tommy": 6404,
      "215": 6405,
      "Usher": 6406,
      "Brit": 6407,
      "Britt": 6408,
      "young": 6409,
      "charge": 6410,
      "conditioner": 6411,
      "inspec": 6412,
      "Belt": 6413,
      "campus": 6414,
      "Myers": 6415,
      "bachon": 6416,
      "type": 6417,
      "##ologist": 6418,
      "completed": 6419,
      "Flint": 6420,
      "Kingdom": 6421,
      "leni": 6422,
      "correct": 6423,
      "##necticut": 6424,
      "brownies": 6425,
      "metro": 6426,
      "exciting": 6427,
      "borrow": 6428,
      "Turkey": 6429,
      "hollywood": 6430,
      "centimeters": 6431,
      "Sharon": 6432,
      "notification": 6433,
      "epis": 6434,
      "##mphony": 6435,
      "Korea": 6436,
      "playdate": 6437,
      "College": 6438,
      "application": 6439,
      "important": 6440,
      "dalane": 6441,
      "khelne": 6442,
      "haalath": 6443,
      "peene": 6444,
      "38": 6445,
      "58": 6446,
      "AN": 6447,
      "Antar": 6448,
      "Akron": 6449,
      "Boulevard": 6450,
      "Dy": 6451,
      "Dep": 6452,
      "Eye": 6453,
      "Gle": 6454,
      "Gil": 6455,
      "Gym": 6456,
      "Hong": 6457,
      "Hope": 6458,
      "Hannah": 6459,
      "IN": 6460,
      "KI": 6461,
      "Kong": 6462,
      "Lag": 6463,
      "Live": 6464,
      "Loop": 6465,
      "MD": 6466,
      "Moon": 6467,
      "Meet": 6468,
      "Norm": 6469,
      "Nico": 6470,
      "Over": 6471,
      "Open": 6472,
      "PH": 6473,
      "Pau": 6474,
      "Rt": 6475,
      "Rio": 6476,
      "Randy": 6477,
      "Rolling": 6478,
      "Rhode": 6479,
      "Scr": 6480,
      "Tan": 6481,
      "Tara": 6482,
      "Ur": 6483,
      "Ven": 6484,
      "Wy": 6485,
      "ari": 6486,
      "aquarium": 6487,
      "gate": 6488,
      "gayi": 6489,
      "lulla": 6490,
      "mu": 6491,
      "mac": 6492,
      "nc": 6493,
      "nails": 6494,
      "oregon": 6495,
      "palo": 6496,
      "rate": 6497,
      "rice": 6498,
      "science": 6499,
      "tac": 6500,
      "tide": 6501,
      "van": 6502,
      "##vard": 6503,
      "##ef": 6504,
      "##off": 6505,
      "##xy": 6506,
      "##mith": 6507,
      "##zy": 6508,
      "##TH": 6509,
      "##ban": 6510,
      "##ject": 6511,
      "##VER": 6512,
      "##VEN": 6513,
      "##ini": 6514,
      "##inc": 6515,
      "hail": 6516,
      "##yal": 6517,
      "seen": 6518,
      "##leigh": 6519,
      "##teor": 6520,
      "alto": 6521,
      "##orary": 6522,
      "##orship": 6523,
      "##afayette": 6524,
      "subway": 6525,
      "tool": 6526,
      "##elaide": 6527,
      "laaye": 6528,
      "##nit": 6529,
      "##ature": 6530,
      "theek": 6531,
      "shoot": 6532,
      "##aoke": 6533,
      "##olls": 6534,
      "kardun": 6535,
      "##ewel": 6536,
      "peak": 6537,
      "driver": 6538,
      "into": 6539,
      "instrumental": 6540,
      "##mentary": 6541,
      "zariya": 6542,
      "mobile": 6543,
      "##ieve": 6544,
      "Sunset": 6545,
      "##agan": 6546,
      "baadh": 6547,
      "##apore": 6548,
      "carnival": 6549,
      "exact": 6550,
      "dekhen": 6551,
      "Stone": 6552,
      "flip": 6553,
      "stops": 6554,
      "##oura": 6555,
      "Rosa": 6556,
      "##uses": 6557,
      "##acey": 6558,
      "nightlife": 6559,
      "Marie": 6560,
      "option": 6561,
      "400": 6562,
      "Carla": 6563,
      "moved": 6564,
      "canada": 6565,
      "warnings": 6566,
      "dusk": 6567,
      "packing": 6568,
      "cloud": 6569,
      "surgery": 6570,
      "funeral": 6571,
      "engage": 6572,
      "Jeremy": 6573,
      "##ARM": 6574,
      "Elton": 6575,
      "287": 6576,
      "##vision": 6577,
      "Shakira": 6578,
      "taxi": 6579,
      "Barry": 6580,
      "cousins": 6581,
      "blocks": 6582,
      "275": 6583,
      "thanksgiving": 6584,
      "Donna": 6585,
      "salt": 6586,
      "police": 6587,
      "Cheese": 6588,
      "Marsha": 6589,
      "folk": 6590,
      "##bean": 6591,
      "openings": 6592,
      "suggestion": 6593,
      "##ILL": 6594,
      "jaega": 6595,
      "Farmers": 6596,
      "Wilmington": 6597,
      "farmer": 6598,
      "farmers": 6599,
      "united": 6600,
      "Study": 6601,
      "menu": 6602,
      "idea": 6603,
      "exhibit": 6604,
      "pensacola": 6605,
      "Larry": 6606,
      "sandals": 6607,
      "Galveston": 6608,
      "emplo": 6609,
      "Super": 6610,
      "building": 6611,
      "famil": 6612,
      "projected": 6613,
      "Cancun": 6614,
      "Chesney": 6615,
      "image": 6616,
      "calculate": 6617,
      "messaging": 6618,
      "cupcakes": 6619,
      "anticipated": 6620,
      "##erosmith": 6621,
      "savings": 6622,
      "emoji": 6623,
      "elapsed": 6624,
      "##fficient": 6625,
      "##ceanside": 6626,
      "Antarct": 6627,
      "Au": 6628,
      "AR": 6629,
      "Best": 6630,
      "Bern": 6631,
      "Carm": 6632,
      "Cour": 6633,
      "Cari": 6634,
      "CON": 6635,
      "Cathy": 6636,
      "DJ": 6637,
      "Din": 6638,
      "DRI": 6639,
      "Ear": 6640,
      "Foo": 6641,
      "Fed": 6642,
      "Fire": 6643,
      "Fleet": 6644,
      "Gun": 6645,
      "Gina": 6646,
      "HA": 6647,
      "Hai": 6648,
      "Ise": 6649,
      "Iow": 6650,
      "Jas": 6651,
      "Jun": 6652,
      "Lafayette": 6653,
      "Mir": 6654,
      "Mason": 6655,
      "Mandy": 6656,
      "National": 6657,
      "Old": 6658,
      "Rub": 6659,
      "Sol": 6660,
      "Ted": 6661,
      "Till": 6662,
      "There": 6663,
      "Uber": 6664,
      "Van": 6665,
      "Whi": 6666,
      "Words": 6667,
      "Yellow": 6668,
      "Zara": 6669,
      "ahead": 6670,
      "bul": 6671,
      "bell": 6672,
      "beatles": 6673,
      "dawn": 6674,
      "fri": 6675,
      "gal": 6676,
      "greg": 6677,
      "iphone": 6678,
      "mor": 6679,
      "pink": 6680,
      "rai": 6681,
      "roo": 6682,
      "ramp": 6683,
      "rolling": 6684,
      "sarah": 6685,
      "task": 6686,
      "ur": 6687,
      "um": 6688,
      "##iley": 6689,
      "##sie": 6690,
      "##mar": 6691,
      "##tak": 6692,
      "##tles": 6693,
      "##dcast": 6694,
      "##OL": 6695,
      "##bl": 6696,
      "##wing": 6697,
      "##fect": 6698,
      "##MA": 6699,
      "##SA": 6700,
      "##eron": 6701,
      "##eria": 6702,
      "kel": 6703,
      "meteor": 6704,
      "##hetti": 6705,
      "sent": 6706,
      "##lene": 6707,
      "##lentown": 6708,
      "##asure": 6709,
      "##urg": 6710,
      "##urt": 6711,
      "paris": 6712,
      "##stan": 6713,
      "##chat": 6714,
      "##ees": 6715,
      "try": 6716,
      "##hill": 6717,
      "##table": 6718,
      "##ubs": 6719,
      "bajega": 6720,
      "##ndale": 6721,
      "##esh": 6722,
      "deal": 6723,
      "dehli": 6724,
      "chahte": 6725,
      "tele": 6726,
      "##tie": 6727,
      "##ancial": 6728,
      "##ild": 6729,
      "##veport": 6730,
      "##idian": 6731,
      "##ghton": 6732,
      "##mpoo": 6733,
      "##ertainment": 6734,
      "##hok": 6735,
      "##remont": 6736,
      "##reveport": 6737,
      "##omb": 6738,
      "##uments": 6739,
      "adult": 6740,
      "lemon": 6741,
      "shampoo": 6742,
      "##ache": 6743,
      "clin": 6744,
      "##ips": 6745,
      "only": 6746,
      "##aves": 6747,
      "##dios": 6748,
      "cheap": 6749,
      "##aghetti": 6750,
      "skies": 6751,
      "chains": 6752,
      "Stop": 6753,
      "Stones": 6754,
      "groups": 6755,
      "Bot": 6756,
      "snowstorm": 6757,
      "Beer": 6758,
      "Becky": 6759,
      "Fran": 6760,
      "starting": 6761,
      "dhun": 6762,
      "payments": 6763,
      "Miley": 6764,
      "outside": 6765,
      "internet": 6766,
      "rainy": 6767,
      "brown": 6768,
      "breath": 6769,
      "Connecticut": 6770,
      "colorado": 6771,
      "billboard": 6772,
      "recorded": 6773,
      "spa": 6774,
      "spears": 6775,
      "bhaagne": 6776,
      "able": 6777,
      "abse": 6778,
      "Anne": 6779,
      "Anchorage": 6780,
      "##emet": 6781,
      "Trans": 6782,
      "##rish": 6783,
      "twel": 6784,
      "Arlington": 6785,
      "##lines": 6786,
      "presents": 6787,
      "Todd": 6788,
      "##boy": 6789,
      "pohchenge": 6790,
      "Musical": 6791,
      "Clear": 6792,
      "windows": 6793,
      "Danny": 6794,
      "Aspen": 6795,
      "Ashok": 6796,
      "sweatshirt": 6797,
      "northbound": 6798,
      "Eastern": 6799,
      "Shore": 6800,
      "duration": 6801,
      "Depot": 6802,
      "Adelaide": 6803,
      "Greensboro": 6804,
      "70s": 6805,
      "volleyball": 6806,
      "Quebec": 6807,
      "Liver": 6808,
      "Siber": 6809,
      "Prague": 6810,
      "##tens": 6811,
      "Leah": 6812,
      "salsa": 6813,
      "steak": 6814,
      "Kenne": 6815,
      "##gypt": 6816,
      "defrost": 6817,
      "Montgomery": 6818,
      "Soccer": 6819,
      "percent": 6820,
      "Point": 6821,
      "madad": 6822,
      "Coral": 6823,
      "Christina": 6824,
      "Danielle": 6825,
      "Outdoor": 6826,
      "halloween": 6827,
      "TIME": 6828,
      "riding": 6829,
      "Twitter": 6830,
      "reception": 6831,
      "sarasota": 6832,
      "danny": 6833,
      "metallica": 6834,
      "george": 6835,
      "Lakeland": 6836,
      "##TION": 6837,
      "Singapore": 6838,
      "Jonathan": 6839,
      "Fireworks": 6840,
      "Huntington": 6841,
      "fitness": 6842,
      "Circus": 6843,
      "Breakfast": 6844,
      "columbus": 6845,
      "##graphy": 6846,
      "Dubai": 6847,
      "rainboots": 6848,
      "Baby": 6849,
      "nhai": 6850,
      "Brittany": 6851,
      "Nicole": 6852,
      "Wyoming": 6853,
      "families": 6854,
      "Antarctica": 6855,
      "Iowa": 6856,
      "330": 6857,
      "61": 6858,
      "68": 6859,
      "88": 6860,
      "AZ": 6861,
      "Aly": 6862,
      "Amber": 6863,
      "Alan": 6864,
      "Ban": 6865,
      "Brist": 6866,
      "Cho": 6867,
      "Casey": 6868,
      "Dou": 6869,
      "Egypt": 6870,
      "Fin": 6871,
      "Fox": 6872,
      "Fighters": 6873,
      "Grove": 6874,
      "Hav": 6875,
      "Hits": 6876,
      "Hunter": 6877,
      "Isey": 6878,
      "Ky": 6879,
      "Lana": 6880,
      "MO": 6881,
      "Mal": 6882,
      "Mack": 6883,
      "Nic": 6884,
      "Oper": 6885,
      "Oahu": 6886,
      "Pla": 6887,
      "Publix": 6888,
      "Res": 6889,
      "Ross": 6890,
      "Sat": 6891,
      "Sur": 6892,
      "See": 6893,
      "Sinatra": 6894,
      "Troy": 6895,
      "Wars": 6896,
      "Wonder": 6897,
      "brid": 6898,
      "birmingham": 6899,
      "cel": 6900,
      "cust": 6901,
      "cap": 6902,
      "cater": 6903,
      "dark": 6904,
      "ess": 6905,
      "fas": 6906,
      "hilo": 6907,
      "latin": 6908,
      "mis": 6909,
      "nick": 6910,
      "ren": 6911,
      "rick": 6912,
      "tor": 6913,
      "tit": 6914,
      "vide": 6915,
      "wood": 6916,
      "##red": 6917,
      "##von": 6918,
      "##gland": 6919,
      "##paste": 6920,
      "##oven": 6921,
      "##0s": 6922,
      "##des": 6923,
      "##AST": 6924,
      "##bond": 6925,
      "##bio": 6926,
      "##block": 6927,
      "##bbean": 6928,
      "##arta": 6929,
      "##atlin": 6930,
      "##asg": 6931,
      "alab": 6932,
      "hog": 6933,
      "hoha": 6934,
      "##mine": 6935,
      "##ged": 6936,
      "kitchen": 6937,
      "##afe": 6938,
      "##eech": 6939,
      "aao": 6940,
      "traps": 6941,
      "##amook": 6942,
      "##rit": 6943,
      "##elia": 6944,
      "deacti": 6945,
      "laps": 6946,
      "##thly": 6947,
      "##ils": 6948,
      "##hera": 6949,
      "shuk": 6950,
      "papers": 6951,
      "ever": 6952,
      "hafto": 6953,
      "str": 6954,
      "concord": 6955,
      "##hanchne": 6956,
      "deleted": 6957,
      "##omo": 6958,
      "sunshine": 6959,
      "dophar": 6960,
      "##ropr": 6961,
      "crash": 6962,
      "00pm": 6963,
      "grunge": 6964,
      "podcast": 6965,
      "pohanchne": 6966,
      "andhera": 6967,
      "usper": 6968,
      "##cos": 6969,
      "lobby": 6970,
      "carp": 6971,
      "Stat": 6972,
      "110": 6973,
      "1100": 6974,
      "thumb": 6975,
      "##achine": 6976,
      "pray": 6977,
      "soch": 6978,
      "##arita": 6979,
      "##portation": 6980,
      "moment": 6981,
      "mont": 6982,
      "sheets": 6983,
      "##dson": 6984,
      "French": 6985,
      "##enings": 6986,
      "Alicia": 6987,
      "thursdays": 6988,
      "Brenda": 6989,
      "dishes": 6990,
      "closet": 6991,
      "clothing": 6992,
      "chips": 6993,
      "chiropr": 6994,
      "color": 6995,
      "booked": 6996,
      "Collins": 6997,
      "Grace": 6998,
      "Parker": 6999,
      "Theatre": 7000,
      "Angie": 7001,
      "Tracy": 7002,
      "Travis": 7003,
      "everyday": 7004,
      "##tone": 7005,
      "Peters": 7006,
      "60s": 7007,
      "donuts": 7008,
      "enough": 7009,
      "quest": 7010,
      "expectation": 7011,
      "stud": 7012,
      "Team": 7013,
      "##kins": 7014,
      "goodnight": 7015,
      "Elm": 7016,
      "cooler": 7017,
      "charts": 7018,
      "Shawn": 7019,
      "Davis": 7020,
      "earth": 7021,
      "Walker": 7022,
      "Library": 7023,
      "Okay": 7024,
      "shoe": 7025,
      "Gaming": 7026,
      "##mania": 7027,
      "##angers": 7028,
      "balance": 7029,
      "feel": 7030,
      "##ippery": 7031,
      "ALARM": 7032,
      "extended": 7033,
      "McC": 7034,
      "sessions": 7035,
      "ship": 7036,
      "Nathan": 7037,
      "Maggie": 7038,
      "relax": 7039,
      "floss": 7040,
      "Everett": 7041,
      "Forest": 7042,
      "sufficient": 7043,
      "snack": 7044,
      "REMINDERS": 7045,
      "groomer": 7046,
      "Starbucks": 7047,
      "exhibits": 7048,
      "deadline": 7049,
      "Bowl": 7050,
      "Glasg": 7051,
      "Kissimme": 7052,
      "eastern": 7053,
      "curb": 7054,
      "camera": 7055,
      "climate": 7056,
      "Valentine": 7057,
      "Irvine": 7058,
      "Tasmania": 7059,
      "Children": 7060,
      "Community": 7061,
      "allergy": 7062,
      "antibio": 7063,
      "Bronx": 7064,
      "toothpaste": 7065,
      "gymnastics": 7066,
      "Northeast": 7067,
      "hosting": 7068,
      "counse": 7069,
      "Bahamas": 7070,
      "Lancaster": 7071,
      "Natalie": 7072,
      "Tiffan": 7073,
      "buffalo": 7074,
      "adoption": 7075,
      "survey": 7076,
      "Tillamook": 7077,
      "Bristol": 7078,
      "videos": 7079,
      "##atlinburg": 7080,
      "alabama": 7081,
      "deactivate": 7082,
      "shukriya": 7083,
      "antibiotic": 7084,
      "47": 7085,
      "Aap": 7086,
      "Ass": 7087,
      "Ball": 7088,
      "Bud": 7089,
      "Diam": 7090,
      "Death": 7091,
      "Es": 7092,
      "Ep": 7093,
      "Get": 7094,
      "Gall": 7095,
      "Hot": 7096,
      "Hilton": 7097,
      "Kuch": 7098,
      "Krist": 7099,
      "Kell": 7100,
      "Kayla": 7101,
      "Len": 7102,
      "Lan": 7103,
      "Les": 7104,
      "Lil": 7105,
      "Low": 7106,
      "Let": 7107,
      "Lamb": 7108,
      "Mans": 7109,
      "Ole": 7110,
      "PL": 7111,
      "Ply": 7112,
      "Pleas": 7113,
      "Son": 7114,
      "Sho": 7115,
      "Side": 7116,
      "UT": 7117,
      "Vick": 7118,
      "Word": 7119,
      "Where": 7120,
      "Well": 7121,
      "Waha": 7122,
      "blo": 7123,
      "buses": 7124,
      "cash": 7125,
      "cause": 7126,
      "dust": 7127,
      "fac": 7128,
      "fuel": 7129,
      "fastest": 7130,
      "gonna": 7131,
      "hike": 7132,
      "im": 7133,
      "iron": 7134,
      "luck": 7135,
      "mask": 7136,
      "massa": 7137,
      "rich": 7138,
      "soo": 7139,
      "tucson": 7140,
      "worth": 7141,
      "zip": 7142,
      "##lit": 7143,
      "##sy": 7144,
      "##pus": 7145,
      "##ode": 7146,
      "##other": 7147,
      "##mid": 7148,
      "##hh": 7149,
      "##04": 7150,
      "##dge": 7151,
      "##EM": 7152,
      "##we": 7153,
      "##was": 7154,
      "##fess": 7155,
      "##KE": 7156,
      "kona": 7157,
      "##nee": 7158,
      "##lest": 7159,
      "##asu": 7160,
      "##hao": 7161,
      "##ality": 7162,
      "##urs": 7163,
      "##ury": 7164,
      "##ural": 7165,
      "##chu": 7166,
      "##uni": 7167,
      "##ingo": 7168,
      "##inger": 7169,
      "raleigh": 7170,
      "##riage": 7171,
      "hear": 7172,
      "sav": 7173,
      "##esham": 7174,
      "##esno": 7175,
      "deb": 7176,
      "##oosa": 7177,
      "laur": 7178,
      "##thouse": 7179,
      "tech": 7180,
      "##tia": 7181,
      "plack": 7182,
      "##oud": 7183,
      "then": 7184,
      "##ido": 7185,
      "##itations": 7186,
      "strai": 7187,
      "stones": 7188,
      "cancer": 7189,
      "##omet": 7190,
      "sunne": 7191,
      "Meridian": 7192,
      "##iona": 7193,
      "league": 7194,
      "ingr": 7195,
      "barre": 7196,
      "Chuck": 7197,
      "bataen": 7198,
      "##tery": 7199,
      "##verse": 7200,
      "##cept": 7201,
      "##ways": 7202,
      "milwaukee": 7203,
      "milsakte": 7204,
      "baadme": 7205,
      "lost": 7206,
      "resort": 7207,
      "choose": 7208,
      "##iod": 7209,
      "##arket": 7210,
      "boil": 7211,
      "##quet": 7212,
      "direct": 7213,
      "arts": 7214,
      "france": 7215,
      "nightly": 7216,
      "Athens": 7217,
      "##rence": 7218,
      "Harbor": 7219,
      "interse": 7220,
      "perm": 7221,
      "Mayer": 7222,
      "calls": 7223,
      "Gresham": 7224,
      "dekhte": 7225,
      "Anu": 7226,
      "Moms": 7227,
      "passport": 7228,
      "##airs": 7229,
      "bachelor": 7230,
      "financial": 7231,
      "scre": 7232,
      "england": 7233,
      "matt": 7234,
      "guest": 7235,
      "quality": 7236,
      "Indian": 7237,
      "blvd": 7238,
      "flower": 7239,
      "maroon": 7240,
      "Blues": 7241,
      "Head": 7242,
      "Helen": 7243,
      "Heights": 7244,
      "Shreveport": 7245,
      "##ermarket": 7246,
      "readings": 7247,
      "285": 7248,
      "Robin": 7249,
      "vacc": 7250,
      "LIE": 7251,
      "Walt": 7252,
      "specific": 7253,
      "shovel": 7254,
      "Luis": 7255,
      "Missy": 7256,
      "collect": 7257,
      "levels": 7258,
      "Shannon": 7259,
      "electron": 7260,
      "regular": 7261,
      "Keys": 7262,
      "McD": 7263,
      "Joshua": 7264,
      "##grass": 7265,
      "course": 7266,
      "645": 7267,
      "uniform": 7268,
      "Duran": 7269,
      "themed": 7270,
      "Studios": 7271,
      "slick": 7272,
      "slippery": 7273,
      "Angela": 7274,
      "tumhe": 7275,
      "invitations": 7276,
      "backups": 7277,
      "situation": 7278,
      "queens": 7279,
      "wilkes": 7280,
      "consert": 7281,
      "gifts": 7282,
      "Freeway": 7283,
      "##illage": 7284,
      "maximum": 7285,
      "assistant": 7286,
      "pharm": 7287,
      "Golden": 7288,
      "writing": 7289,
      "cruise": 7290,
      "Discover": 7291,
      "Friends": 7292,
      "crockpot": 7293,
      "shuttle": 7294,
      "length": 7295,
      "District": 7296,
      "routine": 7297,
      "while": 7298,
      "jawaab": 7299,
      "oakland": 7300,
      "senior": 7301,
      "Dylan": 7302,
      "suggestions": 7303,
      "employe": 7304,
      "Fleetwood": 7305,
      "lemonade": 7306,
      "twelve": 7307,
      "Clearwater": 7308,
      "Glasgow": 7309,
      "Diamond": 7310,
      "Plymouth": 7311,
      "massage": 7312,
      "ingredi": 7313,
      "130": 7314,
      "5K": 7315,
      "Ac": 7316,
      "Aid": 7317,
      "Ali": 7318,
      "Area": 7319,
      "Aerosmith": 7320,
      "Bakers": 7321,
      "Ca": 7322,
      "Cent": 7323,
      "Cow": 7324,
      "Cap": 7325,
      "Cross": 7326,
      "Cambridge": 7327,
      "Dent": 7328,
      "Emp": 7329,
      "Football": 7330,
      "FRI": 7331,
      "Fremont": 7332,
      "Fiona": 7333,
      "Goo": 7334,
      "Hu": 7335,
      "HW": 7336,
      "IL": 7337,
      "KC": 7338,
      "KY": 7339,
      "Lor": 7340,
      "Mass": 7341,
      "Not": 7342,
      "Pu": 7343,
      "Pot": 7344,
      "Place": 7345,
      "Ren": 7346,
      "Roll": 7347,
      "SP": 7348,
      "Sec": 7349,
      "SON": 7350,
      "Sorry": 7351,
      "Ton": 7352,
      "Thur": 7353,
      "Tem": 7354,
      "UC": 7355,
      "Vol": 7356,
      "Wri": 7357,
      "Waco": 7358,
      "Women": 7359,
      "age": 7360,
      "akron": 7361,
      "bb": 7362,
      "bye": 7363,
      "bon": 7364,
      "coo": 7365,
      "congratulations": 7366,
      "dam": 7367,
      "data": 7368,
      "eat": 7369,
      "eating": 7370,
      "grill": 7371,
      "hawai": 7372,
      "haha": 7373,
      "haven": 7374,
      "id": 7375,
      "jul": 7376,
      "kind": 7377,
      "mood": 7378,
      "nature": 7379,
      "oc": 7380,
      "ped": 7381,
      "rt": 7382,
      "rise": 7383,
      "tan": 7384,
      "term": 7385,
      "whe": 7386,
      "wanna": 7387,
      "women": 7388,
      "##vato": 7389,
      "##eart": 7390,
      "##lle": 7391,
      "##nor": 7392,
      "##gly": 7393,
      "##game": 7394,
      "##ced": 7395,
      "##paper": 7396,
      "##oc": 7397,
      "##Heart": 7398,
      "##OB": 7399,
      "##LO": 7400,
      "##bu": 7401,
      "##bul": 7402,
      "##bra": 7403,
      "##IE": 7404,
      "##ared": 7405,
      "##erne": 7406,
      "ken": 7407,
      "##ait": 7408,
      "##ainer": 7409,
      "karate": 7410,
      "mel": 7411,
      "bays": 7412,
      "semin": 7413,
      "##aters": 7414,
      "##atia": 7415,
      "##lets": 7416,
      "##asha": 7417,
      "##onal": 7418,
      "##ontist": 7419,
      "##tein": 7420,
      "##temp": 7421,
      "alb": 7422,
      "rese": 7423,
      "##imals": 7424,
      "races": 7425,
      "##ubby": 7426,
      "##ela": 7427,
      "##ssan": 7428,
      "dedi": 7429,
      "##thur": 7430,
      "##ending": 7431,
      "##tili": 7432,
      "##vest": 7433,
      "##etty": 7434,
      "paani": 7435,
      "amer": 7436,
      "convers": 7437,
      "##xton": 7438,
      "##hange": 7439,
      "badliye": 7440,
      "##laus": 7441,
      "incoming": 7442,
      "across": 7443,
      "code": 7444,
      "pahuchhne": 7445,
      "##athons": 7446,
      "padhne": 7447,
      "crafts": 7448,
      "jog": 7449,
      "beef": 7450,
      "passed": 7451,
      "Sunny": 7452,
      "roadwork": 7453,
      "dinners": 7454,
      "##coa": 7455,
      "Journey": 7456,
      "updated": 7457,
      "##arahe": 7458,
      "lambe": 7459,
      "chore": 7460,
      "Store": 7461,
      "newport": 7462,
      "Roger": 7463,
      "##tiesburg": 7464,
      "myrtle": 7465,
      "Bemid": 7466,
      "##ansing": 7467,
      "Orchestra": 7468,
      "Mile": 7469,
      "unlike": 7470,
      "Harvard": 7471,
      "midtown": 7472,
      "middle": 7473,
      "##brook": 7474,
      "period": 7475,
      "##pping": 7476,
      "abtak": 7477,
      "Mother": 7478,
      "Train": 7479,
      "visiting": 7480,
      "Neil": 7481,
      "Holland": 7482,
      "##boken": 7483,
      "Seth": 7484,
      "attending": 7485,
      "supermarket": 7486,
      "Riley": 7487,
      "Grande": 7488,
      "Brighton": 7489,
      "Blake": 7490,
      "ringtone": 7491,
      "##EST": 7492,
      "English": 7493,
      "washing": 7494,
      "washer": 7495,
      "Logan": 7496,
      "Laurel": 7497,
      "##ORN": 7498,
      "rakhna": 7499,
      "guzarti": 7500,
      "singles": 7501,
      "Suz": 7502,
      "predictions": 7503,
      "Chad": 7504,
      "progress": 7505,
      "rental": 7506,
      "Lucie": 7507,
      "Jessie": 7508,
      "Patty": 7509,
      "Saare": 7510,
      "Union": 7511,
      "Macon": 7512,
      "Emma": 7513,
      "417": 7514,
      "Kitne": 7515,
      "##torcy": 7516,
      "transportation": 7517,
      "floor": 7518,
      "releases": 7519,
      "conventions": 7520,
      "Camden": 7521,
      "##rawberry": 7522,
      "Cherry": 7523,
      "Comic": 7524,
      "Comedy": 7525,
      "queue": 7526,
      "Darwin": 7527,
      "entertainment": 7528,
      "glasses": 7529,
      "workshops": 7530,
      "##riller": 7531,
      "##becue": 7532,
      "Hayward": 7533,
      "jodein": 7534,
      "Running": 7535,
      "bored": 7536,
      "Costco": 7537,
      "Diane": 7538,
      "jeff": 7539,
      "Shelly": 7540,
      "Civic": 7541,
      "635": 7542,
      "Hartford": 7543,
      "potatoes": 7544,
      "Youngstown": 7545,
      "postpone": 7546,
      "Erin": 7547,
      "##thodontist": 7548,
      "cowork": 7549,
      "remember": 7550,
      "episode": 7551,
      "Gilbert": 7552,
      "Norman": 7553,
      "Venice": 7554,
      "muq": 7555,
      "engagement": 7556,
      "Liverpool": 7557,
      "Opera": 7558,
      "essay": 7559,
      "hogya": 7560,
      "Olean": 7561,
      "soothing": 7562,
      "##washer": 7563,
      "intersection": 7564,
      "ingredients": 7565,
      "Temecula": 7566,
      "bbq": 7567,
      "hawaii": 7568,
      "oclock": 7569,
      "bayside": 7570,
      "##temporary": 7571,
      "dedijiye": 7572,
      "Bemidji": 7573,
      "86": 7574,
      "Aub": 7575,
      "Bap": 7576,
      "Brew": 7577,
      "Beeth": 7578,
      "BRI": 7579,
      "Call": 7580,
      "Clo": 7581,
      "Card": 7582,
      "Du": 7583,
      "Dee": 7584,
      "Dere": 7585,
      "Erie": 7586,
      "Fen": 7587,
      "Fel": 7588,
      "Flow": 7589,
      "Father": 7590,
      "Flea": 7591,
      "Gardens": 7592,
      "Hor": 7593,
      "Heather": 7594,
      "Hand": 7595,
      "HER": 7596,
      "Herm": 7597,
      "Kris": 7598,
      "Lub": 7599,
      "Lis": 7600,
      "Mia": 7601,
      "Master": 7602,
      "Massa": 7603,
      "Nel": 7604,
      "Nina": 7605,
      "Ori": 7606,
      "Pre": 7607,
      "Pick": 7608,
      "Pep": 7609,
      "Pilots": 7610,
      "Rai": 7611,
      "Rom": 7612,
      "Rush": 7613,
      "Sl": 7614,
      "Sed": 7615,
      "Sia": 7616,
      "Shir": 7617,
      "SUN": 7618,
      "Sleep": 7619,
      "Tus": 7620,
      "Wau": 7621,
      "bra": 7622,
      "bull": 7623,
      "boulevard": 7624,
      "cast": 7625,
      "dye": 7626,
      "foo": 7627,
      "flag": 7628,
      "hubby": 7629,
      "jaiye": 7630,
      "kansas": 7631,
      "lay": 7632,
      "lift": 7633,
      "ladies": 7634,
      "many": 7635,
      "net": 7636,
      "pon": 7637,
      "phen": 7638,
      "purch": 7639,
      "rail": 7640,
      "sol": 7641,
      "spo": 7642,
      "sons": 7643,
      "tire": 7644,
      "universal": 7645,
      "veg": 7646,
      "wel": 7647,
      "##ror": 7648,
      "##rol": 7649,
      "##uce": 7650,
      "##card": 7651,
      "##xx": 7652,
      "##hic": 7653,
      "##ded": 7654,
      "##dger": 7655,
      "##yer": 7656,
      "##world": 7657,
      "##fit": 7658,
      "##fish": 7659,
      "##Mac": 7660,
      "##GO": 7661,
      "##Graw": 7662,
      "sewing": 7663,
      "kisi": 7664,
      "##tee": 7665,
      "##tened": 7666,
      "##arming": 7667,
      "##ences": 7668,
      "reach": 7669,
      "##anie": 7670,
      "aaya": 7671,
      "##hire": 7672,
      "mint": 7673,
      "##self": 7674,
      "heard": 7675,
      "jap": 7676,
      "deter": 7677,
      "##ooga": 7678,
      "##oomington": 7679,
      "labor": 7680,
      "##auary": 7681,
      "##tiful": 7682,
      "##ility": 7683,
      "plumber": 7684,
      "##eche": 7685,
      "paanch": 7686,
      "##olla": 7687,
      "stock": 7688,
      "aapke": 7689,
      "upload": 7690,
      "badhne": 7691,
      "##ista": 7692,
      "dilaaye": 7693,
      "##pop": 7694,
      "##posed": 7695,
      "leker": 7696,
      "barbecue": 7697,
      "##icks": 7698,
      "15min": 7699,
      "crow": 7700,
      "##verly": 7701,
      "chalra": 7702,
      "##averton": 7703,
      "##dition": 7704,
      "groom": 7705,
      "##mash": 7706,
      "##oons": 7707,
      "##sive": 7708,
      "milraha": 7709,
      "picked": 7710,
      "expo": 7711,
      "results": 7712,
      "##iff": 7713,
      "##loaf": 7714,
      "Strai": 7715,
      "showings": 7716,
      "12pm": 7717,
      "1230": 7718,
      "prices": 7719,
      "##structions": 7720,
      "comes": 7721,
      "Roxy": 7722,
      "Board": 7723,
      "Boerne": 7724,
      "##dsay": 7725,
      "dayton": 7726,
      "payday": 7727,
      "orthodontist": 7728,
      "discus": 7729,
      "Miles": 7730,
      "roken": 7731,
      "##ooper": 7732,
      "##umba": 7733,
      "bryan": 7734,
      "lower": 7735,
      "Conroe": 7736,
      "##antasy": 7737,
      "Cardi": 7738,
      "weight": 7739,
      "cannot": 7740,
      "drake": 7741,
      "##gerous": 7742,
      "grandpar": 7743,
      "traveling": 7744,
      "cleaners": 7745,
      "ask": 7746,
      "600": 7747,
      "trains": 7748,
      "offer": 7749,
      "shorter": 7750,
      "##bock": 7751,
      "Janauary": 7752,
      "1980": 7753,
      "Seas": 7754,
      "##uctions": 7755,
      "Stevie": 7756,
      "guy": 7757,
      "##peare": 7758,
      "##ginal": 7759,
      "supposed": 7760,
      "Helena": 7761,
      "Lindsay": 7762,
      "western": 7763,
      "Monthly": 7764,
      "Dead": 7765,
      "small": 7766,
      "trees": 7767,
      "Shakes": 7768,
      "estab": 7769,
      "eleven": 7770,
      "elementary": 7771,
      "soundtracks": 7772,
      "temps": 7773,
      "newspaper": 7774,
      "294": 7775,
      "steps": 7776,
      "childrens": 7777,
      "##ATUR": 7778,
      "Redlands": 7779,
      "collection": 7780,
      "manila": 7781,
      "kapdo": 7782,
      "celebrate": 7783,
      "looks": 7784,
      "normally": 7785,
      "##ENT": 7786,
      "McGraw": 7787,
      "ballgame": 7788,
      "##edians": 7789,
      "Farmington": 7790,
      "safe": 7791,
      "packages": 7792,
      "landsc": 7793,
      "Jefferson": 7794,
      "Chili": 7795,
      "Countdown": 7796,
      "trucks": 7797,
      "increments": 7798,
      "##ultural": 7799,
      "##mission": 7800,
      "recommendations": 7801,
      "despacito": 7802,
      "##ukah": 7803,
      "dishwasher": 7804,
      "consider": 7805,
      "Chance": 7806,
      "centimetres": 7807,
      "brooklyn": 7808,
      "Watsapp": 7809,
      "phys": 7810,
      "documents": 7811,
      "expire": 7812,
      "premiere": 7813,
      "Lawrence": 7814,
      "Clarkson": 7815,
      "watches": 7816,
      "Susie": 7817,
      "Tours": 7818,
      "Plano": 7819,
      "Tupac": 7820,
      "alexa": 7821,
      "earliest": 7822,
      "department": 7823,
      "Cruz": 7824,
      "install": 7825,
      "Convention": 7826,
      "Croatia": 7827,
      "Campbell": 7828,
      "crying": 7829,
      "Snapchat": 7830,
      "Cyrus": 7831,
      "squats": 7832,
      "bruno": 7833,
      "Pichla": 7834,
      "puppy": 7835,
      "vahaan": 7836,
      "Glendale": 7837,
      "Audio": 7838,
      "Caribbean": 7839,
      "dhunna": 7840,
      "breathing": 7841,
      "Siberian": 7842,
      "bridal": 7843,
      "Tiffany": 7844,
      "blog": 7845,
      "savannah": 7846,
      "guests": 7847,
      "Bakersfield": 7848,
      "FRIDAY": 7849,
      "coolest": 7850,
      "research": 7851,
      "muqable": 7852,
      "Beethoven": 7853,
      "BRID": 7854,
      "08": 7855,
      "72": 7856,
      "730": 7857,
      "Ah": 7858,
      "AU": 7859,
      "Aquarium": 7860,
      "APP": 7861,
      "Bat": 7862,
      "Bus": 7863,
      "CT": 7864,
      "Cand": 7865,
      "Cather": 7866,
      "DM": 7867,
      "Der": 7868,
      "Dun": 7869,
      "Demi": 7870,
      "DEL": 7871,
      "Fo": 7872,
      "Fil": 7873,
      "Hare": 7874,
      "Haley": 7875,
      "Hemet": 7876,
      "IT": 7877,
      "Led": 7878,
      "Life": 7879,
      "MN": 7880,
      "Mes": 7881,
      "Mate": 7882,
      "MON": 7883,
      "NAS": 7884,
      "Ox": 7885,
      "Of": 7886,
      "Pi": 7887,
      "Pay": 7888,
      "Pit": 7889,
      "Pop": 7890,
      "Rico": 7891,
      "Som": 7892,
      "Sche": 7893,
      "Sout": 7894,
      "Tri": 7895,
      "Tre": 7896,
      "That": 7897,
      "Trist": 7898,
      "This": 7899,
      "Tope": 7900,
      "Wo": 7901,
      "Who": 7902,
      "When": 7903,
      "Wind": 7904,
      "YORK": 7905,
      "Zack": 7906,
      "Zep": 7907,
      "Zumba": 7908,
      "boo": 7909,
      "bit": 7910,
      "cass": 7911,
      "da": 7912,
      "february": 7913,
      "hay": 7914,
      "ly": 7915,
      "lee": 7916,
      "lakes": 7917,
      "lately": 7918,
      "ms": 7919,
      "mit": 7920,
      "must": 7921,
      "mass": 7922,
      "nin": 7923,
      "non": 7924,
      "nayi": 7925,
      "oz": 7926,
      "palm": 7927,
      "range": 7928,
      "ryan": 7929,
      "sta": 7930,
      "sil": 7931,
      "shir": 7932,
      "sailing": 7933,
      "##roll": 7934,
      "##ib": 7935,
      "##gu": 7936,
      "##uar": 7937,
      "##uit": 7938,
      "##sink": 7939,
      "##park": 7940,
      "##oe": 7941,
      "##ok": 7942,
      "##xim": 7943,
      "##Radio": 7944,
      "##LAS": 7945,
      "##bow": 7946,
      "##bles": 7947,
      "##wks": 7948,
      "##fort": 7949,
      "##ME": 7950,
      "kent": 7951,
      "keep": 7952,
      "karane": 7953,
      "##inar": 7954,
      "##yak": 7955,
      "##atric": 7956,
      "##lee": 7957,
      "##ashes": 7958,
      "kick": 7959,
      "##hal": 7960,
      "alawa": 7961,
      "alumni": 7962,
      "reason": 7963,
      "timberlake": 7964,
      "##ading": 7965,
      "##ados": 7966,
      "##gebra": 7967,
      "##states": 7968,
      "##chburg": 7969,
      "##sell": 7970,
      "jao": 7971,
      "dev": 7972,
      "##isha": 7973,
      "timeout": 7974,
      "##ilates": 7975,
      "plant": 7976,
      "##ckt": 7977,
      "theaters": 7978,
      "forest": 7979,
      "104": 7980,
      "102": 7981,
      "##hod": 7982,
      "samj": 7983,
      "forecasts": 7984,
      "bathao": 7985,
      "##ists": 7986,
      "##pos": 7987,
      "leaves": 7988,
      "copy": 7989,
      "##oplin": 7990,
      "News": 7991,
      "##acks": 7992,
      "chalkar": 7993,
      "##illian": 7994,
      "pole": 7995,
      "posi": 7996,
      "gaming": 7997,
      "usually": 7998,
      "##site": 7999,
      "##ruction": 8000,
      "humare": 8001,
      "chhod": 8002,
      "Str": 8003,
      "Stan": 8004,
      "Stock": 8005,
      "throw": 8006,
      "flu": 8007,
      "schools": 8008,
      "soap": 8009,
      "constructions": 8010,
      "Roy": 8011,
      "Royal": 8012,
      "Beast": 8013,
      "##setts": 8014,
      "Fresno": 8015,
      "daylight": 8016,
      "boile": 8017,
      "##ansisco": 8018,
      "another": 8019,
      "##aleb": 8020,
      "Allentown": 8021,
      "fred": 8022,
      "Brent": 8023,
      "unme": 8024,
      "Mario": 8025,
      "airline": 8026,
      "Timu": 8027,
      "##etsy": 8028,
      "brew": 8029,
      "lisa": 8030,
      "remix": 8031,
      "spaghetti": 8032,
      "speech": 8033,
      "split": 8034,
      "Carlos": 8035,
      "Mode": 8036,
      "Animals": 8037,
      "Trail": 8038,
      "apples": 8039,
      "everything": 8040,
      "mailbox": 8041,
      "ways": 8042,
      "Spin": 8043,
      "Spice": 8044,
      "Yeah": 8045,
      "Holly": 8046,
      "##perware": 8047,
      "timesheet": 8048,
      "banquet": 8049,
      "Stefan": 8050,
      "169": 8051,
      "Rocky": 8052,
      "planner": 8053,
      "sleeping": 8054,
      "Jenn": 8055,
      "Jenna": 8056,
      "knoxville": 8057,
      "oklahoma": 8058,
      "Islands": 8059,
      "slowdown": 8060,
      "Lovato": 8061,
      "Ballet": 8062,
      "##caloosa": 8063,
      "tempe": 8064,
      "Julian": 8065,
      "fifth": 8066,
      "Donald": 8067,
      "britney": 8068,
      "##pelin": 8069,
      "Noah": 8070,
      "Chandler": 8071,
      "signs": 8072,
      "neighbors": 8073,
      "manhattan": 8074,
      "TRACK": 8075,
      "iMessages": 8076,
      "Marietta": 8077,
      "Norway": 8078,
      "Wilson": 8079,
      "Gardener": 8080,
      "closing": 8081,
      "bowl": 8082,
      "vehic": 8083,
      "Morris": 8084,
      "Stuart": 8085,
      "fourth": 8086,
      "corner": 8087,
      "arrived": 8088,
      "meatloaf": 8089,
      "##nectady": 8090,
      "Crystal": 8091,
      "desk": 8092,
      "tournaments": 8093,
      "bags": 8094,
      "rukne": 8095,
      "Classic": 8096,
      "390": 8097,
      "entrance": 8098,
      "workshop": 8099,
      "following": 8100,
      "Winston": 8101,
      "autom": 8102,
      "lunches": 8103,
      "sleeve": 8104,
      "Williams": 8105,
      "Backstreet": 8106,
      "DVD": 8107,
      "465": 8108,
      "surface": 8109,
      "smoke": 8110,
      "##ayetteville": 8111,
      "Giants": 8112,
      "Snow": 8113,
      "riverside": 8114,
      "##aisley": 8115,
      "Silver": 8116,
      "sadaken": 8117,
      "webinar": 8118,
      "##erizon": 8119,
      "earlier": 8120,
      "Direc": 8121,
      "babd": 8122,
      "babies": 8123,
      "beltway": 8124,
      "invoice": 8125,
      "gathering": 8126,
      "wrap": 8127,
      "TobyMac": 8128,
      "Aurora": 8129,
      "Roswell": 8130,
      "patterns": 8131,
      "millimetres": 8132,
      "hrs": 8133,
      "approxim": 8134,
      "budget": 8135,
      "British": 8136,
      "inspection": 8137,
      "Depeche": 8138,
      "Paula": 8139,
      "Urban": 8140,
      "##ewelry": 8141,
      "exactly": 8142,
      "Ruby": 8143,
      "mortage": 8144,
      "roomm": 8145,
      "urgent": 8146,
      "custom": 8147,
      "fasne": 8148,
      "toronto": 8149,
      "chiropractor": 8150,
      "Petersburg": 8151,
      "antibiotics": 8152,
      "Lambert": 8153,
      "Mansoura": 8154,
      "PLAY": 8155,
      "Pleasant": 8156,
      "##chusetts": 8157,
      "##unities": 8158,
      "pharmacy": 8159,
      "Puerto": 8160,
      "##HeartRadio": 8161,
      "conversation": 8162,
      "##torcycle": 8163,
      "Derek": 8164,
      "Lubbock": 8165,
      "Massachusetts": 8166,
      "Sedona": 8167,
      "poncho": 8168,
      "purchase": 8169,
      "detergent": 8170,
      "Seaside": 8171,
      "physical": 8172,
      "Schenectady": 8173,
      "Tristan": 8174,
      "Topeka": 8175,
      "##sinki": 8176,
      "boiled": 8177,
      "62": 8178,
      "73": 8179,
      "89": 8180,
      "82": 8181,
      "87": 8182,
      "830": 8183,
      "930": 8184,
      "Ant": 8185,
      "Aud": 8186,
      "BW": 8187,
      "Bas": 8188,
      "Bol": 8189,
      "Bed": 8190,
      "Bart": 8191,
      "Block": 8192,
      "Betsy": 8193,
      "Chat": 8194,
      "Claus": 8195,
      "Did": 8196,
      "Dix": 8197,
      "Dream": 8198,
      "Deep": 8199,
      "Esc": 8200,
      "EVEN": 8201,
      "Fit": 8202,
      "Fif": 8203,
      "Fuck": 8204,
      "Glor": 8205,
      "Gwen": 8206,
      "Gatlinburg": 8207,
      "Ha": 8208,
      "Hat": 8209,
      "Han": 8210,
      "HAR": 8211,
      "Hulu": 8212,
      "IS": 8213,
      "Joplin": 8214,
      "Kaley": 8215,
      "Lunch": 8216,
      "Light": 8217,
      "Ma": 8218,
      "Need": 8219,
      "Pm": 8220,
      "PO": 8221,
      "PU": 8222,
      "Ped": 8223,
      "Paisley": 8224,
      "Row": 8225,
      "Rec": 8226,
      "Rapp": 8227,
      "Saf": 8228,
      "Sug": 8229,
      "Some": 8230,
      "Val": 8231,
      "Vane": 8232,
      "Whe": 8233,
      "Wall": 8234,
      "asa": 8235,
      "araha": 8236,
      "aarahe": 8237,
      "cand": 8238,
      "equ": 8239,
      "eagles": 8240,
      "fer": 8241,
      "ferry": 8242,
      "fashion": 8243,
      "fantasy": 8244,
      "gust": 8245,
      "hers": 8246,
      "ise": 8247,
      "jess": 8248,
      "jewelry": 8249,
      "muff": 8250,
      "nor": 8251,
      "pub": 8252,
      "pant": 8253,
      "rangers": 8254,
      "site": 8255,
      "tal": 8256,
      "tent": 8257,
      "taar": 8258,
      "wise": 8259,
      "waking": 8260,
      "worship": 8261,
      "##iber": 8262,
      "##nne": 8263,
      "##gant": 8264,
      "##ules": 8265,
      "##cer": 8266,
      "##cha": 8267,
      "##cake": 8268,
      "##sha": 8269,
      "##sen": 8270,
      "##ped": 8271,
      "##zing": 8272,
      "##TLE": 8273,
      "##LD": 8274,
      "##LM": 8275,
      "##bi": 8276,
      "##bb": 8277,
      "##bri": 8278,
      "##bies": 8279,
      "##fax": 8280,
      "##faan": 8281,
      "##CO": 8282,
      "##CT": 8283,
      "##10": 8284,
      "kend": 8285,
      "karaoke": 8286,
      "##inate": 8287,
      "##inals": 8288,
      "##heum": 8289,
      "bass": 8290,
      "sell": 8291,
      "##atic": 8292,
      "alpha": 8293,
      "##urb": 8294,
      "##nam": 8295,
      "trail": 8296,
      "##hithe": 8297,
      "minneapolis": 8298,
      "doll": 8299,
      "double": 8300,
      "##sem": 8301,
      "##eli": 8302,
      "##ella": 8303,
      "jaon": 8304,
      "##eekh": 8305,
      "##esome": 8306,
      "honey": 8307,
      "##audia": 8308,
      "wall": 8309,
      "##anca": 8310,
      "plow": 8311,
      "##herst": 8312,
      "##idi": 8313,
      "##olas": 8314,
      "106": 8315,
      "##eden": 8316,
      "pahun": 8317,
      "##ird": 8318,
      "story": 8319,
      "strawberry": 8320,
      "connect": 8321,
      "contemporary": 8322,
      "##ertown": 8323,
      "##host": 8324,
      "sams": 8325,
      "##eway": 8326,
      "kardoge": 8327,
      "##ister": 8328,
      "dilaana": 8329,
      "driveway": 8330,
      "banaya": 8331,
      "##aches": 8332,
      "##rozen": 8333,
      "atlantic": 8334,
      "1500": 8335,
      "beth": 8336,
      "200": 8337,
      "205": 8338,
      "once": 8339,
      "##eeds": 8340,
      "##avin": 8341,
      "##ntime": 8342,
      "##asted": 8343,
      "thaw": 8344,
      "bacon": 8345,
      "badlen": 8346,
      "##oodles": 8347,
      "usher": 8348,
      "##cotia": 8349,
      "lovers": 8350,
      "##apa": 8351,
      "##uling": 8352,
      "##ulation": 8353,
      "express": 8354,
      "expen": 8355,
      "Yorkshire": 8356,
      "Sting": 8357,
      "section": 8358,
      "120": 8359,
      "##stonia": 8360,
      "thing": 8361,
      "proof": 8362,
      "Roses": 8363,
      "##portunities": 8364,
      "shel": 8365,
      "district": 8366,
      "counting": 8367,
      "Beverly": 8368,
      "goes": 8369,
      "##llie": 8370,
      "##aworld": 8371,
      "Alam": 8372,
      "Alison": 8373,
      "toofaan": 8374,
      "interstates": 8375,
      "todays": 8376,
      "requir": 8377,
      "downs": 8378,
      "houses": 8379,
      "Grant": 8380,
      "Cod": 8381,
      "Comp": 8382,
      "Cody": 8383,
      "##mergen": 8384,
      "##iger": 8385,
      "Anniversary": 8386,
      "afternoons": 8387,
      "warn": 8388,
      "liked": 8389,
      "Denmark": 8390,
      "##trac": 8391,
      "Arthur": 8392,
      "preschool": 8393,
      "president": 8394,
      "clocks": 8395,
      "1800": 8396,
      "197": 8397,
      "Claudia": 8398,
      "quiche": 8399,
      "##pei": 8400,
      "broad": 8401,
      "broken": 8402,
      "halfway": 8403,
      "##ART": 8404,
      "Evan": 8405,
      "Event": 8406,
      "Minaj": 8407,
      "studio": 8408,
      "Rita": 8409,
      "1604": 8410,
      "Tele": 8411,
      "mission": 8412,
      "mississippi": 8413,
      "notice": 8414,
      "Bloomington": 8415,
      "Perfect": 8416,
      "Shores": 8417,
      "westbound": 8418,
      "based": 8419,
      "280": 8420,
      "during": 8421,
      "chart": 8422,
      "Shay": 8423,
      "bridges": 8424,
      "exercises": 8425,
      "##umberland": 8426,
      "watching": 8427,
      "Brother": 8428,
      "SEAT": 8429,
      "Leo": 8430,
      "295": 8431,
      "Expo": 8432,
      "step": 8433,
      "Nova": 8434,
      "##vote": 8435,
      "Champ": 8436,
      "Franklin": 8437,
      "##opez": 8438,
      "Appen": 8439,
      "##working": 8440,
      "madison": 8441,
      "Bradley": 8442,
      "Corpus": 8443,
      "Macy": 8444,
      "boxes": 8445,
      "courthouse": 8446,
      "tablet": 8447,
      "something": 8448,
      "contruction": 8449,
      "Midtown": 8450,
      "greensboro": 8451,
      "bird": 8452,
      "union": 8453,
      "Morgan": 8454,
      "Staples": 8455,
      "dangerous": 8456,
      "suit": 8457,
      "Sabse": 8458,
      "queen": 8459,
      "Bowie": 8460,
      "Reba": 8461,
      "wild": 8462,
      "Lynchburg": 8463,
      "awesome": 8464,
      "original": 8465,
      "problem": 8466,
      "Costa": 8467,
      "competition": 8468,
      "ROCK": 8469,
      "crossing": 8470,
      "Messages": 8471,
      "Mrs": 8472,
      "scrap": 8473,
      "545": 8474,
      "Kirk": 8475,
      "climb": 8476,
      "Poland": 8477,
      "##grounds": 8478,
      "website": 8479,
      "Tupperware": 8480,
      "Wedding": 8481,
      "Celine": 8482,
      "Ellie": 8483,
      "Plains": 8484,
      "cabin": 8485,
      "schedules": 8486,
      "Bulls": 8487,
      "meetups": 8488,
      "signings": 8489,
      "termin": 8490,
      "Hilda": 8491,
      "Laguna": 8492,
      "Scranton": 8493,
      "arizona": 8494,
      "lullaby": 8495,
      "tacos": 8496,
      "Dinner": 8497,
      "Guns": 8498,
      "Theresa": 8499,
      "Whitney": 8500,
      "bulbs": 8501,
      "kelly": 8502,
      "television": 8503,
      "Havasu": 8504,
      "missed": 8505,
      "Staten": 8506,
      "earthqu": 8507,
      "counseling": 8508,
      "Dentist": 8509,
      "Empire": 8510,
      "Hudson": 8511,
      "SONG": 8512,
      "julie": 8513,
      "albany": 8514,
      "phenna": 8515,
      "mintues": 8516,
      "japan": 8517,
      "discuss": 8518,
      "grandparents": 8519,
      "Shakespeare": 8520,
      "Catherine": 8521,
      "Mateo": 8522,
      "Gloria": 8523,
      "Rapper": 8524,
      "Vanessa": 8525,
      "taareekh": 8526,
      "dollars": 8527,
      "SEATTLE": 8528,
      "06": 8529,
      "880": 8530,
      "Ani": 8531,
      "Aut": 8532,
      "BA": 8533,
      "BY": 8534,
      "But": 8535,
      "Bul": 8536,
      "Cast": 8537,
      "Cab": 8538,
      "Cash": 8539,
      "Crai": 8540,
      "Chattan": 8541,
      "Congratulations": 8542,
      "DE": 8543,
      "EK": 8544,
      "Erica": 8545,
      "Estonia": 8546,
      "FM": 8547,
      "Fun": 8548,
      "Fri": 8549,
      "Fly": 8550,
      "Fashion": 8551,
      "Fayetteville": 8552,
      "GW": 8553,
      "Gene": 8554,
      "Harm": 8555,
      "Hut": 8556,
      "Idy": 8557,
      "Jes": 8558,
      "Jag": 8559,
      "Kay": 8560,
      "Kro": 8561,
      "Lane": 8562,
      "Lila": 8563,
      "Leno": 8564,
      "Ladies": 8565,
      "Mur": 8566,
      "Mik": 8567,
      "Mand": 8568,
      "More": 8569,
      "Maur": 8570,
      "MAR": 8571,
      "MIL": 8572,
      "Nas": 8573,
      "Oceanside": 8574,
      "Pine": 8575,
      "PST": 8576,
      "Ranch": 8577,
      "SR": 8578,
      "SU": 8579,
      "Saw": 8580,
      "Ski": 8581,
      "Sons": 8582,
      "SAN": 8583,
      "Ts": 8584,
      "Trop": 8585,
      "Trish": 8586,
      "Vista": 8587,
      "WI": 8588,
      "WV": 8589,
      "Wade": 8590,
      "cate": 8591,
      "could": 8592,
      "dv": 8593,
      "dup": 8594,
      "dont": 8595,
      "death": 8596,
      "emergen": 8597,
      "fi": 8598,
      "foot": 8599,
      "factor": 8600,
      "fighters": 8601,
      "ge": 8602,
      "gha": 8603,
      "ija": 8604,
      "lit": 8605,
      "lamar": 8606,
      "math": 8607,
      "mart": 8608,
      "machine": 8609,
      "nas": 8610,
      "nanny": 8611,
      "own": 8612,
      "oahu": 8613,
      "psy": 8614,
      "ris": 8615,
      "radi": 8616,
      "sis": 8617,
      "sue": 8618,
      "scot": 8619,
      "tie": 8620,
      "tail": 8621,
      "tiger": 8622,
      "vend": 8623,
      "wis": 8624,
      "wisconsin": 8625,
      "##vp": 8626,
      "##vor": 8627,
      "##van": 8628,
      "##vil": 8629,
      "##vale": 8630,
      "##ients": 8631,
      "##gs": 8632,
      "##gue": 8633,
      "##gley": 8634,
      "##green": 8635,
      "##gram": 8636,
      "##gory": 8637,
      "##oci": 8638,
      "##tree": 8639,
      "##then": 8640,
      "##zes": 8641,
      "##zra": 8642,
      "##don": 8643,
      "##dsey": 8644,
      "##yers": 8645,
      "##TY": 8646,
      "##LL": 8647,
      "##bon": 8648,
      "##bab": 8649,
      "##wave": 8650,
      "##wild": 8651,
      "##PS": 8652,
      "##fin": 8653,
      "##NC": 8654,
      "##BR": 8655,
      "##ION": 8656,
      "##VING": 8657,
      "##aine": 8658,
      "##inder": 8659,
      "mesa": 8660,
      "##hem": 8661,
      "##yaar": 8662,
      "self": 8663,
      "karega": 8664,
      "##lem": 8665,
      "##haar": 8666,
      "alaska": 8667,
      "revise": 8668,
      "##orc": 8669,
      "##ority": 8670,
      "##iced": 8671,
      "##icho": 8672,
      "##imes": 8673,
      "##anti": 8674,
      "##adena": 8675,
      "##nace": 8676,
      "remindr": 8677,
      "trainer": 8678,
      "karoge": 8679,
      "##ride": 8680,
      "minutese": 8681,
      "##ube": 8682,
      "dot": 8683,
      "##sea": 8684,
      "##sex": 8685,
      "chahie": 8686,
      "dete": 8687,
      "chahunga": 8688,
      "##thy": 8689,
      "##ussia": 8690,
      "##nier": 8691,
      "##atural": 8692,
      "forgo": 8693,
      "forms": 8694,
      "##eton": 8695,
      "##etime": 8696,
      "even": 8697,
      "rodeo": 8698,
      "amy": 8699,
      "harry": 8700,
      "condo": 8701,
      "dining": 8702,
      "##uma": 8703,
      "pete": 8704,
      "pepp": 8705,
      "bheeg": 8706,
      "batana": 8707,
      "worked": 8708,
      "saktey": 8709,
      "##urry": 8710,
      "replace": 8711,
      "act": 8712,
      "coach": 8713,
      "texting": 8714,
      "##rov": 8715,
      "##road": 8716,
      "##ops": 8717,
      "##opher": 8718,
      "15pm": 8719,
      "beh": 8720,
      "clients": 8721,
      "crashes": 8722,
      "dermat": 8723,
      "##ryn": 8724,
      "joey": 8725,
      "00am": 8726,
      "cheer": 8727,
      "##sian": 8728,
      "downtime": 8729,
      "loan": 8730,
      "Josie": 8731,
      "Sanford": 8732,
      "Stand": 8733,
      "Storm": 8734,
      "Strip": 8735,
      "showers": 8736,
      "thai": 8737,
      "thought": 8738,
      "flops": 8739,
      "pretty": 8740,
      "Jude": 8741,
      "soda": 8742,
      "##struction": 8743,
      "stoped": 8744,
      "comedians": 8745,
      "##arian": 8746,
      "Rodeo": 8747,
      "saturdays": 8748,
      "Boca": 8749,
      "##lord": 8750,
      "maadi": 8751,
      "checkpoint": 8752,
      "hotter": 8753,
      "##epend": 8754,
      "kiss": 8755,
      "body": 8756,
      "##llwild": 8757,
      "anym": 8758,
      "animal": 8759,
      "arlington": 8760,
      "those": 8761,
      "Orp": 8762,
      "Johns": 8763,
      "##actory": 8764,
      "commit": 8765,
      "Brow": 8766,
      "disreg": 8767,
      "discount": 8768,
      "hungry": 8769,
      "unki": 8770,
      "Marley": 8771,
      "Juneau": 8772,
      "rains": 8773,
      "Connor": 8774,
      "NYE": 8775,
      "profess": 8776,
      "ital": 8777,
      "watering": 8778,
      "##rowave": 8779,
      "Gram": 8780,
      "##ign": 8781,
      "weigh": 8782,
      "drag": 8783,
      "Tracey": 8784,
      "Dothan": 8785,
      "2016": 8786,
      "Charity": 8787,
      "ends": 8788,
      "halt": 8789,
      "grandson": 8790,
      "wahaan": 8791,
      "Display": 8792,
      "##INA": 8793,
      "##INT": 8794,
      "Disneyworld": 8795,
      "##body": 8796,
      "Seaworld": 8797,
      "veter": 8798,
      "Anderson": 8799,
      "##iseum": 8800,
      "Eva": 8801,
      "Melanie": 8802,
      "1600": 8803,
      "arrives": 8804,
      "Brianna": 8805,
      "Heidi": 8806,
      "##otic": 8807,
      "Lindsey": 8808,
      "Monte": 8809,
      "Monster": 8810,
      "touring": 8811,
      "##ESDAY": 8812,
      "smiley": 8813,
      "Tori": 8814,
      "Barb": 8815,
      "khol": 8816,
      "Amelia": 8817,
      "Apex": 8818,
      "salem": 8819,
      "slowing": 8820,
      "target": 8821,
      "Balto": 8822,
      "potty": 8823,
      "##AYS": 8824,
      "Sheila": 8825,
      "Leon": 8826,
      "Leand": 8827,
      "niklenge": 8828,
      "##uluth": 8829,
      "singer": 8830,
      "specials": 8831,
      "Project": 8832,
      "microwave": 8833,
      "bottles": 8834,
      "manicure": 8835,
      "Chester": 8836,
      "didn": 8837,
      "springfield": 8838,
      "##UTE": 8839,
      "tyler": 8840,
      "##erole": 8841,
      "Christi": 8842,
      "Sammy": 8843,
      "lightening": 8844,
      "##ediatric": 8845,
      "landlord": 8846,
      "contin": 8847,
      "biggest": 8848,
      "coupon": 8849,
      "Guam": 8850,
      "greenville": 8851,
      "haunted": 8852,
      "Russell": 8853,
      "disneyland": 8854,
      "Burbank": 8855,
      "begins": 8856,
      "Mountains": 8857,
      "filters": 8858,
      "Olympics": 8859,
      "covered": 8860,
      "Cheryl": 8861,
      "hunts": 8862,
      "entry": 8863,
      "Works": 8864,
      "citi": 8865,
      "Allison": 8866,
      "Bowling": 8867,
      "symphony": 8868,
      "wilmington": 8869,
      "difference": 8870,
      "battery": 8871,
      "##azat": 8872,
      "Koda": 8873,
      "Painting": 8874,
      "surfing": 8875,
      "sprinklers": 8876,
      "Cookie": 8877,
      "Huntsville": 8878,
      "ROAD": 8879,
      "maryland": 8880,
      "brooks": 8881,
      "document": 8882,
      "Beauty": 8883,
      "Beaumont": 8884,
      "Snoop": 8885,
      "Walking": 8886,
      "Pierce": 8887,
      "Valentines": 8888,
      "large": 8889,
      "Tasha": 8890,
      "furnace": 8891,
      "##banks": 8892,
      "Presley": 8893,
      "Bible": 8894,
      "Betty": 8895,
      "lengthen": 8896,
      "kingston": 8897,
      "beautiful": 8898,
      "Taiwan": 8899,
      "##iesta": 8900,
      "Conventions": 8901,
      "Elect": 8902,
      "NSW": 8903,
      "private": 8904,
      "scheduling": 8905,
      "select": 8906,
      "HOURS": 8907,
      "##GHT": 8908,
      "##inghamton": 8909,
      "crawl": 8910,
      "modern": 8911,
      "moderate": 8912,
      "skype": 8913,
      "golden": 8914,
      "purse": 8915,
      "unpause": 8916,
      "Tanya": 8917,
      "Earth": 8918,
      "Jasmine": 8919,
      "Miranda": 8920,
      "rained": 8921,
      "##blings": 8922,
      "##stanbul": 8923,
      "Doug": 8924,
      "student": 8925,
      "Epcot": 8926,
      "straight": 8927,
      "permane": 8928,
      "electronic": 8929,
      "McDon": 8930,
      "employees": 8931,
      "HWY": 8932,
      "Shirley": 8933,
      "considering": 8934,
      "BRIDGE": 8935,
      "MONDAY": 8936,
      "Zeppelin": 8937,
      "casserole": 8938,
      "device": 8939,
      "BWI": 8940,
      "Fifth": 8941,
      "Pedro": 8942,
      "Sugar": 8943,
      "asap": 8944,
      "plowed": 8945,
      "Chattanooga": 8946,
      "Idyllwild": 8947,
      "category": 8948,
      "ijaazat": 8949,
      "anymore": 8950,
      "disregard": 8951,
      "1A": 8952,
      "53": 8953,
      "83": 8954,
      "Av": 8955,
      "BR": 8956,
      "Bor": 8957,
      "Bad": 8958,
      "Base": 8959,
      "Bach": 8960,
      "Buck": 8961,
      "Bell": 8962,
      "Binghamton": 8963,
      "Cup": 8964,
      "Clay": 8965,
      "Come": 8966,
      "Cooper": 8967,
      "Dai": 8968,
      "Dam": 8969,
      "Dre": 8970,
      "Dion": 8971,
      "Diana": 8972,
      "DIS": 8973,
      "Dawn": 8974,
      "Duluth": 8975,
      "EX": 8976,
      "FD": 8977,
      "Fer": 8978,
      "Fork": 8979,
      "Fiesta": 8980,
      "GO": 8981,
      "Gay": 8982,
      "Gen": 8983,
      "Gri": 8984,
      "God": 8985,
      "Gospel": 8986,
      "GPS": 8987,
      "Hom": 8988,
      "Hard": 8989,
      "Hank": 8990,
      "Hair": 8991,
      "Jak": 8992,
      "Jana": 8993,
      "Jax": 8994,
      "Ka": 8995,
      "Kam": 8996,
      "Kill": 8997,
      "KIS": 8998,
      "Lord": 8999,
      "Mee": 9000,
      "Make": 9001,
      "Mali": 9002,
      "NW": 9003,
      "Nik": 9004,
      "Nine": 9005,
      "Nep": 9006,
      "Nails": 9007,
      "NBA": 9008,
      "Os": 9009,
      "PR": 9010,
      "PD": 9011,
      "Pike": 9012,
      "Pass": 9013,
      "Pough": 9014,
      "Prai": 9015,
      "Rh": 9016,
      "Rad": 9017,
      "Rol": 9018,
      "Rest": 9019,
      "Rica": 9020,
      "Raton": 9021,
      "SO": 9022,
      "SA": 9023,
      "Say": 9024,
      "Sri": 9025,
      "Sel": 9026,
      "Suff": 9027,
      "Shane": 9028,
      "STA": 9029,
      "Sox": 9030,
      "Tit": 9031,
      "Tower": 9032,
      "Tere": 9033,
      "Vik": 9034,
      "Village": 9035,
      "Wash": 9036,
      "With": 9037,
      "WILL": 9038,
      "Your": 9039,
      "aff": 9040,
      "bday": 9041,
      "bree": 9042,
      "biking": 9043,
      "bins": 9044,
      "ca": 9045,
      "ce": 9046,
      "cd": 9047,
      "cans": 9048,
      "corn": 9049,
      "calm": 9050,
      "cycling": 9051,
      "cambridge": 9052,
      "cultural": 9053,
      "dues": 9054,
      "dave": 9055,
      "dating": 9056,
      "gard": 9057,
      "hide": 9058,
      "ill": 9059,
      "iHeartRadio": 9060,
      "jill": 9061,
      "khil": 9062,
      "lets": 9063,
      "lect": 9064,
      "linda": 9065,
      "mas": 9066,
      "mana": 9067,
      "mari": 9068,
      "manchester": 9069,
      "noodles": 9070,
      "oh": 9071,
      "occ": 9072,
      "pier": 9073,
      "pilates": 9074,
      "rs": 9075,
      "ron": 9076,
      "ray": 9077,
      "rero": 9078,
      "sne": 9079,
      "sum": 9080,
      "sitter": 9081,
      "spot": 9082,
      "tina": 9083,
      "uk": 9084,
      "uber": 9085,
      "via": 9086,
      "wip": 9087,
      "##vert": 9088,
      "##vana": 9089,
      "##ied": 9090,
      "##uderdale": 9091,
      "##case": 9092,
      "##cie": 9093,
      "##cue": 9094,
      "##come": 9095,
      "##so": 9096,
      "##place": 9097,
      "##ole": 9098,
      "##over": 9099,
      "##mir": 9100,
      "##mail": 9101,
      "##tar": 9102,
      "##hol": 9103,
      "##hold": 9104,
      "##dau": 9105,
      "##dgers": 9106,
      "##OO": 9107,
      "##REE": 9108,
      "##bin": 9109,
      "##bridge": 9110,
      "##bster": 9111,
      "##bread": 9112,
      "##word": 9113,
      "##worth": 9114,
      "##PH": 9115,
      "##fr": 9116,
      "##NT": 9117,
      "##NY": 9118,
      "##NCE": 9119,
      "##Book": 9120,
      "##UST": 9121,
      "##GM": 9122,
      "##erout": 9123,
      "##aina": 9124,
      "##ailey": 9125,
      "##aissan": 9126,
      "memphis": 9127,
      "##hey": 9128,
      "bapt": 9129,
      "bahaar": 9130,
      "##onia": 9131,
      "##hani": 9132,
      "##haca": 9133,
      "##tent": 9134,
      "along": 9135,
      "##ura": 9136,
      "##ency": 9137,
      "##saw": 9138,
      "reve": 9139,
      "##anas": 9140,
      "##anut": 9141,
      "hogo": 9142,
      "##mins": 9143,
      "##geon": 9144,
      "paresha": 9145,
      "digi": 9146,
      "##sters": 9147,
      "##ammo": 9148,
      "##rietta": 9149,
      "yahan": 9150,
      "##sec": 9151,
      "toledo": 9152,
      "##elyn": 9153,
      "##elback": 9154,
      "agli": 9155,
      "agenda": 9156,
      "##ested": 9157,
      "##esley": 9158,
      "lawy": 9159,
      "lauderdale": 9160,
      "teens": 9161,
      "##ecoming": 9162,
      "##ecasted": 9163,
      "forecasted": 9164,
      "##herine": 9165,
      "##idity": 9166,
      "paci": 9167,
      "##itori": 9168,
      "##anese": 9169,
      "##edith": 9170,
      "rot": 9171,
      "harris": 9172,
      "##ands": 9173,
      "stone": 9174,
      "style": 9175,
      "storage": 9176,
      "contract": 9177,
      "##hant": 9178,
      "pei": 9179,
      "navi": 9180,
      "Meredith": 9181,
      "lev": 9182,
      "##reed": 9183,
      "shave": 9184,
      "aasma": 9185,
      "waves": 9186,
      "inbox": 9187,
      "pahunchsakta": 9188,
      "Chains": 9189,
      "beans": 9190,
      "clar": 9191,
      "##onds": 9192,
      "##ondido": 9193,
      "##ipment": 9194,
      "craz": 9195,
      "2000": 9196,
      "mothers": 9197,
      "journey": 9198,
      "##cts": 9199,
      "ches": 9200,
      "poker": 9201,
      "##agle": 9202,
      "milte": 9203,
      "milsakta": 9204,
      "skate": 9205,
      "##ruit": 9206,
      "Santi": 9207,
      "##ership": 9208,
      "Story": 9209,
      "##ffield": 9210,
      "thrones": 9211,
      "##ionel": 9212,
      "kahaan": 9213,
      "printer": 9214,
      "promo": 9215,
      "##ugs": 9216,
      "monica": 9217,
      "Boxing": 9218,
      "maa": 9219,
      "checkup": 9220,
      "Franc": 9221,
      "boise": 9222,
      "boca": 9223,
      "##quite": 9224,
      "##berta": 9225,
      "##berfest": 9226,
      "artic": 9227,
      "dair": 9228,
      "Altern": 9229,
      "Alumni": 9230,
      "utah": 9231,
      "sundays": 9232,
      "Marin": 9233,
      "Marcus": 9234,
      "Marathon": 9235,
      "Marcos": 9236,
      "took": 9237,
      "whats": 9238,
      "opportunities": 9239,
      "brad": 9240,
      "##ciety": 9241,
      "ground": 9242,
      "Connie": 9243,
      "##kok": 9244,
      "walks": 9245,
      "Paradi": 9246,
      "downvote": 9247,
      "##ically": 9248,
      "##itely": 9249,
      "living": 9250,
      "baked": 9251,
      "Cocoa": 9252,
      "clearwater": 9253,
      "spend": 9254,
      "space": 9255,
      "Carter": 9256,
      "Carson": 9257,
      "wear": 9258,
      "They": 9259,
      "Tracks": 9260,
      "Dodger": 9261,
      "password": 9262,
      "visits": 9263,
      "Denise": 9264,
      "Speed": 9265,
      "Space": 9266,
      "##toberfest": 9267,
      "Miche": 9268,
      "Southlake": 9269,
      "feeding": 9270,
      "##INE": 9271,
      "Thumb": 9272,
      "Janice": 9273,
      "Symphony": 9274,
      "Sweden": 9275,
      "scout": 9276,
      "50th": 9277,
      "182": 9278,
      "35W": 9279,
      "##oughts": 9280,
      "Step": 9281,
      "Edward": 9282,
      "Eddie": 9283,
      "speeds": 9284,
      "Indie": 9285,
      "Jericho": 9286,
      "Grandpa": 9287,
      "Peru": 9288,
      "Charlottesville": 9289,
      "Carolyn": 9290,
      "Katherine": 9291,
      "Devon": 9292,
      "smith": 9293,
      "##keeps": 9294,
      "FaceBook": 9295,
      "Republic": 9296,
      "##ICK": 9297,
      "##lett": 9298,
      "Amway": 9299,
      "Amherst": 9300,
      "err": 9301,
      "Bills": 9302,
      "Billings": 9303,
      "Billboard": 9304,
      "Springsteen": 9305,
      "jump": 9306,
      "seasonal": 9307,
      "Ariana": 9308,
      "election": 9309,
      "sioux": 9310,
      "Belle": 9311,
      "Sheffield": 9312,
      "Oktoberfest": 9313,
      "##mokers": 9314,
      "Express": 9315,
      "augusta": 9316,
      "Peak": 9317,
      "Peach": 9318,
      "johnny": 9319,
      "Novi": 9320,
      "exits": 9321,
      "Albert": 9322,
      "Benny": 9323,
      "Italian": 9324,
      "Helsinki": 9325,
      "serviced": 9326,
      "museums": 9327,
      "tayaar": 9328,
      "Metro": 9329,
      "button": 9330,
      "madonna": 9331,
      "Corner": 9332,
      "Christine": 9333,
      "Christopher": 9334,
      "Fairbanks": 9335,
      "region": 9336,
      "flyers": 9337,
      "giza": 9338,
      "believe": 9339,
      "Midway": 9340,
      "Twin": 9341,
      "Adams": 9342,
      "495": 9343,
      "##rett": 9344,
      "Idol": 9345,
      "Kendall": 9346,
      "Labour": 9347,
      "listed": 9348,
      "listened": 9349,
      "paunchne": 9350,
      "View": 9351,
      "##ITY": 9352,
      "situp": 9353,
      "sitting": 9354,
      "laughing": 9355,
      "2020": 9356,
      "carolina": 9357,
      "glass": 9358,
      "philadelphia": 9359,
      "premi": 9360,
      "Warren": 9361,
      "exchange": 9362,
      "Ricky": 9363,
      "##berty": 9364,
      "Lakers": 9365,
      "locked": 9366,
      "thruway": 9367,
      "Girl": 9368,
      "laws": 9369,
      "empty": 9370,
      "First": 9371,
      "realtor": 9372,
      "build": 9373,
      "cellphone": 9374,
      "famous": 9375,
      "Greatest": 9376,
      "notifications": 9377,
      "Cancer": 9378,
      "larry": 9379,
      "stretching": 9380,
      "Friendly": 9381,
      "Shelton": 9382,
      "furnit": 9383,
      "##forming": 9384,
      "President": 9385,
      "bathrooms": 9386,
      "RAIN": 9387,
      "Ashland": 9388,
      "received": 9389,
      "departure": 9390,
      "Celtic": 9391,
      "toddler": 9392,
      "toddlers": 9393,
      "Matthews": 9394,
      "Hamptons": 9395,
      "Taipei": 9396,
      "invoices": 9397,
      "babysitting": 9398,
      "Jolin": 9399,
      "Jolla": 9400,
      "selections": 9401,
      "Bangkok": 9402,
      "circ": 9403,
      "crawls": 9404,
      "arrangements": 9405,
      "Marshall": 9406,
      "Courtney": 9407,
      "DRIVING": 9408,
      "Junction": 9409,
      "clinic": 9410,
      "Chocolate": 9411,
      "Finland": 9412,
      "Plaza": 9413,
      "catering": 9414,
      "carpet": 9415,
      "question": 9416,
      "relaxation": 9417,
      "Vicky": 9418,
      "##ingerbread": 9419,
      "plackback": 9420,
      "pedicure": 9421,
      "whether": 9422,
      "america": 9423,
      "coworkers": 9424,
      "Fenway": 9425,
      "Herman": 9426,
      "crowded": 9427,
      "Strait": 9428,
      "installation": 9429,
      "Film": 9430,
      "Oxford": 9431,
      "Southampton": 9432,
      "shirts": 9433,
      "##cktail": 9434,
[...]
