{
  "version": "1.0",
  "truncation": null,
  "padding": null,
  "added_tokens": [
    {
      "id": 0,
      "content": "[UNK]",
      "single_word": false,
      "lstrip": false,
      "rstrip": false,
      "normalized": false,
      "special": true
    },
    {
      "id": 1,
      "content": "[PAD]",
      "single_word": false,
      "lstrip": false,
      "rstrip": false,
      "normalized": false,
      "special": true
    },
    {
      "id": 2,
      "content": "[SOS]",
      "single_word": false,
      "lstrip": false,
      "rstrip": false,
      "normalized": false,
      "special": true
    },
    {
      "id": 3,
      "content": "[EOS]",
      "single_word": false,
      "lstrip": false,
      "rstrip": false,
      "normalized": false,
      "special": true
    }
  ],
  "normalizer": null,
  "pre_tokenizer": {
    "type": "Whitespace"
  },
  "post_processor": null,
  "decoder": null,
  "model": {
    "type": "WordPiece",
    "unk_token": "[UNK]",
    "continuing_subword_prefix": "##",
    "max_input_chars_per_word": 100,
    "vocab": {
      "[UNK]": 0,
      "[PAD]": 1,
      "[SOS]": 2,
      "[EOS]": 3,
      "!": 4,
      "\"": 5,
      "#": 6,
      "$": 7,
      "%": 8,
      "&": 9,
      "'": 10,
      "(": 11,
      ")": 12,
      "*": 13,
      "+": 14,
      ",": 15,
      "-": 16,
      ".": 17,
      "/": 18,
      "0": 19,
      "1": 20,
      "2": 21,
      "3": 22,
      "4": 23,
      "5": 24,
      "6": 25,
      "7": 26,
      "8": 27,
      "9": 28,
      ":": 29,
      ";": 30,
      "<": 31,
      "=": 32,
      ">": 33,
      "?": 34,
      "@": 35,
      "A": 36,
      "B": 37,
      "C": 38,
      "D": 39,
      "E": 40,
      "F": 41,
      "G": 42,
      "H": 43,
      "I": 44,
      "J": 45,
      "K": 46,
      "L": 47,
      "M": 48,
      "N": 49,
      "O": 50,
      "P": 51,
      "Q": 52,
      "R": 53,
      "S": 54,
      "T": 55,
      "U": 56,
      "V": 57,
      "W": 58,
      "X": 59,
      "Y": 60,
      "Z": 61,
      "\\": 62,
      "_": 63,
      "`": 64,
      "a": 65,
      "b": 66,
      "c": 67,
      "d": 68,
      "e": 69,
      "f": 70,
      "g": 71,
      "h": 72,
      "i": 73,
      "j": 74,
      "k": 75,
      "l": 76,
      "m": 77,
      "n": 78,
      "o": 79,
      "p": 80,
      "q": 81,
      "r": 82,
      "s": 83,
      "t": 84,
      "u": 85,
      "v": 86,
      "w": 87,
      "x": 88,
      "y": 89,
      "z": 90,
      "á": 91,
      "â": 92,
      "ã": 93,
      "ç": 94,
      "é": 95,
      "ê": 96,
      "í": 97,
      "ó": 98,
      "ú": 99,
      "ü": 100,
      "—": 101,
      "’": 102,
      "“": 103,
      "”": 104,
      "€": 105,
      "™": 106,
      "�": 107,
      "##r": 108,
      "##i": 109,
      "##g": 110,
      "##n": 111,
      "##e": 112,
      "##E": 113,
      "##A": 114,
      "##D": 115,
      "##I": 116,
      "##N": 117,
      "##G": 118,
      "##c": 119,
      "##a": 120,
      "##s": 121,
      "##o": 122,
      "##w": 123,
      "##t": 124,
      "##m": 125,
      "##R": 126,
      "##U": 127,
      "##O": 128,
      "##u": 129,
      "##h": 130,
      "##M": 131,
      "##b": 132,
      "##l": 133,
      "##f": 134,
      "##V": 135,
      "##d": 136,
      "##v": 137,
      "##y": 138,
      "##1": 139,
      "##�": 140,
      "##S": 141,
      "##p": 142,
      "##k": 143,
      "##J": 144,
      "##L": 145,
      "##q": 146,
      "##P": 147,
      "##z": 148,
      "##F": 149,
      "##X": 150,
      "##H": 151,
      "##T": 152,
      "##3": 153,
      "##x": 154,
      "##Y": 155,
      "##j": 156,
      "##5": 157,
      "##9": 158,
      "##2": 159,
      "##W": 160,
      "##0": 161,
      "##K": 162,
      "##C": 163,
      "##4": 164,
      "##B": 165,
      "##8": 166,
      "##7": 167,
      "##Q": 168,
      "##6": 169,
      "##Z": 170,
      "##he": 171,
      "to": 172,
      "##in": 173,
      "##or": 174,
      "the": 175,
      "##er": 176,
      "##at": 177,
      "##ar": 178,
      "##ay": 179,
      "##et": 180,
      "##ow": 181,
      "for": 182,
      "##es": 183,
      "##on": 184,
      "al": 185,
      "##an": 186,
      "##en": 187,
      "##ing": 188,
      "##em": 189,
      "##day": 190,
      "##arm": 191,
      "##ou": 192,
      "##hat": 193,
      "##re": 194,
      "alarm": 195,
      "##ind": 196,
      "##as": 197,
      "me": 198,
      "##is": 199,
      "##ll": 200,
      "my": 201,
      "in": 202,
      "##emind": 203,
      "##im": 204,
      "##ic": 205,
      "we": 206,
      "is": 207,
      "an": 208,
      "tim": 209,
      "on": 210,
      "##om": 211,
      "remind": 212,
      "##ke": 213,
      "ne": 214,
      "##le": 215,
      "at": 216,
      "##ve": 217,
      "##ra": 218,
      "##ff": 219,
      "th": 220,
      "##ut": 221,
      "##ill": 222,
      "What": 223,
      "reminder": 224,
      "timer": 225,
      "it": 226,
      "##ge": 227,
      "this": 228,
      "##gh": 229,
      "tra": 230,
      "be": 231,
      "##ek": 232,
      "##ur": 233,
      "week": 234,
      "##ent": 235,
      "##lay": 236,
      "##ong": 237,
      "##ed": 238,
      "##igh": 239,
      "##ffic": 240,
      "today": 241,
      "##her": 242,
      "min": 243,
      "##ake": 244,
      "fr": 245,
      "##th": 246,
      "##el": 247,
      "pm": 248,
      "##ase": 249,
      "How": 250,
      "traffic": 251,
      "minut": 252,
      "##xt": 253,
      "set": 254,
      "Set": 255,
      "##lease": 256,
      "##end": 257,
      "##ight": 258,
      "##us": 259,
      "##row": 260,
      "am": 261,
      "##mor": 262,
      "tomor": 263,
      "tomorrow": 264,
      "##ess": 265,
      "##ather": 266,
      "from": 267,
      "##ri": 268,
      "will": 269,
      "minutes": 270,
      "go": 271,
      "weather": 272,
      "ev": 273,
      "##age": 274,
      "and": 275,
      "##ea": 276,
      "##essage": 277,
      "##ec": 278,
      "##id": 279,
      "next": 280,
      "##oo": 281,
      "do": 282,
      "##un": 283,
      "##ast": 284,
      "what": 285,
      "time": 286,
      "ha": 287,
      "##ch": 288,
      "up": 289,
      "get": 290,
      "of": 291,
      "##ist": 292,
      "##it": 293,
      "there": 294,
      "##anc": 295,
      "st": 296,
      "##est": 297,
      "Is": 298,
      "##art": 299,
      "play": 300,
      "Remind": 301,
      "##ad": 302,
      "please": 303,
      "##ld": 304,
      "hou": 305,
      "##ck": 306,
      "##ion": 307,
      "you": 308,
      "##al": 309,
      "##ate": 310,
      "##ike": 311,
      "##ain": 312,
      "##il": 313,
      "##pp": 314,
      "long": 315,
      "take": 316,
      "##out": 317,
      "song": 318,
      "all": 319,
      "alarms": 320,
      "##st": 321,
      "##ot": 322,
      "that": 323,
      "##am": 324,
      "sh": 325,
      "##ome": 326,
      "message": 327,
      "how": 328,
      "##ork": 329,
      "##night": 330,
      "like": 331,
      "##ell": 332,
      "##ery": 333,
      "weekend": 334,
      "any": 335,
      "##ning": 336,
      "going": 337,
      "mor": 338,
      "##ft": 339,
      "reminders": 340,
      "tonight": 341,
      "are": 342,
      "need": 343,
      "now": 344,
      "10": 345,
      "every": 346,
      "##ant": 347,
      "##ct": 348,
      "##and": 349,
      "have": 350,
      "Ch": 351,
      "##ep": 352,
      "##hen": 353,
      "Please": 354,
      "##ir": 355,
      "##ould": 356,
      "##esday": 357,
      "##um": 358,
      "##ete": 359,
      "##ents": 360,
      "morning": 361,
      "con": 362,
      "rain": 363,
      "##usic": 364,
      "Sh": 365,
      "##elete": 366,
      "Can": 367,
      "Play": 368,
      "30": 369,
      "hour": 370,
      "##ert": 371,
      "##ancel": 372,
      "music": 373,
      "##ly": 374,
      "ch": 375,
      "##all": 376,
      "##se": 377,
      "by": 378,
      "if": 379,
      "work": 380,
      "lea": 381,
      "##ecast": 382,
      "##nt": 383,
      "dri": 384,
      "off": 385,
      "forecast": 386,
      "ab": 387,
      "##ange": 388,
      "##now": 389,
      "##emp": 390,
      "##ew": 391,
      "mon": 392,
      "leave": 393,
      "##op": 394,
      "##ure": 395,
      "her": 396,
      "new": 397,
      "Will": 398,
      "##dd": 399,
      "##oon": 400,
      "can": 401,
      "want": 402,
      "St": 403,
      "home": 404,
      "##nd": 405,
      "wi": 406,
      "##urr": 407,
      "##erat": 408,
      "about": 409,
      "##ick": 410,
      "##for": 411,
      "##emperat": 412,
      "Fri": 413,
      "day": 414,
      "##ening": 415,
      "Friday": 416,
      "##emperature": 417,
      "##eat": 418,
      "out": 419,
      "events": 420,
      "with": 421,
      "##reate": 422,
      "##atur": 423,
      "##os": 424,
      "##aturday": 425,
      "##ort": 426,
      "##ive": 427,
      "mu": 428,
      "month": 429,
      "##any": 430,
      "##ext": 431,
      "Message": 432,
      "much": 433,
      "##ation": 434,
      "drive": 435,
      "meet": 436,
      "##ook": 437,
      "Delete": 438,
      "Are": 439,
      "Th": 440,
      "##uesday": 441,
      "cl": 442,
      "##ack": 443,
      "Mon": 444,
      "##int": 445,
      "ar": 446,
      "tell": 447,
      "##cert": 448,
      "An": 449,
      "many": 450,
      "##ide": 451,
      "temperature": 452,
      "##ver": 453,
      "##eg": 454,
      "##fter": 455,
      "app": 456,
      "##urrent": 457,
      "##urn": 458,
      "##ove": 459,
      "Show": 460,
      "##ment": 461,
      "after": 462,
      "house": 463,
      "when": 464,
      "Tell": 465,
      "##ol": 466,
      "le": 467,
      "New": 468,
      "show": 469,
      "ro": 470,
      "rep": 471,
      "Saturday": 472,
      "##ce": 473,
      "Monday": 474,
      "current": 475,
      "start": 476,
      "##ag": 477,
      "##ance": 478,
      "##ear": 479,
      "##sk": 480,
      "right": 481,
      "##land": 482,
      "15": 483,
      "##own": 484,
      "part": 485,
      "some": 486,
      "##ia": 487,
      "Cancel": 488,
      "##oint": 489,
      "rout": 490,
      "near": 491,
      "co": 492,
      "last": 493,
      "When": 494,
      "Tuesday": 495,
      "Send": 496,
      "##fore": 497,
      "before": 498,
      "appoint": 499,
      "##een": 500,
      "##unday": 501,
      "concert": 502,
      "20": 503,
      "way": 504,
      "##ond": 505,
      "left": 506,
      "make": 507,
      "route": 508,
      "##ry": 509,
      "##urs": 510,
      "##ction": 511,
      "happ": 512,
      "00": 513,
      "##ze": 514,
      "Create": 515,
      "snow": 516,
      "com": 517,
      "##oc": 518,
      "appointment": 519,
      "##ust": 520,
      "##ursday": 521,
      "##ip": 522,
      "##use": 523,
      "##ber": 524,
      "gr": 525,
      "send": 526,
      "text": 527,
      "##noo": 528,
      "##nesday": 529,
      "should": 530,
      "Do": 531,
      "cancel": 532,
      "list": 533,
      "##ity": 534,
      "##ail": 535,
      "##nooze": 536,
      "##ound": 537,
      "##ie": 538,
      "night": 539,
      "##ving": 540,
      "bet": 541,
      "##ies": 542,
      "##inn": 543,
      "pick": 544,
      "Change": 545,
      "meeting": 546,
      "br": 547,
      "##ause": 548,
      "happening": 549,
      "Sunday": 550,
      "change": 551,
      "##rist": 552,
      "ex": 553,
      "ask": 554,
      "delete": 555,
      "does": 556,
      "##ween": 557,
      "##ter": 558,
      "between": 559,
      "hours": 560,
      "Thursday": 561,
      "know": 562,
      "road": 563,
      "Wed": 564,
      "##ey": 565,
      "hea": 566,
      "hot": 567,
      "party": 568,
      "Wednesday": 569,
      "##ap": 570,
      "##ool": 571,
      "##mas": 572,
      "##ree": 573,
      "##noon": 574,
      "or": 575,
      "##ee": 576,
      "##ect": 577,
      "afternoon": 578,
      "##ristmas": 579,
      "here": 580,
      "Any": 581,
      "##if": 582,
      "add": 583,
      "##inner": 584,
      "##ass": 585,
      "Add": 586,
      "sun": 587,
      "##ount": 588,
      "minute": 589,
      "dinner": 590,
      "##list": 591,
      "##ru": 592,
      "##here": 593,
      "car": 594,
      "##ood": 595,
      "##way": 596,
      "##ark": 597,
      "playlist": 598,
      "Make": 599,
      "##ine": 600,
      "one": 601,
      "##ame": 602,
      "bu": 603,
      "##ings": 604,
      "##ac": 605,
      "##ead": 606,
      "Al": 607,
      "heav": 608,
      "##ro": 609,
      "songs": 610,
      "mil": 611,
      "##irth": 612,
      "##cc": 613,
      "track": 614,
      "mo": 615,
      "##emove": 616,
      "##ak": 617,
      "##io": 618,
      "##ah": 619,
      "fri": 620,
      "su": 621,
      "##ater": 622,
      "##iv": 623,
      "##irthday": 624,
      "##ul": 625,
      "##che": 626,
      "high": 627,
      "##ary": 628,
      "York": 629,
      "noon": 630,
      "tw": 631,
      "##kip": 632,
      "##bum": 633,
      "Christmas": 634,
      "wake": 635,
      "##ash": 636,
      "heavy": 637,
      "acc": 638,
      "##date": 639,
      "repeat": 640,
      "##ire": 641,
      "fl": 642,
      "album": 643,
      "PM": 644,
      "##istance": 645,
      "rec": 646,
      "Sp": 647,
      "buy": 648,
      "cold": 649,
      "##ers": 650,
      "birthday": 651,
      "look": 652,
      "mom": 653,
      "##ify": 654,
      "Jo": 655,
      "11": 656,
      "exp": 657,
      "turn": 658,
      "bring": 659,
      "##ston": 660,
      "stop": 661,
      "evening": 662,
      "sec": 663,
      "##ember": 664,
      "him": 665,
      "##ab": 666,
      "##side": 667,
      "12": 668,
      "distance": 669,
      "second": 670,
      "alert": 671,
      "##oup": 672,
      "##chool": 673,
      "concerts": 674,
      "res": 675,
      "cle": 676,
      "around": 677,
      "he": 678,
      "##ard": 679,
      "##ctor": 680,
      "de": 681,
      "two": 682,
      "listen": 683,
      "accid": 684,
      "##ue": 685,
      "San": 686,
      "##od": 687,
      "sp": 688,
      "more": 689,
      "Rep": 690,
      "re": 691,
      "she": 692,
      "Should": 693,
      "see": 694,
      "##ownt": 695,
      "##owntown": 696,
      "deg": 697,
      "Turn": 698,
      "##stru": 699,
      "Give": 700,
      "chat": 701,
      "##struction": 702,
      "school": 703,
      "game": 704,
      "snooze": 705,
      "expect": 706,
      "##other": 707,
      "miles": 708,
      "construction": 709,
      "##ich": 710,
      "##ton": 711,
      "ag": 712,
      "##ach": 713,
      "##les": 714,
      "downtown": 715,
      "pl": 716,
      "doctor": 717,
      "##ideo": 718,
      "arri": 719,
      "##dit": 720,
      "##ice": 721,
      "av": 722,
      "##tle": 723,
      "##ille": 724,
      "driving": 725,
      "##orm": 726,
      "Start": 727,
      "group": 728,
      "##ville": 729,
      "call": 730,
      "##ug": 731,
      "would": 732,
      "##anta": 733,
      "count": 734,
      "back": 735,
      "che": 736,
      "far": 737,
      "##du": 738,
      "If": 739,
      "video": 740,
      "outside": 741,
      "##ace": 742,
      "don": 743,
      "again": 744,
      "create": 745,
      "##ago": 746,
      "##lla": 747,
      "let": 748,
      "class": 749,
      "coming": 750,
      "##icago": 751,
      "delay": 752,
      "##our": 753,
      "##mb": 754,
      "Res": 755,
      "AM": 756,
      "run": 757,
      "##ume": 758,
      "##unch": 759,
      "hear": 760,
      "##rella": 761,
      "say": 762,
      "umb": 763,
      "umbrella": 764,
      "has": 765,
      "##lor": 766,
      "year": 767,
      "Snooze": 768,
      "##ius": 769,
      "supp": 770,
      "45": 771,
      "##ny": 772,
      "Bo": 773,
      "##ions": 774,
      "##otify": 775,
      "days": 776,
      "Stop": 777,
      "seconds": 778,
      "loc": 779,
      "dog": 780,
      "Pause": 781,
      "Remove": 782,
      "##ank": 783,
      "Get": 784,
      "##qu": 785,
      "##ise": 786,
      "##dule": 787,
      "##chedule": 788,
      "##ub": 789,
      "##hn": 790,
      "##osed": 791,
      "##av": 792,
      "roads": 793,
      "##ho": 794,
      "##oid": 795,
      "City": 796,
      "Fr": 797,
      "##ival": 798,
      "We": 799,
      "not": 800,
      "##co": 801,
      "##reet": 802,
      "weekly": 803,
      "##aily": 804,
      "light": 805,
      "Text": 806,
      "check": 807,
      "Dis": 808,
      "##ock": 809,
      "##ora": 810,
      "##der": 811,
      "kid": 812,
      "daily": 813,
      "over": 814,
      "pay": 815,
      "timers": 816,
      "##thing": 817,
      "arrive": 818,
      "##ans": 819,
      "##up": 820,
      "avoid": 821,
      "##estival": 822,
      "Let": 823,
      "fast": 824,
      "rea": 825,
      "##iam": 826,
      "##irection": 827,
      "wear": 828,
      "##ugust": 829,
      "##ix": 830,
      "##port": 831,
      "##eattle": 832,
      "Where": 833,
      "us": 834,
      "##amp": 835,
      "mess": 836,
      "Or": 837,
      "##ane": 838,
      "##ig": 839,
      "best": 840,
      "pause": 841,
      "##ex": 842,
      "##atest": 843,
      "At": 844,
      "jack": 845,
      "Chicago": 846,
      "##ages": 847,
      "##andora": 848,
      "unt": 849,
      "until": 850,
      "##ting": 851,
      "down": 852,
      "event": 853,
      "##ib": 854,
      "##au": 855,
      "Con": 856,
      "Skip": 857,
      "update": 858,
      "##ily": 859,
      "station": 860,
      "give": 861,
      "##ren": 862,
      "##els": 863,
      "##ney": 864,
      "##une": 865,
      "##ough": 866,
      "accidents": 867,
      "Tra": 868,
      "##dic": 869,
      "John": 870,
      "condit": 871,
      "##irections": 872,
      "bad": 873,
      "##low": 874,
      "##alk": 875,
      "Mar": 876,
      "The": 877,
      "area": 878,
      "lunch": 879,
      "##ord": 880,
      "so": 881,
      "report": 882,
      "messages": 883,
      "weeks": 884,
      "jacket": 885,
      "friday": 886,
      "rest": 887,
      "##iami": 888,
      "August": 889,
      "Whats": 890,
      "##ift": 891,
      "##rees": 892,
      "##ute": 893,
      "whats": 894,
      "##ann": 895,
      "friend": 896,
      "##irst": 897,
      "was": 898,
      "##eed": 899,
      "kids": 900,
      "##zz": 901,
      "where": 902,
      "latest": 903,
      "##rip": 904,
      "##lando": 905,
      "late": 906,
      "##play": 907,
      "mov": 908,
      "##ore": 909,
      "find": 910,
      "comm": 911,
      "degrees": 912,
      "Ask": 913,
      "fun": 914,
      "parties": 915,
      "Weather": 916,
      "##uff": 917,
      "##lanta": 918,
      "Seattle": 919,
      "his": 920,
      "##og": 921,
      "##umb": 922,
      "supposed": 923,
      "first": 924,
      "##HE": 925,
      "##geles": 926,
      "##amily": 927,
      "op": 928,
      "##ts": 929,
      "delays": 930,
      "##one": 931,
      "festival": 932,
      "inter": 933,
      "qu": 934,
      "##to": 935,
      "##ime": 936,
      "did": 937,
      "wind": 938,
      "##ish": 939,
      "Br": 940,
      "pr": 941,
      "##ud": 942,
      "Up": 943,
      "##arl": 944,
      "##ida": 945,
      "sw": 946,
      "##ob": 947,
      "dent": 948,
      "##atch": 949,
      "storm": 950,
      "asking": 951,
      "##ale": 952,
      "air": 953,
      "tr": 954,
      "June": 955,
      "schedule": 956,
      "##ven": 957,
      "##elsius": 958,
      "skip": 959,
      "monday": 960,
      "##aw": 961,
      "TO": 962,
      "##iss": 963,
      "##oli": 964,
      "country": 965,
      "playing": 966,
      "##isco": 967,
      "##ile": 968,
      "##son": 969,
      "clear": 970,
      "Repeat": 971,
      "conditions": 972,
      "##oliday": 973,
      "bus": 974,
      "our": 975,
      "mid": 976,
      "##read": 977,
      "goes": 978,
      "##outh": 979,
      "##te": 980,
      "##ball": 981,
      "Find": 982,
      "warm": 983,
      "Spotify": 984,
      "Temperature": 985,
      "dad": 986,
      "pre": 987,
      "dr": 988,
      "det": 989,
      "directions": 990,
      "good": 991,
      "##IN": 992,
      "commute": 993,
      "##ington": 994,
      "raining": 995,
      "##egas": 996,
      "inst": 997,
      "May": 998,
      "Miami": 999,
      "##ustin": 1000,
      "##ink": 1001,
      "expected": 1002,
      "read": 1003,
      "##allas": 1004,
      "Wh": 1005,
      "clean": 1006,
      "remove": 1007,
      "##ave": 1008,
      "Traffic": 1009,
      "25": 1010,
      "##lf": 1011,
      "##ept": 1012,
      "sunny": 1013,
      "low": 1014,
      "Update": 1015,
      "Los": 1016,
      "##ets": 1017,
      "Atlanta": 1018,
      "Ev": 1019,
      "##iver": 1020,
      "hit": 1021,
      "highway": 1022,
      "##ian": 1023,
      "##vel": 1024,
      "looking": 1025,
      "dentist": 1026,
      "##ancisco": 1027,
      "##orth": 1028,
      "##ondon": 1029,
      "tuesday": 1030,
      "bo": 1031,
      "beach": 1032,
      "Angeles": 1033,
      "Orlando": 1034,
      "Port": 1035,
      "food": 1036,
      "90": 1037,
      "NY": 1038,
      "THE": 1039,
      "saturday": 1040,
      "running": 1041,
      "rock": 1042,
      "Alarm": 1043,
      "later": 1044,
      "bl": 1045,
      "location": 1046,
      "walk": 1047,
      "Am": 1048,
      "Pandora": 1049,
      "cook": 1050,
      "city": 1051,
      "##OR": 1052,
      "##uly": 1053,
      "##vi": 1054,
      "instead": 1055,
      "wh": 1056,
      "40": 1057,
      "groc": 1058,
      "family": 1059,
      "##opp": 1060,
      "bill": 1061,
      "##gin": 1062,
      "##heit": 1063,
      "##elp": 1064,
      "as": 1065,
      "##aking": 1066,
      "##eway": 1067,
      "##eth": 1068,
      "LA": 1069,
      "##ahren": 1070,
      "requ": 1071,
      "##ahrenheit": 1072,
      "##ister": 1073,
      "hum": 1074,
      "par": 1075,
      "another": 1076,
      "five": 1077,
      "called": 1078,
      "Flor": 1079,
      "put": 1080,
      "##ai": 1081,
      "dis": 1082,
      "##ush": 1083,
      "street": 1084,
      "Concert": 1085,
      "water": 1086,
      "airport": 1087,
      "London": 1088,
      "fre": 1089,
      "##form": 1090,
      "Things": 1091,
      "workout": 1092,
      "##ests": 1093,
      "humid": 1094,
      "things": 1095,
      "ph": 1096,
      "ten": 1097,
      "##rid": 1098,
      "Florida": 1099,
      "##ina": 1100,
      "Hou": 1101,
      "##ER": 1102,
      "dur": 1103,
      "ll": 1104,
      "##ract": 1105,
      "pro": 1106,
      "##ous": 1107,
      "degree": 1108,
      "Boston": 1109,
      "longer": 1110,
      "freeway": 1111,
      "sound": 1112,
      "end": 1113,
      "##oll": 1114,
      "medic": 1115,
      "date": 1116,
      "##ose": 1117,
      "Dallas": 1118,
      "trip": 1119,
      "movie": 1120,
      "Vegas": 1121,
      "offic": 1122,
      "Celsius": 1123,
      "July": 1124,
      "##ite": 1125,
      "##ali": 1126,
      "book": 1127,
      "Resume": 1128,
      "##na": 1129,
      "free": 1130,
      "still": 1131,
      "##ado": 1132,
      "tow": 1133,
      "##eptember": 1134,
      "office": 1135,
      "Jack": 1136,
      "Park": 1137,
      "sister": 1138,
      "Could": 1139,
      "##ica": 1140,
      "##ecember": 1141,
      "##ade": 1142,
      "open": 1143,
      "Francisco": 1144,
      "thr": 1145,
      "##ates": 1146,
      "la": 1147,
      "##ampa": 1148,
      "##reen": 1149,
      "##rad": 1150,
      "Portland": 1151,
      "rad": 1152,
      "se": 1153,
      "##air": 1154,
      "##oming": 1155,
      "anything": 1156,
      "three": 1157,
      "short": 1158,
      "Ph": 1159,
      "during": 1160,
      "##ibr": 1161,
      "accident": 1162,
      "##ated": 1163,
      "##ical": 1164,
      "chats": 1165,
      "shows": 1166,
      "##uffle": 1167,
      "park": 1168,
      "Events": 1169,
      "Houston": 1170,
      "Bea": 1171,
      "Wake": 1172,
      "temp": 1173,
      "due": 1174,
      "##ked": 1175,
      "requests": 1176,
      "Concerts": 1177,
      "through": 1178,
      "Mom": 1179,
      "##ne": 1180,
      "##ence": 1181,
      "half": 1182,
      "##opping": 1183,
      "holiday": 1184,
      "fastest": 1185,
      "per": 1186,
      "record": 1187,
      "##alifor": 1188,
      "act": 1189,
      "rem": 1190,
      "##bur": 1191,
      "##aliforn": 1192,
      "Gr": 1193,
      "em": 1194,
      "times": 1195,
      "##urring": 1196,
      "Car": 1197,
      "##ax": 1198,
      "##alifornia": 1199,
      "pop": 1200,
      "tick": 1201,
      "##ester": 1202,
      "sunday": 1203,
      "been": 1204,
      "chance": 1205,
      "September": 1206,
      "##ally": 1207,
      "##are": 1208,
      "##AT": 1209,
      "##ull": 1210,
      "travel": 1211,
      "weekday": 1212,
      "Sw": 1213,
      "##sh": 1214,
      "than": 1215,
      "In": 1216,
      "##ost": 1217,
      "##ath": 1218,
      "##ego": 1219,
      "them": 1220,
      "vis": 1221,
      "##urch": 1222,
      "##avor": 1223,
      "top": 1224,
      "shopping": 1225,
      "##ov": 1226,
      "train": 1227,
      "201": 1228,
      "rid": 1229,
      "war": 1230,
      "trash": 1231,
      "sle": 1232,
      "bed": 1233,
      "Par": 1234,
      "##ES": 1235,
      "only": 1236,
      "December": 1237,
      "##iego": 1238,
      "flood": 1239,
      "ad": 1240,
      "saying": 1241,
      "##aul": 1242,
      "##ral": 1243,
      "##ibrary": 1244,
      "visit": 1245,
      "Put": 1246,
      "hair": 1247,
      "Las": 1248,
      "Tim": 1249,
      "grocery": 1250,
      "art": 1251,
      "80": 1252,
      "favor": 1253,
      "##coming": 1254,
      "##enix": 1255,
      "##hoenix": 1256,
      "friendly": 1257,
      "##azz": 1258,
      "##by": 1259,
      "clos": 1260,
      "##exas": 1261,
      "##ym": 1262,
      "bre": 1263,
      "thursday": 1264,
      "Beach": 1265,
      "Display": 1266,
      "##aylor": 1267,
      "##enver": 1268,
      "radio": 1269,
      "library": 1270,
      "detour": 1271,
      "##get": 1272,
      "coat": 1273,
      "order": 1274,
      "##oud": 1275,
      "##ashington": 1276,
      "##LA": 1277,
      "watch": 1278,
      "they": 1279,
      "##ches": 1280,
      "Day": 1281,
      "pract": 1282,
      "recurring": 1283,
      "resume": 1284,
      "midnight": 1285,
      "flight": 1286,
      "warning": 1287,
      "mail": 1288,
      "clock": 1289,
      "quick": 1290,
      "tickets": 1291,
      "Cl": 1292,
      "Music": 1293,
      "come": 1294,
      "below": 1295,
      "som": 1296,
      "wed": 1297,
      "##oss": 1298,
      "begin": 1299,
      "most": 1300,
      "##ok": 1301,
      "restart": 1302,
      "Col": 1303,
      "Cle": 1304,
      "##enter": 1305,
      "cont": 1306,
      "practice": 1307,
      "Reset": 1308,
      "California": 1309,
      "Fahrenheit": 1310,
      "ear": 1311,
      "##oot": 1312,
      "Which": 1313,
      "##ivers": 1314,
      "fin": 1315,
      "town": 1316,
      "##ger": 1317,
      "Tampa": 1318,
      "grand": 1319,
      "Ad": 1320,
      "Jan": 1321,
      "festivals": 1322,
      "##esterday": 1323,
      "york": 1324,
      "##nivers": 1325,
      "brother": 1326,
      "suns": 1327,
      "using": 1328,
      "Diego": 1329,
      "##ask": 1330,
      "mins": 1331,
      "##ild": 1332,
      "##work": 1333,
      "reset": 1334,
      "place": 1335,
      "rush": 1336,
      "##als": 1337,
      "no": 1338,
      "rap": 1339,
      "everyday": 1340,
      "##tern": 1341,
      "##ething": 1342,
      "yesterday": 1343,
      "##urric": 1344,
      "comp": 1345,
      "##augh": 1346,
      "Did": 1347,
      "##able": 1348,
      "##gg": 1349,
      "##uck": 1350,
      "starts": 1351,
      "Phil": 1352,
      "upcoming": 1353,
      "christmas": 1354,
      "pres": 1355,
      "feed": 1356,
      "##iel": 1357,
      "##alm": 1358,
      "above": 1359,
      "each": 1360,
      "tea": 1361,
      "##mer": 1362,
      "##verage": 1363,
      "card": 1364,
      "milk": 1365,
      "slow": 1366,
      "##eor": 1367,
      "1st": 1368,
      "Bl": 1369,
      "Charl": 1370,
      "reach": 1371,
      "wednesday": 1372,
      "##ason": 1373,
      "humidity": 1374,
      "##old": 1375,
      "something": 1376,
      "##ET": 1377,
      "Anything": 1378,
      "sub": 1379,
      "Washington": 1380,
      "into": 1381,
      "sleep": 1382,
      "##ier": 1383,
      "needs": 1384,
      "cat": 1385,
      "monthly": 1386,
      "club": 1387,
      "##aby": 1388,
      "Rest": 1389,
      "##cy": 1390,
      "##ures": 1391,
      "Ar": 1392,
      "gym": 1393,
      "##ty": 1394,
      "thank": 1395,
      "sc": 1396,
      "hits": 1397,
      "##und": 1398,
      "##inter": 1399,
      "cong": 1400,
      "break": 1401,
      "Texas": 1402,
      "jam": 1403,
      "mall": 1404,
      "##ther": 1405,
      "##bor": 1406,
      "getting": 1407,
      "Street": 1408,
      "##ridge": 1409,
      "##ris": 1410,
      "att": 1411,
      "Denver": 1412,
      "East": 1413,
      "Pet": 1414,
      "##oad": 1415,
      "##umbs": 1416,
      "My": 1417,
      "early": 1418,
      "60": 1419,
      "South": 1420,
      "##eb": 1421,
      "##cl": 1422,
      "##OW": 1423,
      "##itch": 1424,
      "Disney": 1425,
      "Read": 1426,
      "average": 1427,
      "hurric": 1428,
      "##rd": 1429,
      "windy": 1430,
      "##ara": 1431,
      "##ummer": 1432,
      "##heart": 1433,
      "##cto": 1434,
      "Restart": 1435,
      "lot": 1436,
      "wor": 1437,
      "##ona": 1438,
      "cloud": 1439,
      "For": 1440,
      "iheart": 1441,
      "pack": 1442,
      "##ress": 1443,
      "tor": 1444,
      "##radio": 1445,
      "##ctober": 1446,
      "iheartradio": 1447,
      "Phoenix": 1448,
      "Santa": 1449,
      "email": 1450,
      "Paris": 1451,
      "soon": 1452,
      "##ng": 1453,
      "##hia": 1454,
      "##yd": 1455,
      "##ont": 1456,
      "wants": 1457,
      "repeating": 1458,
      "Tom": 1459,
      "##ens": 1460,
      "##enn": 1461,
      "jazz": 1462,
      "##unt": 1463,
      "store": 1464,
      "##occ": 1465,
      "Mondays": 1466,
      "wine": 1467,
      "##wood": 1468,
      "##ma": 1469,
      "##ouis": 1470,
      "##under": 1471,
      "faster": 1472,
      "attend": 1473,
      "gas": 1474,
      "##rise": 1475,
      "##ik": 1476,
      "##cius": 1477,
      "Spr": 1478,
      "##ffee": 1479,
      "##elcius": 1480,
      "texts": 1481,
      "Sc": 1482,
      "##elphia": 1483,
      "North": 1484,
      "oven": 1485,
      "##adelphia": 1486,
      "##ations": 1487,
      "months": 1488,
      "50": 1489,
      "95": 1490,
      "El": 1491,
      "List": 1492,
      "away": 1493,
      "##app": 1494,
      "##ster": 1495,
      "FOR": 1496,
      "Mod": 1497,
      "Taylor": 1498,
      "starting": 1499,
      "##roit": 1500,
      "NYC": 1501,
      "West": 1502,
      "cake": 1503,
      "other": 1504,
      "reg": 1505,
      "altern": 1506,
      "Jackson": 1507,
      "ret": 1508,
      "##ev": 1509,
      "##ham": 1510,
      "inches": 1511,
      "##ict": 1512,
      "thunder": 1513,
      "##dding": 1514,
      "##undry": 1515,
      "congest": 1516,
      "Dad": 1517,
      "baby": 1518,
      "##ium": 1519,
      "##nado": 1520,
      "got": 1521,
      "coffee": 1522,
      "5th": 1523,
      "Time": 1524,
      "love": 1525,
      "pandora": 1526,
      "##ities": 1527,
      "reply": 1528,
      "Go": 1529,
      "south": 1530,
      "laundry": 1531,
      "Austin": 1532,
      "cool": 1533,
      "leaving": 1534,
      "Philadelphia": 1535,
      "##ield": 1536,
      "Che": 1537,
      "October": 1538,
      "##ele": 1539,
      "face": 1540,
      "jo": 1541,
      "un": 1542,
      "##ON": 1543,
      "Move": 1544,
      "taking": 1545,
      "##band": 1546,
      "##down": 1547,
      "wedding": 1548,
      "##usband": 1549,
      "tornado": 1550,
      "IS": 1551,
      "Man": 1552,
      "##lin": 1553,
      "##30": 1554,
      "##onna": 1555,
      "15th": 1556,
      "doctors": 1557,
      "18": 1558,
      "Year": 1559,
      "husband": 1560,
      "##time": 1561,
      "##alt": 1562,
      "wakeup": 1563,
      "##view": 1564,
      "19": 1565,
      "just": 1566,
      "sent": 1567,
      "##IM": 1568,
      "local": 1569,
      "phone": 1570,
      "Geor": 1571,
      "Would": 1572,
      "##yp": 1573,
      "##state": 1574,
      "##sey": 1575,
      "head": 1576,
      "spotify": 1577,
      "Replay": 1578,
      "san": 1579,
      "##storm": 1580,
      "##ial": 1581,
      "##erm": 1582,
      "##ons": 1583,
      "without": 1584,
      "##uary": 1585,
      "##ley": 1586,
      "church": 1587,
      "display": 1588,
      "activ": 1589,
      "dry": 1590,
      "##ana": 1591,
      "doing": 1592,
      "your": 1593,
      "Tuesdays": 1594,
      "Reply": 1595,
      "4th": 1596,
      "Mad": 1597,
      "less": 1598,
      "miss": 1599,
      "##ins": 1600,
      "replay": 1601,
      "vet": 1602,
      "##ants": 1603,
      "35": 1604,
      "cre": 1605,
      "dance": 1606,
      "ice": 1607,
      "##AN": 1608,
      "hurricane": 1609,
      "##AY": 1610,
      "inform": 1611,
      "cleaning": 1612,
      "Louis": 1613,
      "boo": 1614,
      "summer": 1615,
      "##udy": 1616,
      "And": 1617,
      "Bill": 1618,
      "Ind": 1619,
      "Paul": 1620,
      "egg": 1621,
      "##olis": 1622,
      "changed": 1623,
      "Modify": 1624,
      "Jam": 1625,
      "##izz": 1626,
      "##erv": 1627,
      "17": 1628,
      "Qu": 1629,
      "sk": 1630,
      "winter": 1631,
      "##ming": 1632,
      "toll": 1633,
      "##ital": 1634,
      "alerts": 1635,
      "Peter": 1636,
      "DC": 1637,
      "ind": 1638,
      "##occer": 1639,
      "Det": 1640,
      "live": 1641,
      "tast": 1642,
      "##fe": 1643,
      "least": 1644,
      "medicine": 1645,
      "detours": 1646,
      "fall": 1647,
      "move": 1648,
      "##tion": 1649,
      "##ating": 1650,
      "scheduled": 1651,
      "artist": 1652,
      "Jer": 1653,
      "##IC": 1654,
      "shuffle": 1655,
      "##aper": 1656,
      "##anna": 1657,
      "Aust": 1658,
      "Mary": 1659,
      "##HAT": 1660,
      "sunset": 1661,
      "kind": 1662,
      "##ox": 1663,
      "##veland": 1664,
      "shorts": 1665,
      "cloudy": 1666,
      "Ed": 1667,
      "Main": 1668,
      "bike": 1669,
      "Bob": 1670,
      "remain": 1671,
      "Be": 1672,
      "Sam": 1673,
      "TIM": 1674,
      "gift": 1675,
      "mar": 1676,
      "##rack": 1677,
      "##ances": 1678,
      "flow": 1679,
      "Detroit": 1680,
      "It": 1681,
      "##lex": 1682,
      "done": 1683,
      "2018": 1684,
      "##iest": 1685,
      "##book": 1686,
      "##pond": 1687,
      "##ico": 1688,
      "##ootball": 1689,
      "##ydney": 1690,
      "21": 1691,
      "Ant": 1692,
      "Mich": 1693,
      "##act": 1694,
      "able": 1695,
      "Alert": 1696,
      "favorite": 1697,
      "January": 1698,
      "oil": 1699,
      "pass": 1700,
      "theater": 1701,
      "bac": 1702,
      "en": 1703,
      "son": 1704,
      "Fridays": 1705,
      "##ralia": 1706,
      "16": 1707,
      "##head": 1708,
      "14": 1709,
      "Lake": 1710,
      "hop": 1711,
      "ring": 1712,
      "##hes": 1713,
      "inv": 1714,
      "##kee": 1715,
      "##ram": 1716,
      "quickest": 1717,
      "thunderstorm": 1718,
      "gre": 1719,
      "who": 1720,
      "##LL": 1721,
      "classical": 1722,
      "Mel": 1723,
      "their": 1724,
      "Grand": 1725,
      "soccer": 1726,
      "##cle": 1727,
      "##ph": 1728,
      "##once": 1729,
      "##ang": 1730,
      "which": 1731,
      "##aughter": 1732,
      "##OU": 1733,
      "stat": 1734,
      "##alo": 1735,
      "nearest": 1736,
      "movies": 1737,
      "Sar": 1738,
      "mark": 1739,
      "##rite": 1740,
      "##otte": 1741,
      "currently": 1742,
      "speed": 1743,
      "##iz": 1744,
      "##aur": 1745,
      "##enger": 1746,
      "##ump": 1747,
      "predic": 1748,
      "Swift": 1749,
      "##ena": 1750,
      "##ING": 1751,
      "Australia": 1752,
      "but": 1753,
      "ext": 1754,
      "happy": 1755,
      "snowing": 1756,
      "parade": 1757,
      "Alex": 1758,
      "Justin": 1759,
      "Rock": 1760,
      "job": 1761,
      "##ith": 1762,
      "##sw": 1763,
      "closed": 1764,
      "Does": 1765,
      "##vious": 1766,
      "Dan": 1767,
      "Op": 1768,
      "band": 1769,
      "football": 1770,
      "##ada": 1771,
      "thread": 1772,
      "Shuffle": 1773,
      "24": 1774,
      "Center": 1775,
      "daughter": 1776,
      "##hio": 1777,
      "##ys": 1778,
      "friends": 1779,
      "previous": 1780,
      "Mess": 1781,
      "rel": 1782,
      "Cleveland": 1783,
      "boots": 1784,
      "High": 1785,
      "Mark": 1786,
      "RE": 1787,
      "To": 1788,
      "3rd": 1789,
      "Have": 1790,
      "Sydney": 1791,
      "yet": 1792,
      "##inc": 1793,
      "##arb": 1794,
      "##adium": 1795,
      "cooking": 1796,
      "Eve": 1797,
      "Per": 1798,
      "##niversary": 1799,
      "team": 1800,
      "##fer": 1801,
      "##vis": 1802,
      "##val": 1803,
      "##ones": 1804,
      "thir": 1805,
      "##ansas": 1806,
      "Who": 1807,
      "met": 1808,
      "##osp": 1809,
      "AN": 1810,
      "Count": 1811,
      "Lu": 1812,
      "sa": 1813,
      "vac": 1814,
      "##RE": 1815,
      "##ril": 1816,
      "sweat": 1817,
      "##App": 1818,
      "##ines": 1819,
      "##erc": 1820,
      "##ony": 1821,
      "##mento": 1822,
      "ready": 1823,
      "status": 1824,
      "Holiday": 1825,
      "##eve": 1826,
      "##aus": 1827,
      "##oice": 1828,
      "##ues": 1829,
      "##ory": 1830,
      "then": 1831,
      "shower": 1832,
      "##burg": 1833,
      "Easter": 1834,
      "75": 1835,
      "Er": 1836,
      "##TA": 1837,
      "##ramento": 1838,
      "chicago": 1839,
      "newest": 1840,
      "##nder": 1841,
      "##akes": 1842,
      "March": 1843,
      "13": 1844,
      "Don": 1845,
      "canc": 1846,
      "fe": 1847,
      "##iff": 1848,
      "sunrise": 1849,
      "flooding": 1850,
      "eggs": 1851,
      "##ST": 1852,
      "##oma": 1853,
      "##acramento": 1854,
      "activities": 1855,
      "23": 1856,
      "Take": 1857,
      "north": 1858,
      "##mit": 1859,
      "##pril": 1860,
      "##ject": 1861,
      "##led": 1862,
      "bec": 1863,
      "##oop": 1864,
      "upd": 1865,
      "study": 1866,
      "##oute": 1867,
      "reaction": 1868,
      "return": 1869,
      "remaining": 1870,
      "backed": 1871,
      "hip": 1872,
      "##ait": 1873,
      "##lo": 1874,
      "##ails": 1875,
      "##ashville": 1876,
      "weekdays": 1877,
      "Festival": 1878,
      "Un": 1879,
      "WHAT": 1880,
      "sm": 1881,
      "##tan": 1882,
      "##ars": 1883,
      "anniversary": 1884,
      "shut": 1885,
      "WhatsApp": 1886,
      "Bri": 1887,
      "ahead": 1888,
      "forget": 1889,
      "##edy": 1890,
      "weekends": 1891,
      "nearby": 1892,
      "20th": 1893,
      "perform": 1894,
      "##orado": 1895,
      "##estin": 1896,
      "28": 1897,
      "Eng": 1898,
      "Minn": 1899,
      "Tor": 1900,
      "bread": 1901,
      "mother": 1902,
      "##crip": 1903,
      "##fall": 1904,
      "countdown": 1905,
      "FL": 1906,
      "wash": 1907,
      "##onto": 1908,
      "##reg": 1909,
      "hail": 1910,
      "##arden": 1911,
      "spr": 1912,
      "because": 1913,
      "ey": 1914,
      "##pm": 1915,
      "mod": 1916,
      "react": 1917,
      "Sarah": 1918,
      "Haw": 1919,
      "Pro": 1920,
      "You": 1921,
      "##iet": 1922,
      "##RM": 1923,
      "recent": 1924,
      "Face": 1925,
      "MY": 1926,
      "paper": 1927,
      "ride": 1928,
      "##oga": 1929,
      "##ospital": 1930,
      "70": 1931,
      "Com": 1932,
      "Hey": 1933,
      "icy": 1934,
      "tax": 1935,
      "Island": 1936,
      "Chris": 1937,
      "interstate": 1938,
      "##ovember": 1939,
      "Charlotte": 1940,
      "Messenger": 1941,
      "Rob": 1942,
      "fair": 1943,
      "main": 1944,
      "via": 1945,
      "##key": 1946,
      "homework": 1947,
      "lights": 1948,
      "##aii": 1949,
      "##izza": 1950,
      "Open": 1951,
      "ALA": 1952,
      "On": 1953,
      "Road": 1954,
      "heat": 1955,
      "had": 1956,
      "10th": 1957,
      "wife": 1958,
      "tracks": 1959,
      "France": 1960,
      "usu": 1961,
      "Forecast": 1962,
      "Jim": 1963,
      "She": 1964,
      "ent": 1965,
      "gir": 1966,
      "ok": 1967,
      "##EN": 1968,
      "##yl": 1969,
      "Carol": 1970,
      "finish": 1971,
      "ALARM": 1972,
      "Green": 1973,
      "west": 1974,
      "##ffect": 1975,
      "Shut": 1976,
      "storms": 1977,
      "ON": 1978,
      "celsius": 1979,
      "gonna": 1980,
      "##eep": 1981,
      "##EA": 1982,
      "##az": 1983,
      "##ments": 1984,
      "too": 1985,
      "##ites": 1986,
      "Thumbs": 1987,
      "classes": 1988,
      "##aleigh": 1989,
      "tasting": 1990,
      "IN": 1991,
      "fahrenheit": 1992,
      "##DAY": 1993,
      "##ael": 1994,
      "##field": 1995,
      "##anes": 1996,
      "##aseball": 1997,
      "30am": 1998,
      "##annel": 1999,
      "##ype": 2000,
      "22": 2001,
      "Em": 2002,
      "ME": 2003,
      "Next": 2004,
      "##bour": 2005,
      "##leans": 2006,
      "##ular": 2007,
      "##ign": 2008,
      "midday": 2009,
      "season": 2010,
      "Timer": 2011,
      "Columb": 2012,
      "congestion": 2013,
      "information": 2014,
      "sweater": 2015,
      "Bey": 2016,
      "sur": 2017,
      "##RA": 2018,
      "##hattan": 2019,
      "##ills": 2020,
      "##ady": 2021,
      "drop": 2022,
      "##burgh": 2023,
      "Anton": 2024,
      "Dav": 2025,
      "Has": 2026,
      "SET": 2027,
      "del": 2028,
      "im": 2029,
      "##rease": 2030,
      "plans": 2031,
      "medication": 2032,
      "flowers": 2033,
      "Beyonce": 2034,
      "April": 2035,
      "Ohio": 2036,
      "old": 2037,
      "##yo": 2038,
      "100": 2039,
      "channel": 2040,
      "while": 2041,
      "submit": 2042,
      "index": 2043,
      "vacation": 2044,
      "cancell": 2045,
      "Antonio": 2046,
      "Nashville": 2047,
      "WI": 2048,
      "past": 2049,
      "##iew": 2050,
      "##test": 2051,
      "##fast": 2052,
      "##raft": 2053,
      "Reminder": 2054,
      "##ama": 2055,
      "##earch": 2056,
      "meetings": 2057,
      "plan": 2058,
      "Route": 2059,
      "nap": 2060,
      "##eries": 2061,
      "##ative": 2062,
      "##umber": 2063,
      "##udio": 2064,
      "##aska": 2065,
      "Scot": 2066,
      "Fort": 2067,
      "Hall": 2068,
      "Kat": 2069,
      "Lau": 2070,
      "Pl": 2071,
      "lane": 2072,
      "##ieber": 2073,
      "exerc": 2074,
      "12th": 2075,
      "project": 2076,
      "Colorado": 2077,
      "Facebook": 2078,
      "help": 2079,
      "tree": 2080,
      "##ls": 2081,
      "##illy": 2082,
      "avail": 2083,
      "##almart": 2084,
      "England": 2085,
      "##bourne": 2086,
      "55": 2087,
      "Kar": 2088,
      "bank": 2089,
      "bridge": 2090,
      "cous": 2091,
      "east": 2092,
      "pot": 2093,
      "under": 2094,
      "won": 2095,
      "##OM": 2096,
      "##ince": 2097,
      "Wednesdays": 2098,
      "orlando": 2099,
      "Toronto": 2100,
      "baseball": 2101,
      "##ower": 2102,
      "##isa": 2103,
      "##ison": 2104,
      "##lle": 2105,
      "avoiding": 2106,
      "##awn": 2107,
      "grandma": 2108,
      "Hawaii": 2109,
      "31": 2110,
      "Like": 2111,
      "sal": 2112,
      "##UT": 2113,
      "##att": 2114,
      "##useum": 2115,
      "hottest": 2116,
      "Joe": 2117,
      "swim": 2118,
      "##ildren": 2119,
      "27": 2120,
      "Ok": 2121,
      "four": 2122,
      "pull": 2123,
      "sale": 2124,
      "##wy": 2125,
      "##track": 2126,
      "##ement": 2127,
      "##lly": 2128,
      "##stim": 2129,
      "classic": 2130,
      "dress": 2131,
      "##olly": 2132,
      "freez": 2133,
      "enough": 2134,
      "cancelled": 2135,
      "available": 2136,
      "##my": 2137,
      "##FF": 2138,
      "tomorrows": 2139,
      "##ota": 2140,
      "Ari": 2141,
      "Directions": 2142,
      "Mike": 2143,
      "Mil": 2144,
      "November": 2145,
      "US": 2146,
      "pic": 2147,
      "post": 2148,
      "##ward": 2149,
      "having": 2150,
      "picking": 2151,
      "years": 2152,
      "interview": 2153,
      "25th": 2154,
      "Jersey": 2155,
      "updates": 2156,
      "Raleigh": 2157,
      "use": 2158,
      "##ij": 2159,
      "##eap": 2160,
      "mornings": 2161,
      "chances": 2162,
      "##ford": 2163,
      "better": 2164,
      "flor": 2165,
      "predict": 2166,
      "Kansas": 2167,
      "seattle": 2168,
      "wait": 2169,
      "drink": 2170,
      "##eapolis": 2171,
      "Har": 2172,
      "Jay": 2173,
      "WE": 2174,
      "celcius": 2175,
      "nice": 2176,
      "##more": 2177,
      "Melbourne": 2178,
      "extra": 2179,
      "Fl": 2180,
      "NE": 2181,
      "Rea": 2182,
      "pizza": 2183,
      "##ino": 2184,
      "##itts": 2185,
      "routes": 2186,
      "##erson": 2187,
      "beginning": 2188,
      "Springs": 2189,
      "Family": 2190,
      "Wine": 2191,
      "##antic": 2192,
      "##aukee": 2193,
      "favorites": 2194,
      "contact": 2195,
      "florida": 2196,
      "He": 2197,
      "Red": 2198,
      "sit": 2199,
      "##zona": 2200,
      "##eston": 2201,
      "Why": 2202,
      "soundtrack": 2203,
      "alternate": 2204,
      "Sk": 2205,
      "##watch": 2206,
      "##dale": 2207,
      "##orld": 2208,
      "##enny": 2209,
      "dogs": 2210,
      "restaur": 2211,
      "groceries": 2212,
      "Clear": 2213,
      "George": 2214,
      "TIMER": 2215,
      "##iffer": 2216,
      "2nd": 2217,
      "Current": 2218,
      "earl": 2219,
      "hold": 2220,
      "##oor": 2221,
      "##line": 2222,
      "Canada": 2223,
      "Spain": 2224,
      "phot": 2225,
      "7th": 2226,
      "As": 2227,
      "Ex": 2228,
      "Kid": 2229,
      "dates": 2230,
      "differ": 2231,
      "miami": 2232,
      "##just": 2233,
      "along": 2234,
      "##imore": 2235,
      "houston": 2236,
      "Jose": 2237,
      "##igan": 2238,
      "details": 2239,
      "present": 2240,
      "All": 2241,
      "Co": 2242,
      "destin": 2243,
      "save": 2244,
      "yoga": 2245,
      "##gia": 2246,
      "amount": 2247,
      "confer": 2248,
      "Brook": 2249,
      "switch": 2250,
      "##altimore": 2251,
      "##cription": 2252,
      "exercise": 2253,
      "##ittsburgh": 2254,
      "Si": 2255,
      "cal": 2256,
      "could": 2257,
      "dec": 2258,
      "write": 2259,
      "##ric": 2260,
      "##cast": 2261,
      "##waukee": 2262,
      "##irgin": 2263,
      "sport": 2264,
      "Orleans": 2265,
      "active": 2266,
      "Manhattan": 2267,
      "Celcius": 2268,
      "pool": 2269,
      "##hester": 2270,
      "thumbs": 2271,
      "within": 2272,
      "breakfast": 2273,
      "##irginia": 2274,
      "Mex": 2275,
      "TRA": 2276,
      "caus": 2277,
      "six": 2278,
      "##man": 2279,
      "##lic": 2280,
      "close": 2281,
      "bedtime": 2282,
      "thanks": 2283,
      "Spring": 2284,
      "feel": 2285,
      "cousin": 2286,
      "Jul": 2287,
      "Mall": 2288,
      "Pr": 2289,
      "Sal": 2290,
      "Sacramento": 2291,
      "lit": 2292,
      "vol": 2293,
      "voice": 2294,
      "view": 2295,
      "state": 2296,
      "appointments": 2297,
      "moving": 2298,
      "arrival": 2299,
      "REM": 2300,
      "Minneapolis": 2301,
      "modify": 2302,
      "BE": 2303,
      "Dra": 2304,
      "Dri": 2305,
      "Jane": 2306,
      "center": 2307,
      "los": 2308,
      "pain": 2309,
      "sure": 2310,
      "##oween": 2311,
      "##ola": 2312,
      "##ible": 2313,
      "##regon": 2314,
      "destination": 2315,
      "Mo": 2316,
      "Tok": 2317,
      "ele": 2318,
      "##ean": 2319,
      "##vals": 2320,
      "think": 2321,
      "##rie": 2322,
      "##lyn": 2323,
      "chick": 2324,
      "##IND": 2325,
      "closures": 2326,
      "warnings": 2327,
      "compl": 2328,
      "Jacksonville": 2329,
      "James": 2330,
      "conference": 2331,
      "Tokyo": 2332,
      "sing": 2333,
      "##mond": 2334,
      "inc": 2335,
      "##irming": 2336,
      "##aha": 2337,
      "lighting": 2338,
      "Switch": 2339,
      "Highway": 2340,
      "Arizona": 2341,
      "Mexico": 2342,
      "29": 2343,
      "Buff": 2344,
      "Jos": 2345,
      "Rich": 2346,
      "Virginia": 2347,
      "eve": 2348,
      "hospital": 2349,
      "may": 2350,
      "##yn": 2351,
      "alread": 2352,
      "##aga": 2353,
      "Thursdays": 2354,
      "Brun": 2355,
      "popular": 2356,
      "already": 2357,
      "PA": 2358,
      "bot": 2359,
      "ball": 2360,
      "el": 2361,
      "once": 2362,
      "##alley": 2363,
      "news": 2364,
      "heaviest": 2365,
      "stopwatch": 2366,
      "alternative": 2367,
      "Check": 2368,
      "David": 2369,
      "Schedule": 2370,
      "Tr": 2371,
      "estim": 2372,
      "angeles": 2373,
      "plants": 2374,
      "condition": 2375,
      "intervals": 2376,
      "90s": 2377,
      "Queen": 2378,
      "26": 2379,
      "8th": 2380,
      "ma": 2381,
      "name": 2382,
      "##ipp": 2383,
      "##GE": 2384,
      "##pike": 2385,
      "anymore": 2386,
      "Thank": 2387,
      "reserv": 2388,
      "##arding": 2389,
      "spec": 2390,
      "payment": 2391,
      "jams": 2392,
      "Indian": 2393,
      "React": 2394,
      "End": 2395,
      "bake": 2396,
      "##KE": 2397,
      "hotel": 2398,
      "Respond": 2399,
      "##swer": 2400,
      "##ijing": 2401,
      "REMIND": 2402,
      "Need": 2403,
      "ap": 2404,
      "audio": 2405,
      "big": 2406,
      "er": 2407,
      "number": 2408,
      "##sa": 2409,
      "##br": 2410,
      "##vent": 2411,
      "##ern": 2412,
      "stadium": 2413,
      "expecting": 2414,
      "county": 2415,
      "##ogg": 2416,
      "boston": 2417,
      "shortest": 2418,
      "remember": 2419,
      "##asket": 2420,
      "##ebru": 2421,
      "thirty": 2422,
      "##FFIC": 2423,
      "Bar": 2424,
      "Birthday": 2425,
      "Bieber": 2426,
      "Free": 2427,
      "Pull": 2428,
      "gra": 2429,
      "pict": 2430,
      "vegas": 2431,
      "##ett": 2432,
      "##entral": 2433,
      "Christ": 2434,
      "30th": 2435,
      "children": 2436,
      "busy": 2437,
      "Michael": 2438,
      "No": 2439,
      "fix": 2440,
      "till": 2441,
      "##ron": 2442,
      "##iving": 2443,
      "##like": 2444,
      "reminded": 2445,
      "atlanta": 2446,
      "##ades": 2447,
      "##ila": 2448,
      "##ello": 2449,
      "room": 2450,
      "cookies": 2451,
      "closest": 2452,
      "different": 2453,
      "chicken": 2454,
      "##irmingham": 2455,
      "##ebruary": 2456,
      "6th": 2457,
      "Air": 2458,
      "De": 2459,
      "Lisa": 2460,
      "MIN": 2461,
      "Wal": 2462,
      "aunt": 2463,
      "cr": 2464,
      "##oes": 2465,
      "##ighbor": 2466,
      "##riend": 2467,
      "rainfall": 2468,
      "reading": 2469,
      "predicted": 2470,
      "Aven": 2471,
      "Cor": 2472,
      "Fun": 2473,
      "Kell": 2474,
      "Mor": 2475,
      "norm": 2476,
      "##ds": 2477,
      "##ves": 2478,
      "##SE": 2479,
      "##othes": 2480,
      "##andy": 2481,
      "clothes": 2482,
      "Alb": 2483,
      "metal": 2484,
      "earlier": 2485,
      "causing": 2486,
      "##asketball": 2487,
      "Bay": 2488,
      "Happ": 2489,
      "IT": 2490,
      "Int": 2491,
      "Palm": 2492,
      "gl": 2493,
      "key": 2494,
      "ve": 2495,
      "##ling": 2496,
      "##00": 2497,
      "being": 2498,
      "##aly": 2499,
      "##ilence": 2500,
      "appt": 2501,
      "##cean": 2502,
      "Sundays": 2503,
      "seven": 2504,
      "john": 2505,
      "related": 2506,
      "restaurant": 2507,
      "TRAFFIC": 2508,
      "MINUT": 2509,
      "AT": 2510,
      "App": 2511,
      "Aunt": 2512,
      "Bro": 2513,
      "Sm": 2514,
      "Sus": 2515,
      "bar": 2516,
      "fift": 2517,
      "##eran": 2518,
      "stuck": 2519,
      "Saturdays": 2520,
      "reschedule": 2521,
      "says": 2522,
      "##quare": 2523,
      "Week": 2524,
      "soft": 2525,
      "18th": 2526,
      "WILL": 2527,
      "Best": 2528,
      "few": 2529,
      "las": 2530,
      "tur": 2531,
      "wanna": 2532,
      "##gram": 2533,
      "##creen": 2534,
      "##uc": 2535,
      "##SA": 2536,
      "##ere": 2537,
      "##ene": 2538,
      "##inda": 2539,
      "neighbor": 2540,
      "This": 2541,
      "##ific": 2542,
      "Alaska": 2543,
      "cleared": 2544,
      "Andre": 2545,
      "thunderstorms": 2546,
      "Walmart": 2547,
      "basketball": 2548,
      "zoo": 2549,
      "##ten": 2550,
      "##ler": 2551,
      "##dra": 2552,
      "##rown": 2553,
      "101": 2554,
      "exit": 2555,
      "suppl": 2556,
      "suppose": 2557,
      "bills": 2558,
      "ass": 2559,
      "advis": 2560,
      "17th": 2561,
      "ETA": 2562,
      "cer": 2563,
      "camp": 2564,
      "eight": 2565,
      "power": 2566,
      "same": 2567,
      "##lah": 2568,
      "##iche": 2569,
      "##enty": 2570,
      "##isting": 2571,
      "##ountain": 2572,
      "moms": 2573,
      "sunscreen": 2574,
      "regarding": 2575,
      "heading": 2576,
      "Halloween": 2577,
      "##lahoma": 2578,
      "Kim": 2579,
      "Oregon": 2580,
      "Pittsburgh": 2581,
      "gu": 2582,
      "pet": 2583,
      "rent": 2584,
      "rise": 2585,
      "since": 2586,
      "wre": 2587,
      "##lantic": 2588,
      "##ycl": 2589,
      "##oria": 2590,
      "##angh": 2591,
      "##endar": 2592,
      "##ition": 2593,
      "telling": 2594,
      "existing": 2595,
      "##ulu": 2596,
      "Frank": 2597,
      "Georgia": 2598,
      "eye": 2599,
      "Baltimore": 2600,
      "River": 2601,
      "affect": 2602,
      "col": 2603,
      "dallas": 2604,
      "fish": 2605,
      "##MS": 2606,
      "##lt": 2607,
      "##elena": 2608,
      "##cks": 2609,
      "coast": 2610,
      "Buffalo": 2611,
      "February": 2612,
      "august": 2613,
      "loop": 2614,
      "port": 2615,
      "##town": 2616,
      "##ette": 2617,
      "##ics": 2618,
      "front": 2619,
      "comedy": 2620,
      "##coat": 2621,
      "Maria": 2622,
      "streets": 2623,
      "books": 2624,
      "21st": 2625,
      "calendar": 2626,
      "Happy": 2627,
      "Miss": 2628,
      "Oak": 2629,
      "World": 2630,
      "fire": 2631,
      "nam": 2632,
      "##ha": 2633,
      "##his": 2634,
      "##hed": 2635,
      "##inem": 2636,
      "##ati": 2637,
      "ann": 2638,
      "##union": 2639,
      "plays": 2640,
      "raincoat": 2641,
      "##ape": 2642,
      "walking": 2643,
      "market": 2644,
      "freezing": 2645,
      "##anghai": 2646,
      "CA": 2647,
      "FR": 2648,
      "Jason": 2649,
      "Long": 2650,
      "Lady": 2651,
      "garden": 2652,
      "mile": 2653,
      "test": 2654,
      "##tract": 2655,
      "##era": 2656,
      "##ita": 2657,
      "##ited": 2658,
      "shop": 2659,
      "Mont": 2660,
      "respond": 2661,
      "def": 2662,
      "launch": 2663,
      "congested": 2664,
      "Erase": 2665,
      "MINUTES": 2666,
      "##ycling": 2667,
      "LI": 2668,
      "La": 2669,
      "NJ": 2670,
      "man": 2671,
      "serv": 2672,
      "##rick": 2673,
      "##VE": 2674,
      "##pon": 2675,
      "##ely": 2676,
      "##uss": 2677,
      "##abama": 2678,
      "why": 2679,
      "parents": 2680,
      "13th": 2681,
      "Beg": 2682,
      "dep": 2683,
      "eat": 2684,
      "made": 2685,
      "##rap": 2686,
      "level": 2687,
      "cost": 2688,
      "##aces": 2689,
      "account": 2690,
      "fundra": 2691,
      "Years": 2692,
      "supplies": 2693,
      "Del": 2694,
      "Part": 2695,
      "Valley": 2696,
      "##red": 2697,
      "##emphis": 2698,
      "pickup": 2699,
      "Prov": 2700,
      "Columbus": 2701,
      "##ollywood": 2702,
      "estimated": 2703,
      "fifteen": 2704,
      "fundrais": 2705,
      "94": 2706,
      "9th": 2707,
      "Dr": 2708,
      "Gre": 2709,
      "Jess": 2710,
      "Roc": 2711,
      "bi": 2712,
      "museum": 2713,
      "temperat": 2714,
      "##gan": 2715,
      "##aff": 2716,
      "todays": 2717,
      "ever": 2718,
      "carry": 2719,
      "##ublin": 2720,
      "Amer": 2721,
      "Dayton": 2722,
      "##niversity": 2723,
      "worst": 2724,
      "##ressway": 2725,
      "Michigan": 2726,
      "County": 2727,
      "Katy": 2728,
      "Skype": 2729,
      "apart": 2730,
      "temperatures": 2731,
      "Birmingham": 2732,
      "Me": 2733,
      "SMS": 2734,
      "baking": 2735,
      "lake": 2736,
      "red": 2737,
      "tampa": 2738,
      "##eff": 2739,
      "Setup": 2740,
      "twenty": 2741,
      "##ards": 2742,
      "reunion": 2743,
      "swift": 2744,
      "Charleston": 2745,
      "Carolina": 2746,
      "named": 2747,
      "Begin": 2748,
      "Gl": 2749,
      "HOW": 2750,
      "Love": 2751,
      "Out": 2752,
      "Rec": 2753,
      "Sally": 2754,
      "##sp": 2755,
      "##de": 2756,
      "setting": 2757,
      "Steve": 2758,
      "address": 2759,
      "sever": 2760,
      "Italy": 2761,
      "16th": 2762,
      "great": 2763,
      "AND": 2764,
      "Oklahoma": 2765,
      "Milwaukee": 2766,
      "Exp": 2767,
      "Cinc": 2768,
      "Om": 2769,
      "fly": 2770,
      "##ores": 2771,
      "##orrow": 2772,
      "francisco": 2773,
      "##eak": 2774,
      "##itation": 2775,
      "hows": 2776,
      "##ope": 2777,
      "##ocked": 2778,
      "prov": 2779,
      "recording": 2780,
      "80s": 2781,
      "Art": 2782,
      "Avenue": 2783,
      "Brad": 2784,
      "Fall": 2785,
      "Met": 2786,
      "cele": 2787,
      "keep": 2788,
      "land": 2789,
      "lap": 2790,
      "##IS": 2791,
      "##li": 2792,
      "##PM": 2793,
      "##ouver": 2794,
      "##ancouver": 2795,
      "needed": 2796,
      "##opical": 2797,
      "##innati": 2798,
      "##asses": 2799,
      "##acola": 2800,
      "Atlantic": 2801,
      "##ought": 2802,
      "##ude": 2803,
      "flooded": 2804,
      "##ensacola": 2805,
      "Louisville": 2806,
      "bands": 2807,
      "photo": 2808,
      "MES": 2809,
      "hat": 2810,
      "purch": 2811,
      "##gry": 2812,
      "##que": 2813,
      "inf": 2814,
      "##hern": 2815,
      "30pm": 2816,
      "nights": 2817,
      "##apan": 2818,
      "repeats": 2819,
      "blocked": 2820,
      "23rd": 2821,
      "usually": 2822,
      "Cincinnati": 2823,
      "MESSA": 2824,
      "Distance": 2825,
      "Gaga": 2826,
      "Hill": 2827,
      "Jazz": 2828,
      "Vict": 2829,
      "ac": 2830,
      "##cher": 2831,
      "##oy": 2832,
      "##oke": 2833,
      "tom": 2834,
      "##inue": 2835,
      "##orry": 2836,
      "incl": 2837,
      "##ife": 2838,
      "lightest": 2839,
      "405": 2840,
      "quicker": 2841,
      "24th": 2842,
      "spring": 2843,
      "special": 2844,
      "Kelly": 2845,
      "severe": 2846,
      "MESSAGE": 2847,
      "Ash": 2848,
      "Ben": 2849,
      "Beat": 2850,
      "Bridge": 2851,
      "Dave": 2852,
      "Food": 2853,
      "gam": 2854,
      "making": 2855,
      "phoenix": 2856,
      "taylor": 2857,
      "##gie": 2858,
      "##AM": 2859,
      "##cut": 2860,
      "door": 2861,
      "shoes": 2862,
      "rainy": 2863,
      "State": 2864,
      "really": 2865,
      "dental": 2866,
      "##shire": 2867,
      "##iking": 2868,
      "okay": 2869,
      "Salem": 2870,
      "volume": 2871,
      "complete": 2872,
      "Broad": 2873,
      "celebr": 2874,
      "Memphis": 2875,
      "Pink": 2876,
      "School": 2877,
      "##cent": 2878,
      "##bound": 2879,
      "##orn": 2880,
      "##erry": 2881,
      "outl": 2882,
      "##apolis": 2883,
      "block": 2884,
      "##LAY": 2885,
      "Beijing": 2886,
      "whole": 2887,
      "31st": 2888,
      "Siri": 2889,
      "elect": 2890,
      "turkey": 2891,
      "Edit": 2892,
      "Help": 2893,
      "Le": 2894,
      "iM": 2895,
      "june": 2896,
      "lawn": 2897,
      "search": 2898,
      "##lake": 2899,
      "tour": 2900,
      "toget": 2901,
      "##ats": 2902,
      "##eted": 2903,
      "inside": 2904,
      "timing": 2905,
      "stay": 2906,
      "money": 2907,
      "opening": 2908,
      "program": 2909,
      "Brit": 2910,
      "##azon": 2911,
      "Queens": 2912,
      "Thanks": 2913,
      "Airport": 2914,
      "##ponse": 2915,
      "together": 2916,
      "Downtown": 2917,
      "Jon": 2918,
      "Key": 2919,
      "Mov": 2920,
      "Sun": 2921,
      "Vancouver": 2922,
      "hig": 2923,
      "side": 2924,
      "talk": 2925,
      "##go": 2926,
      "##uce": 2927,
      "##door": 2928,
      "##ania": 2929,
      "##imit": 2930,
      "##ece": 2931,
      "##anda": 2932,
      "##ational": 2933,
      "brunch": 2934,
      "exam": 2935,
      "response": 2936,
      "##derdale": 2937,
      "overnight": 2938,
      "##umbai": 2939,
      "tropical": 2940,
      "parades": 2941,
      "Andy": 2942,
      "tolls": 2943,
      "Perry": 2944,
      "info": 2945,
      "Jenn": 2946,
      "Kent": 2947,
      "MA": 2948,
      "Miche": 2949,
      "TH": 2950,
      "Top": 2951,
      "boss": 2952,
      "hard": 2953,
      "sn": 2954,
      "very": 2955,
      "##tions": 2956,
      "##atre": 2957,
      "##onol": 2958,
      "online": 2959,
      "##ctiv": 2960,
      "##irt": 2961,
      "Ann": 2962,
      "showing": 2963,
      "##aho": 2964,
      "##ulsa": 2965,
      "recycling": 2966,
      "##annah": 2967,
      "##airo": 2968,
      "TIME": 2969,
      "##arbage": 2970,
      "##ucson": 2971,
      "fundraiser": 2972,
      "Omaha": 2973,
      "##onolulu": 2974,
      "Des": 2975,
      "Jill": 2976,
      "Mc": 2977,
      "NC": 2978,
      "aw": 2979,
      "bay": 2980,
      "coup": 2981,
      "pri": 2982,
      "##ID": 2983,
      "##ual": 2984,
      "tot": 2985,
      "##enue": 2986,
      "well": 2987,
      "played": 2988,
      "##ipe": 2989,
      "prescription": 2990,
      "14th": 2991,
      "Laura": 2992,
      "swimming": 2993,
      "Josh": 2994,
      "Bell": 2995,
      "Goo": 2996,
      "Mid": 2997,
      "Mac": 2998,
      "Tw": 2999,
      "cut": 3000,
      "fil": 3001,
      "gen": 3002,
      "garbage": 3003,
      "lanes": 3004,
      "mum": 3005,
      "##gl": 3006,
      "##giving": 3007,
      "##min": 3008,
      "##VER": 3009,
      "##yan": 3010,
      "Alabama": 3011,
      "box": 3012,
      "Inst": 3013,
      "Adele": 3014,
      "Rochester": 3015,
      "98": 3016,
      "Big": 3017,
      "Fair": 3018,
      "Japan": 3019,
      "Tulsa": 3020,
      "direction": 3021,
      "gar": 3022,
      "sim": 3023,
      "##TH": 3024,
      "##hest": 3025,
      "medit": 3026,
      "##raw": 3027,
      "##elf": 3028,
      "str": 3029,
      "##ublic": 3030,
      "highways": 3031,
      "Parkway": 3032,
      "percent": 3033,
      "Billy": 3034,
      "Maine": 3035,
      "usual": 3036,
      "Scotland": 3037,
      "Bruno": 3038,
      "Victoria": 3039,
      "Ab": 3040,
      "Bre": 3041,
      "Farm": 3042,
      "King": 3043,
      "Live": 3044,
      "Pat": 3045,
      "mow": 3046,
      "ren": 3047,
      "##nic": 3048,
      "##GH": 3049,
      "##la": 3050,
      "##CH": 3051,
      "those": 3052,
      "##ights": 3053,
      "##eal": 3054,
      "stopp": 3055,
      "##esting": 3056,
      "char": 3057,
      "chill": 3058,
      "Newport": 3059,
      "plann": 3060,
      "letting": 3061,
      "prep": 3062,
      "both": 3063,
      "##ollow": 3064,
      "##ONG": 3065,
      "skating": 3066,
      "greatest": 3067,
      "taxes": 3068,
      "Robert": 3069,
      "normal": 3070,
      "portland": 3071,
      "purchase": 3072,
      "Beatles": 3073,
      "stopped": 3074,
      "Cam": 3075,
      "Kate": 3076,
      "Nor": 3077,
      "Sa": 3078,
      "cour": 3079,
      "poss": 3080,
      "takes": 3081,
      "##ta": 3082,
      "##ble": 3083,
      "##vd": 3084,
      "##iness": 3085,
      "##aton": 3086,
      "##ese": 3087,
      "meds": 3088,
      "##ices": 3089,
      "##ilar": 3090,
      "##olk": 3091,
      "heart": 3092,
      "quiet": 3093,
      "Bring": 3094,
      "screen": 3095,
      "Drake": 3096,
      "Broadway": 3097,
      "65": 3098,
      "Id": 3099,
      "Jeff": 3100,
      "SH": 3101,
      "green": 3102,
      "limit": 3103,
      "sign": 3104,
      "were": 3105,
      "yard": 3106,
      "##yra": 3107,
      "##eters": 3108,
      "##ased": 3109,
      "##ished": 3110,
      "##unn": 3111,
      "##lym": 3112,
      "##oln": 3113,
      "turnpike": 3114,
      "Whatsapp": 3115,
      "##iley": 3116,
      "##iano": 3117,
      "training": 3118,
      "haircut": 3119,
      "##boro": 3120,
      "picnic": 3121,
      "outlook": 3122,
      "highest": 3123,
      "Carl": 3124,
      "CAN": 3125,
      "Hollywood": 3126,
      "Honolulu": 3127,
      "Look": 3128,
      "Nick": 3129,
      "Ren": 3130,
      "lab": 3131,
      "sl": 3132,
      "sess": 3133,
      "tru": 3134,
      "##ga": 3135,
      "##EK": 3136,
      "##we": 3137,
      "##jor": 3138,
      "##CE": 3139,
      "##erg": 3140,
      "##ems": 3141,
      "##arter": 3142,
      "everyone": 3143,
      "##eph": 3144,
      "working": 3145,
      "Stadium": 3146,
      "##vers": 3147,
      "##olog": 3148,
      "exc": 3149,
      "##achi": 3150,
      "TOM": 3151,
      "##ault": 3152,
      "Black": 3153,
      "created": 3154,
      "##incoln": 3155,
      "Uncle": 3156,
      "Drive": 3157,
      "erase": 3158,
      "Andrew": 3159,
      "cerem": 3160,
      "FROM": 3161,
      "##ctivate": 3162,
      "Kn": 3163,
      "Lea": 3164,
      "Linda": 3165,
      "MU": 3166,
      "PL": 3167,
      "Tac": 3168,
      "Write": 3169,
      "father": 3170,
      "hwy": 3171,
      "pe": 3172,
      "wish": 3173,
      "##cel": 3174,
      "##ROW": 3175,
      "##prise": 3176,
      "##CK": 3177,
      "golf": 3178,
      "##omez": 3179,
      "tenn": 3180,
      "##works": 3181,
      "Market": 3182,
      "Sheeran": 3183,
      "Lauderdale": 3184,
      "Karen": 3185,
      "##ogging": 3186,
      "Bra": 3187,
      "Dur": 3188,
      "Laugh": 3189,
      "Ne": 3190,
      "PLAY": 3191,
      "jer": 3192,
      "##nie": 3193,
      "##where": 3194,
      "##kin": 3195,
      "##ouse": 3196,
      "beer": 3197,
      "##anceled": 3198,
      "##ears": 3199,
      "moment": 3200,
      "arriving": 3201,
      "Cont": 3202,
      "Group": 3203,
      "teacher": 3204,
      "artists": 3205,
      "third": 3206,
      "girls": 3207,
      "WEEK": 3208,
      "single": 3209,
      "Indianapolis": 3210,
      "default": 3211,
      "Michelle": 3212,
      "similar": 3213,
      "possible": 3214,
      "AL": 3215,
      "Bel": 3216,
      "Im": 3217,
      "Lab": 3218,
      "Silence": 3219,
      "craft": 3220,
      "canceled": 3221,
      "jogging": 3222,
      "moon": 3223,
      "pills": 3224,
      "##ross": 3225,
      "##aint": 3226,
      "boy": 3227,
      "blues": 3228,
      "##ORROW": 3229,
      "##evin": 3230,
      "Madrid": 3231,
      "invol": 3232,
      "Brooklyn": 3233,
      "TOMORROW": 3234,
      "Garden": 3235,
      "Lincoln": 3236,
      "Nap": 3237,
      "Pensacola": 3238,
      "Re": 3239,
      "Ros": 3240,
      "Tony": 3241,
      "edit": 3242,
      "farm": 3243,
      "follow": 3244,
      "line": 3245,
      "mich": 3246,
      "texas": 3247,
      "##ih": 3248,
      "##bl": 3249,
      "##load": 3250,
      "form": 3251,
      "##ider": 3252,
      "hall": 3253,
      "Monica": 3254,
      "happen": 3255,
      "reported": 3256,
      "2017": 3257,
      "credit": 3258,
      "passed": 3259,
      "sporting": 3260,
      "Inter": 3261,
      "iMessage": 3262,
      "41": 3263,
      "Bu": 3264,
      "Matt": 3265,
      "ST": 3266,
      "WA": 3267,
      "Work": 3268,
      "denver": 3269,
      "hel": 3270,
      "sorry": 3271,
      "##oom": 3272,
      "##bo": 3273,
      "##enlo": 3274,
      "##unes": 3275,
      "##ulf": 3276,
      "buying": 3277,
      "business": 3278,
      "parkway": 3279,
      "finished": 3280,
      "Today": 3281,
      "Heart": 3282,
      "major": 3283,
      "prior": 3284,
      "jersey": 3285,
      "Central": 3286,
      "GO": 3287,
      "Game": 3288,
      "Hun": 3289,
      "Hwy": 3290,
      "Square": 3291,
      "UV": 3292,
      "bath": 3293,
      "california": 3294,
      "hiking": 3295,
      "te": 3296,
      "##gn": 3297,
      "##cuse": 3298,
      "##med": 3299,
      "##hli": 3300,
      "##yle": 3301,
      "##anie": 3302,
      "ins": 3303,
      "##ealand": 3304,
      "Anna": 3305,
      "##berlake": 3306,
      "##ache": 3307,
      "##ody": 3308,
      "ref": 3309,
      "review": 3310,
      "dont": 3311,
      "delayed": 3312,
      "winds": 3313,
      "##lfriend": 3314,
      "ends": 3315,
      "##athy": 3316,
      "adjust": 3317,
      "Adjust": 3318,
      "Tomorrow": 3319,
      "19th": 3320,
      "##racker": 3321,
      "sales": 3322,
      "situ": 3323,
      "little": 3324,
      "Smith": 3325,
      "games": 3326,
      "total": 3327,
      "garage": 3328,
      "##yracuse": 3329,
      "##unnel": 3330,
      "Dublin": 3331,
      "Hot": 3332,
      "HOU": 3333,
      "Mag": 3334,
      "Night": 3335,
      "Sea": 3336,
      "bow": 3337,
      "mad": 3338,
      "##ize": 3339,
      "##gle": 3340,
      "##hood": 3341,
      "##let": 3342,
      "fort": 3343,
      "forward": 3344,
      "reminding": 3345,
      "##tha": 3346,
      "##its": 3347,
      "##ilton": 3348,
      "Shanghai": 3349,
      "roll": 3350,
      "##ection": 3351,
      "expressway": 3352,
      "Club": 3353,
      "Adam": 3354,
      "package": 3355,
      "ski": 3356,
      "##oxville": 3357,
      "Columbia": 3358,
      "27th": 3359,
      "painting": 3360,
      "reservations": 3361,
      "49": 3362,
      "44": 3363,
      "Cold": 3364,
      "Mer": 3365,
      "Nut": 3366,
      "Sub": 3367,
      "Syracuse": 3368,
      "Tucson": 3369,
      "person": 3370,
      "piano": 3371,
      "##miss": 3372,
      "##UN": 3373,
      "##vise": 3374,
      "##aron": 3375,
      "ant": 3376,
      "##idge": 3377,
      "##unk": 3378,
      "##itam": 3379,
      "##room": 3380,
      "Mars": 3381,
      "trans": 3382,
      "lowest": 3383,
      "##iana": 3384,
      "Inc": 3385,
      "company": 3386,
      "cream": 3387,
      "performing": 3388,
      "girlfriend": 3389,
      "22nd": 3390,
      "surprise": 3391,
      "Susan": 3392,
      "advisory": 3393,
      "electric": 3394,
      "##glasses": 3395,
      "Ave": 3396,
      "Hamp": 3397,
      "HER": 3398,
      "Ill": 3399,
      "Lit": 3400,
      "Penn": 3401,
      "Ryan": 3402,
      "Say": 3403,
      "found": 3404,
      "fog": 3405,
      "lines": 3406,
      "sad": 3407,
      "##pool": 3408,
      "##XT": 3409,
      "##20": 3410,
      "##ero": 3411,
      "##isb": 3412,
      "##omm": 3413,
      "##amar": 3414,
      "##andom": 3415,
      "sunglasses": 3416,
      "TODAY": 3417,
      "sounds": 3418,
      "Disneyland": 3419,
      "tastings": 3420,
      "##umper": 3421,
      "relax": 3422,
      "said": 3423,
      "Comedy": 3424,
      "Richmond": 3425,
      "Oakland": 3426,
      "include": 3427,
      "planned": 3428,
      "teeth": 3429,
      "situation": 3430,
      "85": 3431,
      "Home": 3432,
      "Tar": 3433,
      "Walk": 3434,
      "Zealand": 3435,
      "december": 3436,
      "effect": 3437,
      "##IGH": 3438,
      "##sit": 3439,
      "##tg": 3440,
      "##back": 3441,
      "##esa": 3442,
      "##esha": 3443,
      "its": 3444,
      "stand": 3445,
      "stuff": 3446,
      "##ala": 3447,
      "##allica": 3448,
      "Ange": 3449,
      "##ult": 3450,
      "Boise": 3451,
      "note": 3452,
      "Dislike": 3453,
      "cookie": 3454,
      "disney": 3455,
      "freeze": 3456,
      "join": 3457,
      "uncle": 3458,
      "ringing": 3459,
      "28th": 3460,
      "fairs": 3461,
      "##ylv": 3462,
      "##EASE": 3463,
      "keys": 3464,
      "Apple": 3465,
      "Record": 3466,
      "Coll": 3467,
      "Ft": 3468,
      "Gu": 3469,
      "Hi": 3470,
      "HA": 3471,
      "Kend": 3472,
      "Mart": 3473,
      "Ocean": 3474,
      "Pas": 3475,
      "Ron": 3476,
      "Rap": 3477,
      "Se": 3478,
      "TX": 3479,
      "Val": 3480,
      "des": 3481,
      "dan": 3482,
      "eas": 3483,
      "ny": 3484,
      "pat": 3485,
      "sus": 3486,
      "##ira": 3487,
      "##cracker": 3488,
      "##lix": 3489,
      "##lington": 3490,
      "##vard": 3491,
      "##LD": 3492,
      "##heim": 3493,
      "##erate": 3494,
      "##enc": 3495,
      "##ements": 3496,
      "##uter": 3497,
      "##enton": 3498,
      "Hows": 3499,
      "##rit": 3500,
      "##istr": 3501,
      "Answer": 3502,
      "cover": 3503,
      "##ocal": 3504,
      "##ifer": 3505,
      "##ched": 3506,
      "##ode": 3507,
      "##avannah": 3508,
      "Amy": 3509,
      "radar": 3510,
      "parking": 3511,
      "babysit": 3512,
      "pictures": 3513,
      "PLEASE": 3514,
      "##ihanna": 3515,
      "Interstate": 3516,
      "Cre": 3517,
      "Hills": 3518,
      "Kevin": 3519,
      "Russ": 3520,
      "Tenn": 3521,
      "hate": 3522,
      "july": 3523,
      "paul": 3524,
      "vitam": 3525,
      "##rtle": 3526,
      "##not": 3527,
      "##yon": 3528,
      "##pend": 3529,
      "##hew": 3530,
      "theatre": 3531,
      "##isc": 3532,
      "answer": 3533,
      "##ains": 3534,
      "areas": 3535,
      "colle": 3536,
      "texted": 3537,
      "looks": 3538,
      "reports": 3539,
      "interesting": 3540,
      "##issa": 3541,
      "holidays": 3542,
      "world": 3543,
      "Manila": 3544,
      "entire": 3545,
      "decor": 3546,
      "Julie": 3547,
      "REMINDER": 3548,
      "assign": 3549,
      "Jennifer": 3550,
      "##ylvania": 3551,
      "college": 3552,
      "Gar": 3553,
      "Germ": 3554,
      "Ice": 3555,
      "Palo": 3556,
      "Rain": 3557,
      "Sue": 3558,
      "Sara": 3559,
      "University": 3560,
      "fine": 3561,
      "kar": 3562,
      "pants": 3563,
      "random": 3564,
      "santa": 3565,
      "tv": 3566,
      "##sylvania": 3567,
      "##RT": 3568,
      "##hib": 3569,
      "island": 3570,
      "##essee": 3571,
      "gets": 3572,
      "China": 3573,
      "##ople": 3574,
      "Ste": 3575,
      "outdoor": 3576,
      "started": 3577,
      "coll": 3578,
      "##rying": 3579,
      "brush": 3580,
      "Alto": 3581,
      "twice": 3582,
      "Sport": 3583,
      "11th": 3584,
      "##duation": 3585,
      "Theater": 3586,
      "traveling": 3587,
      "Paulo": 3588,
      "Perth": 3589,
      "eyes": 3590,
      "wrecks": 3591,
      "Jessica": 3592,
      "Thanksgiving": 3593,
      "Google": 3594,
      "percentage": 3595,
      "tennis": 3596,
      "##gnore": 3597,
      "Ber": 3598,
      "Bur": 3599,
      "Cairo": 3600,
      "GA": 3601,
      "Hello": 3602,
      "Jen": 3603,
      "Mumbai": 3604,
      "Salt": 3605,
      "Wow": 3606,
      "cup": 3607,
      "hor": 3608,
      "justin": 3609,
      "vers": 3610,
      "##ner": 3611,
      "##most": 3612,
      "##fr": 3613,
      "##eng": 3614,
      "meat": 3615,
      "##ria": 3616,
      "##ids": 3617,
      "##unity": 3618,
      "Char": 3619,
      "convent": 3620,
      "charl": 3621,
      "chores": 3622,
      "leaves": 3623,
      "Ana": 3624,
      "Newark": 3625,
      "##acy": 3626,
      "places": 3627,
      "quarter": 3628,
      "THERE": 3629,
      "Amazon": 3630,
      "freeways": 3631,
      "##ship": 3632,
      "##athon": 3633,
      "Class": 3634,
      "subs": 3635,
      "Brian": 3636,
      "planning": 3637,
      "Springfield": 3638,
      "picture": 3639,
      "Weekend": 3640,
      "service": 3641,
      "Party": 3642,
      "America": 3643,
      "##lymp": 3644,
      "##week": 3645,
      "held": 3646,
      "Increase": 3647,
      "##ommend": 3648,
      "64": 3649,
      "Av": 3650,
      "Cal": 3651,
      "Cook": 3652,
      "Dar": 3653,
      "Fred": 3654,
      "Mountain": 3655,
      "One": 3656,
      "Sad": 3657,
      "Sand": 3658,
      "Search": 3659,
      "Video": 3660,
      "aut": 3661,
      "cent": 3662,
      "fill": 3663,
      "har": 3664,
      "mix": 3665,
      "sacramento": 3666,
      "##res": 3667,
      "##gar": 3668,
      "##ED": 3669,
      "##IL": 3670,
      "##per": 3671,
      "##80": 3672,
      "tone": 3673,
      "setup": 3674,
      "##isters": 3675,
      "##adio": 3676,
      "likely": 3677,
      "Shoot": 3678,
      "##allet": 3679,
      "roast": 3680,
      "cheese": 3681,
      "2019": 3682,
      "lessons": 3683,
      "##ledo": 3684,
      "United": 3685,
      "drinks": 3686,
      "NEXT": 3687,
      "Kids": 3688,
      "Coast": 3689,
      "paint": 3690,
      "reservation": 3691,
      "Wales": 3692,
      "Daytona": 3693,
      "filter": 3694,
      "people": 3695,
      "Cape": 3696,
      "DO": 3697,
      "Dinner": 3698,
      "EVER": 3699,
      "Museum": 3700,
      "Nort": 3701,
      "Olymp": 3702,
      "RA": 3703,
      "TV": 3704,
      "catch": 3705,
      "file": 3706,
      "match": 3707,
      "nine": 3708,
      "point": 3709,
      "poll": 3710,
      "##iat": 3711,
      "##ience": 3712,
      "##IT": 3713,
      "##cip": 3714,
      "##self": 3715,
      "##UR": 3716,
      "##eral": 3717,
      "##ots": 3718,
      "##anton": 3719,
      "Thr": 3720,
      "##onder": 3721,
      "##ryan": 3722,
      "towards": 3723,
      "Philly": 3724,
      "##bury": 3725,
      "##athan": 3726,
      "Blvd": 3727,
      "worse": 3728,
      "passing": 3729,
      "Grandma": 3730,
      "Luc": 3731,
      "Ashley": 3732,
      "renew": 3733,
      "session": 3734,
      "Subtract": 3735,
      "Pennsylvania": 3736,
      "EVERY": 3737,
      "59": 3738,
      "Barb": 3739,
      "Cher": 3740,
      "Gen": 3741,
      "Ham": 3742,
      "Laur": 3743,
      "Loop": 3744,
      "Reg": 3745,
      "War": 3746,
      "Zoo": 3747,
      "bag": 3748,
      "cam": 3749,
      "ed": 3750,
      "id": 3751,
      "member": 3752,
      "nail": 3753,
      "pol": 3754,
      "sam": 3755,
      "went": 3756,
      "##oir": 3757,
      "##bs": 3758,
      "##pa": 3759,
      "##heville": 3760,
      "tourn": 3761,
      "##ican": 3762,
      "##urance": 3763,
      "##ela": 3764,
      "##ito": 3765,
      "mortg": 3766,
      "rece": 3767,
      "coldest": 3768,
      "rehe": 3769,
      "backup": 3770,
      "##quer": 3771,
      "downed": 3772,
      "computer": 3773,
      "cats": 3774,
      "Madison": 3775,
      "##umpkin": 3776,
      "enter": 3777,
      "Eminem": 3778,
      "Driving": 3779,
      "graduation": 3780,
      "THIS": 3781,
      "meditation": 3782,
      "Tacoma": 3783,
      "HOUR": 3784,
      "Coldplay": 3785,
      "Little": 3786,
      "pollen": 3787,
      "tournam": 3788,
      "mortgage": 3789,
      "Activate": 3790,
      "Dec": 3791,
      "Good": 3792,
      "Ken": 3793,
      "Line": 3794,
      "Ol": 3795,
      "OK": 3796,
      "Sound": 3797,
      "TA": 3798,
      "Tina": 3799,
      "Was": 3800,
      "Winter": 3801,
      "bat": 3802,
      "hi": 3803,
      "law": 3804,
      "ocean": 3805,
      "race": 3806,
      "sisters": 3807,
      "##rol": 3808,
      "##ca": 3809,
      "##sville": 3810,
      "##upp": 3811,
      "##ji": 3812,
      "##inate": 3813,
      "##esota": 3814,
      "almost": 3815,
      "##leas": 3816,
      "beat": 3817,
      "##ooth": 3818,
      "##aster": 3819,
      "##anchester": 3820,
      "##stown": 3821,
      "comes": 3822,
      "carol": 3823,
      "Joel": 3824,
      "avenue": 3825,
      "Orange": 3826,
      "##HER": 3827,
      "Brisb": 3828,
      "mondays": 3829,
      "dishes": 3830,
      "Timberlake": 3831,
      "final": 3832,
      "##evue": 3833,
      "headed": 3834,
      "Country": 3835,
      "deleted": 3836,
      "##OME": 3837,
      "##inois": 3838,
      "increase": 3839,
      "Falls": 3840,
      "snack": 3841,
      "truck": 3842,
      "involving": 3843,
      "Germany": 3844,
      "##cipitation": 3845,
      "Brisbane": 3846,
      "39": 3847,
      "Bon": 3848,
      "Ext": 3849,
      "Fire": 3850,
      "Jord": 3851,
      "Rd": 3852,
      "Run": 3853,
      "Rihanna": 3854,
      "Tree": 3855,
      "UP": 3856,
      "bor": 3857,
      "central": 3858,
      "dark": 3859,
      "kit": 3860,
      "po": 3861,
      "public": 3862,
      "##cus": 3863,
      "##RI": 3864,
      "##bert": 3865,
      "##bie": 3866,
      "##CT": 3867,
      "toil": 3868,
      "##ors": 3869,
      "##ata": 3870,
      "##uture": 3871,
      "bey": 3872,
      "beep": 3873,
      "##idence": 3874,
      "##outhern": 3875,
      "anywhere": 3876,
      "Church": 3877,
      "##egan": 3878,
      "Dog": 3879,
      "listening": 3880,
      "##aps": 3881,
      "recommend": 3882,
      "##issipp": 3883,
      "black": 3884,
      "Carrie": 3885,
      "##oves": 3886,
      "##oken": 3887,
      "##iki": 3888,
      "dryer": 3889,
      "prediction": 3890,
      "##swick": 3891,
      "##EAR": 3892,
      "Flag": 3893,
      "litter": 3894,
      "26th": 3895,
      "softball": 3896,
      "depart": 3897,
      "Sao": 3898,
      "Nutcracker": 3899,
      "Illinois": 3900,
      "subscription": 3901,
      "##weekly": 3902,
      "rehears": 3903,
      "##issippi": 3904,
      "Bot": 3905,
      "Bank": 3906,
      "Brown": 3907,
      "Jake": 3908,
      "Local": 3909,
      "Med": 3910,
      "Max": 3911,
      "Nat": 3912,
      "Rome": 3913,
      "Roll": 3914,
      "Selena": 3915,
      "Us": 3916,
      "Wil": 3917,
      "dish": 3918,
      "diego": 3919,
      "geor": 3920,
      "hey": 3921,
      "pill": 3922,
      "september": 3923,
      "washington": 3924,
      "##nect": 3925,
      "##NT": 3926,
      "##OT": 3927,
      "##ario": 3928,
      "##esville": 3929,
      "##ream": 3930,
      "##asota": 3931,
      "##lea": 3932,
      "sett": 3933,
      "allow": 3934,
      "flash": 3935,
      "locally": 3936,
      "precipitation": 3937,
      "Alarms": 3938,
      "blizz": 3939,
      "##EST": 3940,
      "hurricanes": 3941,
      "Madonna": 3942,
      "Karachi": 3943,
      "waiting": 3944,
      "grab": 3945,
      "neighborhood": 3946,
      "biweekly": 3947,
      "Knoxville": 3948,
      "insurance": 3949,
      "Tennessee": 3950,
      "beyonce": 3951,
      "Bow": 3952,
      "Gra": 3953,
      "Hospital": 3954,
      "Rem": 3955,
      "Save": 3956,
      "cause": 3957,
      "dead": 3958,
      "fest": 3959,
      "hun": 3960,
      "lun": 3961,
      "must": 3962,
      "tit": 3963,
      "vibr": 3964,
      "wet": 3965,
      "##AD": 3966,
      "##sc": 3967,
      "##tah": 3968,
      "##ua": 3969,
      "##box": 3970,
      "##lish": 3971,
      "##fest": 3972,
      "##friend": 3973,
      "##imm": 3974,
      "##ancy": 3975,
      "##ancing": 3976,
      "##ument": 3977,
      "##ops": 3978,
      "Angry": 3979,
      "##agles": 3980,
      "##ocol": 3981,
      "build": 3982,
      "plane": 3983,
      "##aven": 3984,
      "Johnny": 3985,
      "prem": 3986,
      "blood": 3987,
      "attending": 3988,
      "Listen": 3989,
      "India": 3990,
      "moved": 3991,
      "Daniel": 3992,
      "performance": 3993,
      "NEW": 3994,
      "Asheville": 3995,
      "Morning": 3996,
      "annual": 3997,
      "LIKE": 3998,
      "Movie": 3999,
      "couple": 4000,
      "Bellevue": 4001,
      "bowling": 4002,
      "##IGHT": 4003,
      "Paso": 4004,
      "suspend": 4005,
      "630": 4006,
      "Ke": 4007,
      "Mum": 4008,
      "Reb": 4009,
      "So": 4010,
      "brown": 4011,
      "cable": 4012,
      "sick": 4013,
      "##ness": 4014,
      "##den": 4015,
      "##pac": 4016,
      "tours": 4017,
      "##leep": 4018,
      "thru": 4019,
      "##itt": 4020,
      "##ott": 4021,
      "musical": 4022,
      "chilly": 4023,
      "William": 4024,
      "##agine": 4025,
      "snowfall": 4026,
      "Doctor": 4027,
      "added": 4028,
      "care": 4029,
      "playlists": 4030,
      "buzz": 4031,
      "##acific": 4032,
      "letter": 4033,
      "probl": 4034,
      "Carey": 4035,
      "noise": 4036,
      "emails": 4037,
      "Jamie": 4038,
      "sports": 4039,
      "Albany": 4040,
      "fireworks": 4041,
      "Target": 4042,
      "Jordan": 4043,
      "toilet": 4044,
      "blizzard": 4045,
      "66": 4046,
      "81": 4047,
      "Back": 4048,
      "DV": 4049,
      "Dance": 4050,
      "Deb": 4051,
      "Lar": 4052,
      "Ro": 4053,
      "RO": 4054,
      "That": 4055,
      "Worth": 4056,
      "bought": 4057,
      "ignore": 4058,
      "mountain": 4059,
      "occ": 4060,
      "typ": 4061,
      "walmart": 4062,
      "yes": 4063,
      "##iag": 4064,
      "##gue": 4065,
      "##luck": 4066,
      "##ye": 4067,
      "##ya": 4068,
      "##ycle": 4069,
      "##SK": 4070,
      "##ky": 4071,
      "took": 4072,
      "##ared": 4073,
      "##etch": 4074,
      "mex": 4075,
      "frost": 4076,
      "##staff": 4077,
      "messaged": 4078,
      "##elle": 4079,
      "##andler": 4080,
      "hourly": 4081,
      "Thom": 4082,
      "##agram": 4083,
      "##lands": 4084,
      "knows": 4085,
      "##ults": 4086,
      "recital": 4087,
      "Turnpike": 4088,
      "jackson": 4089,
      "##inkin": 4090,
      "boat": 4091,
      "##estern": 4092,
      "Parade": 4093,
      "subtract": 4094,
      "tornadoes": 4095,
      "##ermont": 4096,
      "Luke": 4097,
      "Minnesota": 4098,
      "##END": 4099,
      "Emily": 4100,
      "freezer": 4101,
      "Drag": 4102,
      "Dehli": 4103,
      "gloves": 4104,
      "apartment": 4105,
      "provide": 4106,
      "##gae": 4107,
      "##querque": 4108,
      "Band": 4109,
      "Eug": 4110,
      "Hay": 4111,
      "Jenny": 4112,
      "Lex": 4113,
      "Lyn": 4114,
      "Ont": 4115,
      "Rick": 4116,
      "SC": 4117,
      "Summer": 4118,
      "Savannah": 4119,
      "THAT": 4120,
      "Way": 4121,
      "Wood": 4122,
      "WHE": 4123,
      "birth": 4124,
      "based": 4125,
      "london": 4126,
      "max": 4127,
      "ori": 4128,
      "tri": 4129,
      "##so": 4130,
      "##uquerque": 4131,
      "##ps": 4132,
      "##LE": 4133,
      "##inat": 4134,
      "forg": 4135,
      "##ense": 4136,
      "##oun": 4137,
      "##icip": 4138,
      "gosp": 4139,
      "ups": 4140,
      "##irm": 4141,
      "##ires": 4142,
      "conf": 4143,
      "##osc": 4144,
      "cli": 4145,
      "##ips": 4146,
      "exhib": 4147,
      "addition": 4148,
      "##ula": 4149,
      "evenings": 4150,
      "stations": 4151,
      "interval": 4152,
      "detroit": 4153,
      "Every": 4154,
      "LAX": 4155,
      "##aik": 4156,
      "ticket": 4157,
      "continue": 4158,
      "##ucky": 4159,
      "falls": 4160,
      "extend": 4161,
      "Toledo": 4162,
      "Eric": 4163,
      "Jimmy": 4164,
      "Brunswick": 4165,
      "Mariah": 4166,
      "boyfriend": 4167,
      "assignment": 4168,
      "settings": 4169,
      "##ocolate": 4170,
      "##pacito": 4171,
      "Eugene": 4172,
      "Ontario": 4173,
      "gospel": 4174,
      "additional": 4175,
      "34": 4176,
      "84": 4177,
      "Aug": 4178,
      "BR": 4179,
      "Cost": 4180,
      "Dep": 4181,
      "Destin": 4182,
      "Leg": 4183,
      "Lamar": 4184,
      "Mob": 4185,
      "MON": 4186,
      "Ray": 4187,
      "Rose": 4188,
      "Sher": 4189,
      "disco": 4190,
      "eng": 4191,
      "future": 4192,
      "jan": 4193,
      "loud": 4194,
      "might": 4195,
      "sar": 4196,
      "square": 4197,
      "type": 4198,
      "##rat": 4199,
      "##ION": 4200,
      "##water": 4201,
      "##ful": 4202,
      "##yst": 4203,
      "##zil": 4204,
      "therap": 4205,
      "##atin": 4206,
      "##etime": 4207,
      "##ouge": 4208,
      "##real": 4209,
      "myself": 4210,
      "##edar": 4211,
      "##ident": 4212,
      "##idents": 4213,
      "##unte": 4214,
      "##stra": 4215,
      "##oulder": 4216,
      "cannot": 4217,
      "##anye": 4218,
      "sugg": 4219,
      "notes": 4220,
      "Augustine": 4221,
      "dads": 4222,
      "White": 4223,
      "Amanda": 4224,
      "##ORK": 4225,
      "Inform": 4226,
      "smooth": 4227,
      "performances": 4228,
      "##yler": 4229,
      "Greenville": 4230,
      "potluck": 4231,
      "wreck": 4232,
      "celebration": 4233,
      "relaxing": 4234,
      "Kendrick": 4235,
      "Garth": 4236,
      "forgot": 4237,
      "5k": 4238,
      "Beth": 4239,
      "CH": 4240,
      "DI": 4241,
      "Hen": 4242,
      "Jones": 4243,
      "Kiss": 4244,
      "Kesha": 4245,
      "MS": 4246,
      "Menlo": 4247,
      "Pop": 4248,
      "Rh": 4249,
      "Sing": 4250,
      "SONG": 4251,
      "Temp": 4252,
      "hello": 4253,
      "log": 4254,
      "ohio": 4255,
      "silence": 4256,
      "##NOW": 4257,
      "##sboro": 4258,
      "##oe": 4259,
      "##light": 4260,
      "##lace": 4261,
      "##ining": 4262,
      "these": 4263,
      "##uth": 4264,
      "##utes": 4265,
      "##iting": 4266,
      "##ote": 4267,
      "anytime": 4268,
      "chang": 4269,
      "forecasted": 4270,
      "arena": 4271,
      "202": 4272,
      "##ways": 4273,
      "##chestra": 4274,
      "recipe": 4275,
      "boys": 4276,
      "request": 4277,
      "paris": 4278,
      "parent": 4279,
      "disc": 4280,
      "House": 4281,
      "##ATHER": 4282,
      "##okane": 4283,
      "Myrtle": 4284,
      "unread": 4285,
      "##onsin": 4286,
      "Maryland": 4287,
      "Edison": 4288,
      "marathon": 4289,
      "##OULD": 4290,
      "Alexa": 4291,
      "Lucy": 4292,
      "WEATHER": 4293,
      "Albuquerque": 4294,
      "affecting": 4295,
      "genre": 4296,
      "Instagram": 4297,
      "Durham": 4298,
      "Labor": 4299,
      "refill": 4300,
      "##isconsin": 4301,
      "receive": 4302,
      "Flagstaff": 4303,
      "mexico": 4304,
      "46": 4305,
      "99": 4306,
      "CO": 4307,
      "Cedar": 4308,
      "Fe": 4309,
      "Gal": 4310,
      "Hend": 4311,
      "Kenny": 4312,
      "Kathy": 4313,
      "Lor": 4314,
      "Linkin": 4315,
      "Manchester": 4316,
      "NH": 4317,
      "PT": 4318,
      "Radio": 4319,
      "Sandy": 4320,
      "Tall": 4321,
      "austin": 4322,
      "dc": 4323,
      "field": 4324,
      "lar": 4325,
      "lady": 4326,
      "mc": 4327,
      "mer": 4328,
      "mary": 4329,
      "river": 4330,
      "sand": 4331,
      "tank": 4332,
      "##beat": 4333,
      "##SIC": 4334,
      "##rey": 4335,
      "##reland": 4336,
      "##omen": 4337,
      "##ometers": 4338,
      "thing": 4339,
      "##ecca": 4340,
      "stove": 4341,
      "staff": 4342,
      "##outs": 4343,
      "cons": 4344,
      "rained": 4345,
      "##osit": 4346,
      "Shows": 4347,
      "00am": 4348,
      "broad": 4349,
      "orange": 4350,
      "albums": 4351,
      "Maroon": 4352,
      "emp": 4353,
      "##niversal": 4354,
      "cards": 4355,
      "Eliz": 4356,
      "facebook": 4357,
      "march": 4358,
      "invite": 4359,
      "safe": 4360,
      "Pres": 4361,
      "cross": 4362,
      "costume": 4363,
      "Meet": 4364,
      "Metallica": 4365,
      "tommor": 4366,
      "Idaho": 4367,
      "Reno": 4368,
      "MUSIC": 4369,
      "Never": 4370,
      "vitamins": 4371,
      "version": 4372,
      "##frica": 4373,
      "Lauren": 4374,
      "vibrate": 4375,
      "##iagara": 4376,
      "Lexington": 4377,
      "Mobile": 4378,
      "37": 4379,
      "ASK": 4380,
      "Bryan": 4381,
      "Ell": 4382,
      "Far": 4383,
      "Gulf": 4384,
      "Ma": 4385,
      "Mass": 4386,
      "Mute": 4387,
      "Pre": 4388,
      "Sil": 4389,
      "Ter": 4390,
      "Tam": 4391,
      "Tru": 4392,
      "Word": 4393,
      "ave": 4394,
      "dancing": 4395,
      "kat": 4396,
      "lo": 4397,
      "leng": 4398,
      "mute": 4399,
      "##rs": 4400,
      "##gers": 4401,
      "##EL": 4402,
      "##cul": 4403,
      "##ss": 4404,
      "##well": 4405,
      "##yr": 4406,
      "##kron": 4407,
      "##arium": 4408,
      "##ayla": 4409,
      "##onies": 4410,
      "##oul": 4411,
      "##asse": 4412,
      "indic": 4413,
      "##ertain": 4414,
      "Friend": 4415,
      "milwaukee": 4416,
      "##ivery": 4417,
      "##ired": 4418,
      "##abeth": 4419,
      "reocc": 4420,
      "heard": 4421,
      "located": 4422,
      "options": 4423,
      "earth": 4424,
      "compet": 4425,
      "slowing": 4426,
      "Blue": 4427,
      "##clip": 4428,
      "Jerry": 4429,
      "markets": 4430,
      "paperwork": 4431,
      "surf": 4432,
      "delivery": 4433,
      "contacts": 4434,
      "Brooks": 4435,
      "ballet": 4436,
      "##oggy": 4437,
      "Christian": 4438,
      "advisor": 4439,
      "Montreal": 4440,
      "Greece": 4441,
      "Kentucky": 4442,
      "decorating": 4443,
      "convention": 4444,
      "Anaheim": 4445,
      "centim": 4446,
      "RAIN": 4447,
      "Thrones": 4448,
      "TAKE": 4449,
      "Extend": 4450,
      "##aikiki": 4451,
      "##ratul": 4452,
      "BB": 4453,
      "Book": 4454,
      "En": 4455,
      "Fre": 4456,
      "Gir": 4457,
      "Hal": 4458,
      "Ireland": 4459,
      "Keep": 4460,
      "Lee": 4461,
      "Pan": 4462,
      "Pol": 4463,
      "Sab": 4464,
      "Sept": 4465,
      "Vermont": 4466,
      "bit": 4467,
      "bieber": 4468,
      "jose": 4469,
      "louis": 4470,
      "mm": 4471,
      "paus": 4472,
      "rings": 4473,
      "selena": 4474,
      "university": 4475,
      "##rina": 4476,
      "##sburg": 4477,
      "##bridge": 4478,
      "##pass": 4479,
      "##ano": 4480,
      "##enic": 4481,
      "##oule": 4482,
      "##indy": 4483,
      "##ilox": 4484,
      "shirt": 4485,
      "##andon": 4486,
      "Chance": 4487,
      "repair": 4488,
      "00pm": 4489,
      "brook": 4490,
      "organ": 4491,
      "##ected": 4492,
      "carpool": 4493,
      "Alice": 4494,
      "heavier": 4495,
      "##roll": 4496,
      "bringing": 4497,
      "##ardi": 4498,
      "lets": 4499,
      "lightning": 4500,
      "##anson": 4501,
      "produ": 4502,
      "control": 4503,
      "prescrip": 4504,
      "##ikes": 4505,
      "reggae": 4506,
      "retir": 4507,
      "lesson": 4508,
      "Comm": 4509,
      "Katie": 4510,
      "Harris": 4511,
      "fishing": 4512,
      "Providence": 4513,
      "reduce": 4514,
      "##deas": 4515,
      "Britney": 4516,
      "hardy": 4517,
      "prepare": 4518,
      "ceremony": 4519,
      "##celona": 4520,
      "Imagine": 4521,
      "##achel": 4522,
      "Magic": 4523,
      "HAVE": 4524,
      "Russia": 4525,
      "charlotte": 4526,
      "Barbara": 4527,
      "Hamilton": 4528,
      "tournament": 4529,
      "rehearsal": 4530,
      "WHEN": 4531,
      "##clipse": 4532,
      "paused": 4533,
      "##oulevard": 4534,
      "##iloxi": 4535,
      "prescriptions": 4536,
      "32": 4537,
      "71": 4538,
      "92": 4539,
      "Africa": 4540,
      "Boulder": 4541,
      "Gold": 4542,
      "Gomez": 4543,
      "Ju": 4544,
      "Net": 4545,
      "Pra": 4546,
      "Pam": 4547,
      "Ring": 4548,
      "Utah": 4549,
      "Waikiki": 4550,
      "au": 4551,
      "ban": 4552,
      "dia": 4553,
      "dire": 4554,
      "full": 4555,
      "foggy": 4556,
      "laugh": 4557,
      "map": 4558,
      "soc": 4559,
      "tut": 4560,
      "wow": 4561,
      "##gr": 4562,
      "##IF": 4563,
      "##PP": 4564,
      "##orage": 4565,
      "##ayette": 4566,
      "##etry": 4567,
      "##antha": 4568,
      "##imate": 4569,
      "iss": 4570,
      "never": 4571,
      "##raine": 4572,
      "doc": 4573,
      "##istory": 4574,
      "shanghai": 4575,
      "Chap": 4576,
      "conc": 4577,
      "Canyon": 4578,
      "##oph": 4579,
      "##eath": 4580,
      "Altern": 4581,
      "##rock": 4582,
      "##akota": 4583,
      "##stone": 4584,
      "##quarium": 4585,
      "quit": 4586,
      "board": 4587,
      "rides": 4588,
      "##onald": 4589,
      "clouds": 4590,
      "Quiet": 4591,
      "##phone": 4592,
      "mode": 4593,
      "##ENT": 4594,
      "Scott": 4595,
      "saved": 4596,
      "29th": 4597,
      "Barcelona": 4598,
      "Mississippi": 4599,
      "across": 4600,
      "##going": 4601,
      "##ahoe": 4602,
      "##board": 4603,
      "Hotel": 4604,
      "Olympia": 4605,
      "indicate": 4606,
      "33": 4607,
      "36": 4608,
      "530": 4609,
      "AC": 4610,
      "Acc": 4611,
      "ARE": 4612,
      "Bear": 4613,
      "Craft": 4614,
      "Hel": 4615,
      "Haha": 4616,
      "Jac": 4617,
      "Lew": 4618,
      "Law": 4619,
      "Mau": 4620,
      "Nev": 4621,
      "Oc": 4622,
      "OR": 4623,
      "Pete": 4624,
      "Pacific": 4625,
      "Rachel": 4626,
      "Su": 4627,
      "TE": 4628,
      "Town": 4629,
      "Uk": 4630,
      "Voice": 4631,
      "Yan": 4632,
      "cru": 4633,
      "eclipse": 4634,
      "gomez": 4635,
      "ideas": 4636,
      "kn": 4637,
      "mill": 4638,
      "ow": 4639,
      "si": 4640,
      "syst": 4641,
      "tunnel": 4642,
      "wallet": 4643,
      "##ious": 4644,
      "##wan": 4645,
      "##tt": 4646,
      "##OO": 4647,
      "##life": 4648,
      "##dy": 4649,
      "##orial": 4650,
      "##ows": 4651,
      "##emy": 4652,
      "##emon": 4653,
      "##oux": 4654,
      "##urb": 4655,
      "##rib": 4656,
      "##rieve": 4657,
      "##ech": 4658,
      "##oots": 4659,
      "##itar": 4660,
      "##itions": 4661,
      "shot": 4662,
      "##ctions": 4663,
      "groom": 4664,
      "cars": 4665,
      "##ahasse": 4666,
      "highs": 4667,
      "birthdays": 4668,
      "##ours": 4669,
      "messenger": 4670,
      "lunchtime": 4671,
      "press": 4672,
      "##aware": 4673,
      "watching": 4674,
      "contests": 4675,
      "clubs": 4676,
      "199": 4677,
      "##TART": 4678,
      "smile": 4679,
      "springs": 4680,
      "sprink": 4681,
      "pasta": 4682,
      "picked": 4683,
      "Reduce": 4684,
      "volunte": 4685,
      "camping": 4686,
      "Queensland": 4687,
      "strong": 4688,
      "ceremonies": 4689,
      "Brazil": 4690,
      "following": 4691,
      "Berlin": 4692,
      "horse": 4693,
      "premier": 4694,
      "##oscow": 4695,
      "suggest": 4696,
      "retirement": 4697,
      "Nevada": 4698,
      "48": 4699,
      "91": 4700,
      "93": 4701,
      "ALL": 4702,
      "Bru": 4703,
      "Baton": 4704,
      "Canc": 4705,
      "Cool": 4706,
      "Down": 4707,
      "ED": 4708,
      "Eagles": 4709,
      "Hit": 4710,
      "Just": 4711,
      "Kyle": 4712,
      "OF": 4713,
      "Ram": 4714,
      "Rouge": 4715,
      "Sean": 4716,
      "UK": 4717,
      "VA": 4718,
      "brid": 4719,
      "bumper": 4720,
      "cir": 4721,
      "fam": 4722,
      "gone": 4723,
      "hand": 4724,
      "host": 4725,
      "tre": 4726,
      "wil": 4727,
      "wonder": 4728,
      "zero": 4729,
      "##iate": 4730,
      "##iot": 4731,
      "##iece": 4732,
      "##ef": 4733,
      "##mington": 4734,
      "##UM": 4735,
      "##house": 4736,
      "##ding": 4737,
      "##pers": 4738,
      "##kes": 4739,
      "also": 4740,
      "##ani": 4741,
      "##ouri": 4742,
      "##asino": 4743,
      "meal": 4744,
      "##omantic": 4745,
      "mint": 4746,
      "##enda": 4747,
      "##rowse": 4748,
      "##ainesville": 4749,
      "##ilometers": 4750,
      "anyone": 4751,
      "##erton": 4752,
      "##allen": 4753,
      "mult": 4754,
      "##aging": 4755,
      "snowy": 4756,
      "##ahu": 4757,
      "release": 4758,
      "ago": 4759,
      "lighter": 4760,
      "community": 4761,
      "didn": 4762,
      "##ORN": 4763,
      "dislike": 4764,
      "temps": 4765,
      "perry": 4766,
      "adv": 4767,
      "Clark": 4768,
      "grandpa": 4769,
      "Charlie": 4770,
      "scenic": 4771,
      "worry": 4772,
      "register": 4773,
      "activate": 4774,
      "Samantha": 4775,
      "Melissa": 4776,
      "oldies": 4777,
      "Place": 4778,
      "photos": 4779,
      "Break": 4780,
      "Angel": 4781,
      "Rapids": 4782,
      "easy": 4783,
      "##chedul": 4784,
      "Elizabeth": 4785,
      "##ahassee": 4786,
      "42": 4787,
      "52": 4788,
      "57": 4789,
      "730": 4790,
      "Fast": 4791,
      "Gam": 4792,
      "Ha": 4793,
      "Jun": 4794,
      "Kanye": 4795,
      "Liz": 4796,
      "Mt": 4797,
      "Moscow": 4798,
      "Over": 4799,
      "Pier": 4800,
      "Sn": 4801,
      "SE": 4802,
      "Sup": 4803,
      "Sleep": 4804,
      "Talk": 4805,
      "Under": 4806,
      "Van": 4807,
      "With": 4808,
      "cell": 4809,
      "dra": 4810,
      "dew": 4811,
      "draft": 4812,
      "ep": 4813,
      "hom": 4814,
      "lock": 4815,
      "link": 4816,
      "mike": 4817,
      "notify": 4818,
      "pie": 4819,
      "round": 4820,
      "rally": 4821,
      "sil": 4822,
      "tu": 4823,
      "##ges": 4824,
      "##gest": 4825,
      "##ni": 4826,
      "##aut": 4827,
      "##mark": 4828,
      "##OP": 4829,
      "##flix": 4830,
      "##dle": 4831,
      "##SV": 4832,
      "tok": 4833,
      "##inar": 4834,
      "##oring": 4835,
      "##ato": 4836,
      "##etty": 4837,
      "##anoke": 4838,
      "ongoing": 4839,
      "beijing": 4840,
      "fridge": 4841,
      "##thony": 4842,
      "##eline": 4843,
      "##una": 4844,
      "##cho": 4845,
      "upbeat": 4846,
      "##andria": 4847,
      "##hens": 4848,
      "##ird": 4849,
      "##earl": 4850,
      "##berry": 4851,
      "exact": 4852,
      "##apt": 4853,
      "carving": 4854,
      "##aco": 4855,
      "##akers": 4856,
      "Spears": 4857,
      "Spokane": 4858,
      "Joy": 4859,
      "##ichita": 4860,
      "##tonio": 4861,
      "yearly": 4862,
      "notific": 4863,
      "download": 4864,
      "cleaned": 4865,
      "blue": 4866,
      "recorded": 4867,
      "Janet": 4868,
      "brothers": 4869,
      "##ebr": 4870,
      "butter": 4871,
      "##inese": 4872,
      "updated": 4873,
      "Festivals": 4874,
      "USA": 4875,
      "Intern": 4876,
      "Provide": 4877,
      "stretch": 4878,
      "court": 4879,
      "Looking": 4880,
      "michael": 4881,
      "personal": 4882,
      "Hampshire": 4883,
      "Valent": 4884,
      "Charles": 4885,
      "Northern": 4886,
      "problems": 4887,
      "Thomas": 4888,
      "Dragons": 4889,
      "Henderson": 4890,
      "PTO": 4891,
      "broadway": 4892,
      "##culate": 4893,
      "diapers": 4894,
      "system": 4895,
      "54": 4896,
      "77": 4897,
      "Cat": 4898,
      "Den": 4899,
      "Dou": 4900,
      "Field": 4901,
      "Flo": 4902,
      "Gary": 4903,
      "Hop": 4904,
      "Hurric": 4905,
      "Ir": 4906,
      "Mount": 4907,
      "Notify": 4908,
      "Niagara": 4909,
      "Pumpkin": 4910,
      "Roy": 4911,
      "Sat": 4912,
      "Sim": 4913,
      "SUN": 4914,
      "Tahoe": 4915,
      "Win": 4916,
      "Wend": 4917,
      "cor": 4918,
      "crock": 4919,
      "fit": 4920,
      "fell": 4921,
      "lic": 4922,
      "life": 4923,
      "men": 4924,
      "path": 4925,
      "snoo": 4926,
      "sig": 4927,
      "til": 4928,
      "tread": 4929,
      "wri": 4930,
      "wise": 4931,
      "##ior": 4932,
      "##af": 4933,
      "##ooming": 4934,
      "##west": 4935,
      "##mill": 4936,
      "##ural": 4937,
      "##dom": 4938,
      "##vo": 4939,
      "##ks": 4940,
      "##kansas": 4941,
      "##zy": 4942,
      "##FK": 4943,
      "##arf": 4944,
      "##etres": 4945,
      "##emorial": 4946,
      "antonio": 4947,
      "##uts": 4948,
      "##ighters": 4949,
      "china": 4950,
      "chocolate": 4951,
      "worksh": 4952,
      "Anthony": 4953,
      "##iah": 4954,
      "grass": 4955,
      "sending": 4956,
      "stops": 4957,
      "##ueb": 4958,
      "sheeran": 4959,
      "arrives": 4960,
      "##ugal": 4961,
      "##uba": 4962,
      "lightings": 4963,
      "Johnson": 4964,
      "intern": 4965,
      "##aley": 4966,
      "warmer": 4967,
      "watering": 4968,
      "medical": 4969,
      "Jackie": 4970,
      "theme": 4971,
      "##ucks": 4972,
      "Elvis": 4973,
      "Bobby": 4974,
      "mars": 4975,
      "Andrea": 4976,
      "Movies": 4977,
      "Patrick": 4978,
      "Continue": 4979,
      "Naples": 4980,
      "bathroom": 4981,
      "skiing": 4982,
      "##istrict": 4983,
      "babysitter": 4984,
      "Creek": 4985,
      "Steven": 4986,
      "client": 4987,
      "therapy": 4988,
      "Tallahassee": 4989,
      "katy": 4990,
      "advisories": 4991,
      "##ground": 4992,
      "Chapel": 4993,
      "treadmill": 4994,
      "05": 4995,
      "5K": 4996,
      "56": 4997,
      "Aaron": 4998,
      "BY": 4999,
      "BET": 5000,
      "Biloxi": 5001,
      "Call": 5002,
      "Cru": 5003,
      "Camp": 5004,
      "Der": 5005,
      "EST": 5006,
      "Greg": 5007,
      "Hip": 5008,
      "KNOW": 5009,
      "Lou": 5010,
      "Lind": 5011,
      "Land": 5012,
      "Lily": 5013,
      "LONG": 5014,
      "MI": 5015,
      "Mill": 5016,
      "OH": 5017,
      "RSV": 5018,
      "See": 5019,
      "Tunnel": 5020,
      "Wichita": 5021,
      "bic": 5022,
      "bra": 5023,
      "browse": 5024,
      "cm": 5025,
      "dublin": 5026,
      "history": 5027,
      "mic": 5028,
      "mass": 5029,
      "page": 5030,
      "punk": 5031,
      "rd": 5032,
      "saw": 5033,
      "schedul": 5034,
      "table": 5035,
      "term": 5036,
      "##range": 5037,
      "##eet": 5038,
      "##AS": 5039,
      "##DD": 5040,
      "##uel": 5041,
      "##lers": 5042,
      "##folk": 5043,
      "##vin": 5044,
      "##veston": 5045,
      "##WE": 5046,
      "##heast": 5047,
      "##anish": 5048,
      "##ench": 5049,
      "##iminate": 5050,
      "items": 5051,
      "##urt": 5052,
      "##entation": 5053,
      "##asey": 5054,
      "uptown": 5055,
      "##istant": 5056,
      "Children": 5057,
      "Shak": 5058,
      "chart": 5059,
      "wanted": 5060,
      "Station": 5061,
      "States": 5062,
      "Steph": 5063,
      "arvo": 5064,
      "##eens": 5065,
      "##ockey": 5066,
      "grooming": 5067,
      "sundown": 5068,
      "Album": 5069,
      "##roe": 5070,
      "##roy": 5071,
      "Disable": 5072,
      "overcast": 5073,
      "Bron": 5074,
      "Brandon": 5075,
      "##iled": 5076,
      "lows": 5077,
      "Portugal": 5078,
      "medications": 5079,
      "##shine": 5080,
      "Advise": 5081,
      "cardio": 5082,
      "hope": 5083,
      "Dani": 5084,
      "daughters": 5085,
      "sao": 5086,
      "mainten": 5087,
      "girl": 5088,
      "salad": 5089,
      "##castle": 5090,
      "feeling": 5091,
      "Prince": 5092,
      "Indiana": 5093,
      "cereal": 5094,
      "guitar": 5095,
      "##inema": 5096,
      "services": 5097,
      "provider": 5098,
      "##ology": 5099,
      "Napa": 5100,
      "nyc": 5101,
      "paulo": 5102,
      "batter": 5103,
      "Keith": 5104,
      "DVR": 5105,
      "mountains": 5106,
      "confirm": 5107,
      "Legend": 5108,
      "Henry": 5109,
      "received": 5110,
      "merge": 5111,
      "tommorow": 5112,
      "##ophie": 5113,
      "Maui": 5114,
      "volunteer": 5115,
      "multip": 5116,
      "tokyo": 5117,
      "International": 5118,
      "RSVP": 5119,
      "maintenance": 5120,
      "69": 5121,
      "76": 5122,
      "Ast": 5123,
      "Bull": 5124,
      "Crying": 5125,
      "GET": 5126,
      "Hea": 5127,
      "JFK": 5128,
      "Min": 5129,
      "Mot": 5130,
      "NOW": 5131,
      "Nebr": 5132,
      "Som": 5133,
      "Tur": 5134,
      "Tob": 5135,
      "Tyler": 5136,
      "Wisconsin": 5137,
      "YOU": 5138,
      "Yoga": 5139,
      "bound": 5140,
      "bob": 5141,
      "baltimore": 5142,
      "ju": 5143,
      "jim": 5144,
      "mot": 5145,
      "nat": 5146,
      "romantic": 5147,
      "sem": 5148,
      "seen": 5149,
      "##ied": 5150,
      "##ians": 5151,
      "##nast": 5152,
      "##AL": 5153,
      "##care": 5154,
      "##ckee": 5155,
      "##ais": 5156,
      "##actor": 5157,
      "##aica": 5158,
      "##off": 5159,
      "##ware": 5160,
      "##top": 5161,
      "##mother": 5162,
      "##mins": 5163,
      "##bank": 5164,
      "##lth": 5165,
      "##LY": 5166,
      "##FT": 5167,
      "##BA": 5168,
      "todd": 5169,
      "alex": 5170,
      "always": 5171,
      "mel": 5172,
      "##omery": 5173,
      "belt": 5174,
      "##ries": 5175,
      "##oof": 5176,
      "##oose": 5177,
      "##itter": 5178,
      "##ility": 5179,
      "allerg": 5180,
      "##stab": 5181,
      "Chinese": 5182,
      "Sha": 5183,
      "christ": 5184,
      "child": 5185,
      "chandler": 5186,
      "bypass": 5187,
      "Star": 5188,
      "Stacy": 5189,
      "applic": 5190,
      "Newcastle": 5191,
      "##agna": 5192,
      "health": 5193,
      "orleans": 5194,
      "Alter": 5195,
      "sugar": 5196,
      "floor": 5197,
      "##ourney": 5198,
      "Boys": 5199,
      "Disco": 5200,
      "##amps": 5201,
      "##anne": 5202,
      "cookout": 5203,
      "philly": 5204,
      "##olley": 5205,
      "Inn": 5206,
      "visiting": 5207,
      "Times": 5208,
      "sometime": 5209,
      "Arts": 5210,
      "Arbor": 5211,
      "Arkansas": 5212,
      "scarf": 5213,
      "cooler": 5214,
      "##ANCE": 5215,
      "Quick": 5216,
      "indie": 5217,
      "remains": 5218,
      "##arbucks": 5219,
      "tooth": 5220,
      "salon": 5221,
      "##wards": 5222,
      "Harry": 5223,
      "bottle": 5224,
      "Smile": 5225,
      "Riverside": 5226,
      "Delaware": 5227,
      "Parties": 5228,
      "American": 5229,
      "Expressway": 5230,
      "celebrations": 5231,
      "charity": 5232,
      "SHOULD": 5233,
      "exciting": 5234,
      "michigan": 5235,
      "Matthew": 5236,
      "transfer": 5237,
      "Hampton": 5238,
      "Sports": 5239,
      "members": 5240,
      "snacks": 5241,
      "Rebecca": 5242,
      "Roanoke": 5243,
      "##inatra": 5244,
      "mcallen": 5245,
      "Truckee": 5246,
      "reoccurring": 5247,
      "##ratulations": 5248,
      "Sabrina": 5249,
      "Jacob": 5250,
      "Lewis": 5251,
      "multiple": 5252,
      "Nebraska": 5253,
      "08": 5254,
      "06": 5255,
      "63": 5256,
      "97": 5257,
      "AA": 5258,
      "Cr": 5259,
      "Cindy": 5260,
      "Dakota": 5261,
      "Eur": 5262,
      "HO": 5263,
      "Hart": 5264,
      "Head": 5265,
      "Jean": 5266,
      "Megan": 5267,
      "Nancy": 5268,
      "Pizza": 5269,
      "Paint": 5270,
      "Ridge": 5271,
      "Saint": 5272,
      "TN": 5273,
      "Ta": 5274,
      "View": 5275,
      "Western": 5276,
      "bas": 5277,
      "bur": 5278,
      "cinema": 5279,
      "flea": 5280,
      "grad": 5281,
      "gulf": 5282,
      "hockey": 5283,
      "kilometers": 5284,
      "niece": 5285,
      "push": 5286,
      "pittsburgh": 5287,
      "zones": 5288,
      "##rument": 5289,
      "##epp": 5290,
      "##IR": 5291,
      "##ses": 5292,
      "##world": 5293,
      "##ually": 5294,
      "##dia": 5295,
      "##PA": 5296,
      "alter": 5297,
      "##emont": 5298,
      "##arma": 5299,
      "##ises": 5300,
      "##imum": 5301,
      "##omb": 5302,
      "##rab": 5303,
      "amazon": 5304,
      "##eam": 5305,
      "##aste": 5306,
      "##adies": 5307,
      "##ilo": 5308,
      "shore": 5309,
      "105": 5310,
      "##eteor": 5311,
      "choir": 5312,
      "##osm": 5313,
      "arbor": 5314,
      "apply": 5315,
      "##ryst": 5316,
      "##ifth": 5317,
      "##cheon": 5318,
      "##asha": 5319,
      "arrived": 5320,
      "messaging": 5321,
      "Convent": 5322,
      "##rena": 5323,
      "fridays": 5324,
      "##tsdale": 5325,
      "Upcoming": 5326,
      "locations": 5327,
      "closes": 5328,
      "gymnast": 5329,
      "retrieve": 5330,
      "##eves": 5331,
      "##OUT": 5332,
      "Sarasota": 5333,
      "Young": 5334,
      "Only": 5335,
      "immed": 5336,
      "NEED": 5337,
      "holding": 5338,
      "decrease": 5339,
      "incidents": 5340,
      "normally": 5341,
      "Missouri": 5342,
      "deposit": 5343,
      "Britt": 5344,
      "Despacito": 5345,
      "##ologist": 5346,
      "GOING": 5347,
      "fortnight": 5348,
      "##istration": 5349,
      "##iately": 5350,
      "idea": 5351,
      "georgia": 5352,
      "luncheon": 5353,
      "titled": 5354,
      "Wayne": 5355,
      "changes": 5356,
      "Fargo": 5357,
      "pressure": 5358,
      "tuition": 5359,
      "Floyd": 5360,
      "license": 5361,
      "snooz": 5362,
      "bicycle": 5363,
      "##olleyball": 5364,
      "43": 5365,
      "74": 5366,
      "Bend": 5367,
      "Bah": 5368,
      "Bang": 5369,
      "Estim": 5370,
      "Lo": 5371,
      "Low": 5372,
      "Lanc": 5373,
      "Log": 5374,
      "LET": 5375,
      "NS": 5376,
      "Not": 5377,
      "Off": 5378,
      "Pen": 5379,
      "Point": 5380,
      "Pub": 5381,
      "Rog": 5382,
      "SF": 5383,
      "Song": 5384,
      "Southern": 5385,
      "START": 5386,
      "Sophie": 5387,
      "Terry": 5388,
      "Vi": 5389,
      "Water": 5390,
      "bars": 5391,
      "cab": 5392,
      "cities": 5393,
      "corn": 5394,
      "eating": 5395,
      "eta": 5396,
      "greet": 5397,
      "hill": 5398,
      "leg": 5399,
      "lost": 5400,
      "mumbai": 5401,
      "tune": 5402,
      "##gery": 5403,
      "##chen": 5404,
      "##soon": 5405,
      "##sney": 5406,
      "##ba": 5407,
      "##point": 5408,
      "##zart": 5409,
      "##hett": 5410,
      "##oust": 5411,
      "##ima": 5412,
      "##imal": 5413,
      "##lect": 5414,
      "bell": 5415,
      "frank": 5416,
      "goog": 5417,
      "##eah": 5418,
      "haven": 5419,
      "##itiate": 5420,
      "steve": 5421,
      "##ads": 5422,
      "##ella": 5423,
      "##eps": 5424,
      "Shall": 5425,
      "Short": 5426,
      "Playlist": 5427,
      "monsoon": 5428,
      "##open": 5429,
      "someone": 5430,
      "##ailand": 5431,
      "afternoons": 5432,
      "##aker": 5433,
      "sup": 5434,
      "super": 5435,
      "##ivia": 5436,
      "##chester": 5437,
      "##ashion": 5438,
      "##abies": 5439,
      "cleveland": 5440,
      "##iamond": 5441,
      "used": 5442,
      "Connect": 5443,
      "opera": 5444,
      "##tsville": 5445,
      "print": 5446,
      "##obby": 5447,
      "##eption": 5448,
      "Event": 5449,
      "duration": 5450,
      "##olland": 5451,
      "##airs": 5452,
      "riding": 5453,
      "sleet": 5454,
      "sleeves": 5455,
      "adults": 5456,
      "grandmother": 5457,
      "Jamaica": 5458,
      "skies": 5459,
      "##aperville": 5460,
      "ANY": 5461,
      "recently": 5462,
      "Comp": 5463,
      "imp": 5464,
      "import": 5465,
      "WITH": 5466,
      "sitting": 5467,
      "completed": 5468,
      "Richard": 5469,
      "Delay": 5470,
      "columb": 5471,
      "Montana": 5472,
      "Great": 5473,
      "Glen": 5474,
      "acoust": 5475,
      "aware": 5476,
      "Farmer": 5477,
      "slipp": 5478,
      "Leaving": 5479,
      "MUCH": 5480,
      "##celand": 5481,
      "cupc": 5482,
      "quarterly": 5483,
      "Classical": 5484,
      "Sandra": 5485,
      "auto": 5486,
      "Generate": 5487,
      "caroling": 5488,
      "poetry": 5489,
      "BBQ": 5490,
      "Panama": 5491,
      "direct": 5492,
      "social": 5493,
      "tutoring": 5494,
      "issues": 5495,
      "Ocala": 5496,
      "Ukraine": 5497,
      "EDM": 5498,
      "mintues": 5499,
      "advance": 5500,
      "Underwood": 5501,
      "Hurricane": 5502,
      "writing": 5503,
      "batteries": 5504,
      "google": 5505,
      "acoustic": 5506,
      "51": 5507,
      "78": 5508,
      "96": 5509,
      "AR": 5510,
      "ADD": 5511,
      "Arena": 5512,
      "Bec": 5513,
      "Dub": 5514,
      "DRI": 5515,
      "Haven": 5516,
      "Liam": 5517,
      "Molly": 5518,
      "Nic": 5519,
      "Nathan": 5520,
      "Old": 5521,
      "Pal": 5522,
      "Pearl": 5523,
      "Parma": 5524,
      "Ton": 5525,
      "Ver": 5526,
      "Wy": 5527,
      "WAY": 5528,
      "WORK": 5529,
      "Zach": 5530,
      "cairo": 5531,
      "dess": 5532,
      "gif": 5533,
      "mph": 5534,
      "menlo": 5535,
      "ob": 5536,
      "october": 5537,
      "ped": 5538,
      "sen": 5539,
      "sydney": 5540,
      "soul": 5541,
      "tires": 5542,
      "valley": 5543,
      "venue": 5544,
      "wave": 5545,
      "##ials": 5546,
      "##gent": 5547,
      "##nam": 5548,
      "##ILL": 5549,
      "##ND": 5550,
      "##ald": 5551,
      "##me": 5552,
      "##uk": 5553,
      "##dam": 5554,
      "##pen": 5555,
      "##kins": 5556,
      "##orea": 5557,
      "##anny": 5558,
      "##ency": 5559,
      "##emec": 5560,
      "##ically": 5561,
      "angry": 5562,
      "nep": 5563,
      "##raph": 5564,
      "gold": 5565,
      "often": 5566,
      "star": 5567,
      "states": 5568,
      "stars": 5569,
      "stamps": 5570,
      "playback": 5571,
      "##alph": 5572,
      "##ilots": 5573,
      "shar": 5574,
      "ship": 5575,
      "shift": 5576,
      "##ellow": 5577,
      "everything": 5578,
      "##umni": 5579,
      "rainb": 5580,
      "Share": 5581,
      "##erto": 5582,
      "musicals": 5583,
      "daycare": 5584,
      "meetup": 5585,
      "appro": 5586,
      "##oca": 5587,
      "hotter": 5588,
      "sunshine": 5589,
      "Spanish": 5590,
      "colder": 5591,
      "Jovi": 5592,
      "turned": 5593,
      "##oda": 5594,
      "Boy": 5595,
      "##ampton": 5596,
      "##tington": 5597,
      "##ibb": 5598,
      "whatsapp": 5599,
      "prom": 5600,
      "##udi": 5601,
      "tuesdays": 5602,
      "Amster": 5603,
      "white": 5604,
      "shorter": 5605,
      "adele": 5606,
      "##ymph": 5607,
      "james": 5608,
      "registration": 5609,
      "displays": 5610,
      "invitation": 5611,
      "Alexandria": 5612,
      "saving": 5613,
      "surve": 5614,
      "projected": 5615,
      "restaurants": 5616,
      "presentation": 5617,
      "Julia": 5618,
      "Moana": 5619,
      "Moines": 5620,
      "Joseph": 5621,
      "Weekly": 5622,
      "lasagna": 5623,
      "mileage": 5624,
      "Outdoor": 5625,
      "awake": 5626,
      "meditate": 5627,
      "Norfolk": 5628,
      "CANCE": 5629,
      "Contact": 5630,
      "Ronnie": 5631,
      "pattern": 5632,
      "Sporting": 5633,
      "Burlington": 5634,
      "HOURS": 5635,
      "border": 5636,
      "ROAD": 5637,
      "orientation": 5638,
      "Tempe": 5639,
      "Juan": 5640,
      "Yankee": 5641,
      "Snap": 5642,
      "exactly": 5643,
      "Wendy": 5644,
      "signing": 5645,
      "Toby": 5646,
      "juice": 5647,
      "Shaun": 5648,
      "##rumental": 5649,
      "immediately": 5650,
      "dessert": 5651,
      "##emecula": 5652,
      "Amsterdam": 5653,
      "CANCEL": 5654,
      "CD": 5655,
      "Cir": 5656,
      "Fest": 5657,
      "HOME": 5658,
      "Iow": 5659,
      "Krist": 5660,
      "Lights": 5661,
      "Mesa": 5662,
      "MORN": 5663,
      "Memorial": 5664,
      "Naperville": 5665,
      "Po": 5666,
      "Sl": 5667,
      "Sug": 5668,
      "There": 5669,
      "Tiff": 5670,
      "Universal": 5671,
      "WH": 5672,
      "Wild": 5673,
      "april": 5674,
      "blow": 5675,
      "borrow": 5676,
      "cow": 5677,
      "craw": 5678,
      "casino": 5679,
      "dam": 5680,
      "furn": 5681,
      "gather": 5682,
      "gall": 5683,
      "jay": 5684,
      "jog": 5685,
      "jumper": 5686,
      "nashville": 5687,
      "november": 5688,
      "oak": 5689,
      "pap": 5690,
      "pets": 5691,
      "ser": 5692,
      "sat": 5693,
      "try": 5694,
      "tele": 5695,
      "wat": 5696,
      "zone": 5697,
      "##nival": 5698,
      "##ege": 5699,
      "##win": 5700,
      "##wen": 5701,
      "##OB": 5702,
      "##uerto": 5703,
      "##MA": 5704,
      "##za": 5705,
      "ton": 5706,
      "##ini": 5707,
      "##ately": 5708,
      "##ingham": 5709,
      "##rect": 5710,
      "##icut": 5711,
      "##icia": 5712,
      "##leet": 5713,
      "##uty": 5714,
      "bel": 5715,
      "beaut": 5716,
      "##entown": 5717,
      "##usk": 5718,
      "##atherine": 5719,
      "##rig": 5720,
      "##chorage": 5721,
      "young": 5722,
      "##street": 5723,
      "##irk": 5724,
      "Thailand": 5725,
      "##ointment": 5726,
      "grove": 5727,
      "##ailing": 5728,
      "brun": 5729,
      "orchestra": 5730,
      "buff": 5731,
      "moder": 5732,
      "access": 5733,
      "Joan": 5734,
      "Joey": 5735,
      "##ardens": 5736,
      "Report": 5737,
      "checking": 5738,
      "Martha": 5739,
      "Brother": 5740,
      "trim": 5741,
      "drought": 5742,
      "Amend": 5743,
      "towels": 5744,
      "##shirt": 5745,
      "advise": 5746,
      "flights": 5747,
      "Adri": 5748,
      "##alsa": 5749,
      "wednesdays": 5750,
      "Science": 5751,
      "southbound": 5752,
      "activity": 5753,
      "##izon": 5754,
      "feet": 5755,
      "taxi": 5756,
      "deliver": 5757,
      "Scottsdale": 5758,
      "Cole": 5759,
      "Sioux": 5760,
      "conditioner": 5761,
      "##etta": 5762,
      "Provo": 5763,
      "blocking": 5764,
      "madrid": 5765,
      "anticip": 5766,
      "karachi": 5767,
      "Avoid": 5768,
      "Cooking": 5769,
      "Lucas": 5770,
      "police": 5771,
      "Olivia": 5772,
      "OKC": 5773,
      "##apsed": 5774,
      "building": 5775,
      "brownies": 5776,
      "Debbie": 5777,
      "Lynn": 5778,
      "MONTH": 5779,
      "january": 5780,
      "Tammy": 5781,
      "competitions": 5782,
      "Harrisburg": 5783,
      "Netflix": 5784,
      "millim": 5785,
      "Bruce": 5786,
      "epis": 5787,
      "Stephanie": 5788,
      "Astoria": 5789,
      "christian": 5790,
      "application": 5791,
      "Europe": 5792,
      "##rystal": 5793,
      "slippery": 5794,
      "nephew": 5795,
      "Iowa": 5796,
      "MORNING": 5797,
      "67": 5798,
      "79": 5799,
      "Bus": 5800,
      "Baby": 5801,
      "Bern": 5802,
      "CL": 5803,
      "CON": 5804,
      "Canton": 5805,
      "Cuba": 5806,
      "Ever": 5807,
      "Fin": 5808,
      "Gil": 5809,
      "Gym": 5810,
      "Gainesville": 5811,
      "HE": 5812,
      "HI": 5813,
      "IF": 5814,
      "Iceland": 5815,
      "Judy": 5816,
      "Kings": 5817,
      "Korea": 5818,
      "LE": 5819,
      "Mr": 5820,
      "MD": 5821,
      "MO": 5822,
      "Moon": 5823,
      "More": 5824,
      "Pick": 5825,
      "PTA": 5826,
      "Rey": 5827,
      "Ralph": 5828,
      "Some": 5829,
      "Sant": 5830,
      "SOME": 5831,
      "Wall": 5832,
      "Wars": 5833,
      "bal": 5834,
      "barb": 5835,
      "dea": 5836,
      "dawn": 5837,
      "folk": 5838,
      "gaga": 5839,
      "hollywood": 5840,
      "iron": 5841,
      "pa": 5842,
      "pod": 5843,
      "pupp": 5844,
      "sol": 5845,
      "squ": 5846,
      "southern": 5847,
      "tab": 5848,
      "task": 5849,
      "tunes": 5850,
      "um": 5851,
      "word": 5852,
      "##ret": 5853,
      "##iants": 5854,
      "##gress": 5855,
      "##cal": 5856,
      "##she": 5857,
      "##over": 5858,
      "##oji": 5859,
      "##uit": 5860,
      "##MP": 5861,
      "##bay": 5862,
      "##vine": 5863,
      "##PE": 5864,
      "tool": 5865,
      "##inburgh": 5866,
      "##eroute": 5867,
      "forty": 5868,
      "forcast": 5869,
      "##esh": 5870,
      "##ingo": 5871,
      "##oura": 5872,
      "##ism": 5873,
      "insp": 5874,
      "##icure": 5875,
      "onto": 5876,
      "##ged": 5877,
      "##than": 5878,
      "##ending": 5879,
      "##unge": 5880,
      "##itz": 5881,
      "steak": 5882,
      "playdate": 5883,
      "##ional": 5884,
      "##ili": 5885,
      "##ils": 5886,
      "##amas": 5887,
      "rains": 5888,
      "Sharon": 5889,
      "chains": 5890,
      "works": 5891,
      "Stat": 5892,
      "Study": 5893,
      "Thumb": 5894,
      "climate": 5895,
      "##verse": 5896,
      "##ieve": 5897,
      "##rost": 5898,
      "mob": 5899,
      "repeated": 5900,
      "supper": 5901,
      "Dismiss": 5902,
      "paying": 5903,
      "real": 5904,
      "Travel": 5905,
      "Marsh": 5906,
      "Branson": 5907,
      "warmest": 5908,
      "adop": 5909,
      "closing": 5910,
      "subway": 5911,
      "scre": 5912,
      "Myers": 5913,
      "##AND": 5914,
      "Louisiana": 5915,
      "Edinburgh": 5916,
      "215": 5917,
      "##iza": 5918,
      "metro": 5919,
      "Eastern": 5920,
      "Union": 5921,
      "surgery": 5922,
      "Davis": 5923,
      "Flint": 5924,
      "Mozart": 5925,
      "elapsed": 5926,
      "Trenton": 5927,
      "campus": 5928,
      "laptop": 5929,
      "includ": 5930,
      "blocks": 5931,
      "Sunny": 5932,
      "Abby": 5933,
      "Kingdom": 5934,
      "Belt": 5935,
      "##leton": 5936,
      "rolling": 5937,
      "College": 5938,
      "membership": 5939,
      "kitchen": 5940,
      "Usher": 5941,
      "Wilmington": 5942,
      "Lori": 5943,
      "centimeters": 5944,
      "Girls": 5945,
      "##emonade": 5946,
      "menu": 5947,
      "##stablish": 5948,
      "important": 5949,
      "##ymphony": 5950,
      "savings": 5951,
      "38": 5952,
      "58": 5953,
      "Ap": 5954,
      "Akron": 5955,
      "Ball": 5956,
      "Boulevard": 5957,
      "Ca": 5958,
      "Chat": 5959,
      "Di": 5960,
      "Dem": 5961,
      "Donna": 5962,
      "EV": 5963,
      "Hong": 5964,
      "Hope": 5965,
      "Hannah": 5966,
      "Kong": 5967,
      "Lag": 5968,
      "Mother": 5969,
      "Now": 5970,
      "Name": 5971,
      "Norm": 5972,
      "Nico": 5973,
      "OFF": 5974,
      "PH": 5975,
      "Pass": 5976,
      "Rt": 5977,
      "Ret": 5978,
      "Rio": 5979,
      "Randy": 5980,
      "Soccer": 5981,
      "Till": 5982,
      "Ted": 5983,
      "Tara": 5984,
      "Uber": 5985,
      "Ven": 5986,
      "aquarium": 5987,
      "coun": 5988,
      "dou": 5989,
      "gate": 5990,
      "gear": 5991,
      "hike": 5992,
      "ill": 5993,
      "lull": 5994,
      "nc": 5995,
      "nails": 5996,
      "oregon": 5997,
      "palo": 5998,
      "pensacola": 5999,
      "rather": 6000,
      "rate": 6001,
      "rich": 6002,
      "rice": 6003,
      "sell": 6004,
      "ter": 6005,
      "tide": 6006,
      "tac": 6007,
      "tak": 6008,
      "ut": 6009,
      "van": 6010,
      "volleyball": 6011,
      "##no": 6012,
      "##ease": 6013,
      "##AST": 6014,
      "##IE": 6015,
      "##chat": 6016,
      "##mont": 6017,
      "##fayette": 6018,
      "##yer": 6019,
      "##pl": 6020,
      "##orary": 6021,
      "##erosm": 6022,
      "##atoes": 6023,
      "##arct": 6024,
      "##esham": 6025,
      "alto": 6026,
      "##imb": 6027,
      "##raight": 6028,
      "trave": 6029,
      "amend": 6030,
      "##rible": 6031,
      "##alie": 6032,
      "liked": 6033,
      "##elly": 6034,
      "convers": 6035,
      "driver": 6036,
      "##ewel": 6037,
      "canada": 6038,
      "Stone": 6039,
      "##icks": 6040,
      "clar": 6041,
      "code": 6042,
      "##onda": 6043,
      "happens": 6044,
      "nightly": 6045,
      "doesn": 6046,
      "##apore": 6047,
      "carnival": 6048,
      "##arket": 6049,
      "##ives": 6050,
      "##iven": 6051,
      "##ivic": 6052,
      "dev": 6053,
      "spin": 6054,
      "calling": 6055,
      "runs": 6056,
      "Fran": 6057,
      "Disc": 6058,
      "wearing": 6059,
      "Train": 6060,
      "Marc": 6061,
      "Marie": 6062,
      "funeral": 6063,
      "instrumental": 6064,
      "##ride": 6065,
      "progress": 6066,
      "emoji": 6067,
      "Initiate": 6068,
      "##ova": 6069,
      "begins": 6070,
      "##oker": 6071,
      "science": 6072,
      "##araoke": 6073,
      "packing": 6074,
      "Elton": 6075,
      "Chesney": 6076,
      "joe": 6077,
      "united": 6078,
      "##ypt": 6079,
      "##ermarket": 6080,
      "missed": 6081,
      "Jeremy": 6082,
      "Beer": 6083,
      "Antarct": 6084,
      "Lakeland": 6085,
      "Danny": 6086,
      "Todd": 6087,
      "287": 6088,
      "washing": 6089,
      "70s": 6090,
      "ALARMS": 6091,
      "##aza": 6092,
      "image": 6093,
      "cousins": 6094,
      "275": 6095,
      "Okay": 6096,
      "##ementary": 6097,
      "earliest": 6098,
      "thanksgiving": 6099,
      "estimate": 6100,
      "Barry": 6101,
      "peter": 6102,
      "openings": 6103,
      "Jonathan": 6104,
      "Farmers": 6105,
      "course": 6106,
      "SHOW": 6107,
      "Carla": 6108,
      "Rosa": 6109,
      "farmer": 6110,
      "farmers": 6111,
      "collect": 6112,
      "##elaide": 6113,
      "Fireworks": 6114,
      "Rolling": 6115,
      "##immee": 6116,
      "Larry": 6117,
      "occurring": 6118,
      "Rhode": 6119,
      "Galveston": 6120,
      "sandals": 6121,
      "emplo": 6122,
      "##yrus": 6123,
      "##ribe": 6124,
      "Cancun": 6125,
      "Breakfast": 6126,
      "Super": 6127,
      "notification": 6128,
      "##uebec": 6129,
      "BETWE": 6130,
      "Shakira": 6131,
      "cupcakes": 6132,
      "Tonight": 6133,
      "survey": 6134,
      "mobile": 6135,
      "##erosmith": 6136,
      "BETWEEN": 6137,
      "61": 6138,
      "Average": 6139,
      "APP": 6140,
      "Ban": 6141,
      "Carm": 6142,
      "Cong": 6143,
      "Card": 6144,
      "Cathy": 6145,
      "DE": 6146,
      "DJ": 6147,
      "Dor": 6148,
      "Dent": 6149,
      "Dev": 6150,
      "Eg": 6151,
      "Fed": 6152,
      "Favor": 6153,
      "Fleet": 6154,
      "Gun": 6155,
      "Gina": 6156,
      "Hum": 6157,
      "Hold": 6158,
      "HEA": 6159,
      "Jas": 6160,
      "Ly": 6161,
      "Liver": 6162,
      "Mic": 6163,
      "Mason": 6164,
      "Mandy": 6165,
      "Miley": 6166,
      "Push": 6167,
      "Quebec": 6168,
      "Rub": 6169,
      "Sur": 6170,
      "Snow": 6171,
      "Sorry": 6172,
      "SEND": 6173,
      "Ur": 6174,
      "Use": 6175,
      "Wind": 6176,
      "Well": 6177,
      "Yellow": 6178,
      "Zara": 6179,
      "ari": 6180,
      "bible": 6181,
      "birmingham": 6182,
      "came": 6183,
      "deal": 6184,
      "dusk": 6185,
      "iphone": 6186,
      "king": 6187,
      "lu": 6188,
      "mac": 6189,
      "ocl": 6190,
      "pink": 6191,
      "pumpkin": 6192,
      "rington": 6193,
      "salt": 6194,
      "salsa": 6195,
      "ur": 6196,
      "vide": 6197,
      "whe": 6198,
      "win": 6199,
      "worth": 6200,
      "waking": 6201,
      "##rop": 6202,
      "##rance": 6203,
      "##gomery": 6204,
      "##cribe": 6205,
      "##aire": 6206,
      "##sy": 6207,
      "##oh": 6208,
      "##oth": 6209,
      "##othing": 6210,
      "##tles": 6211,
      "##US": 6212,
      "##less": 6213,
      "##fect": 6214,
      "##0s": 6215,
      "##eria": 6216,
      "##anch": 6217,
      "##reve": 6218,
      "##imes": 6219,
      "reminds": 6220,
      "thaw": 6221,
      "##eka": 6222,
      "##uring": 6223,
      "##urora": 6224,
      "minn": 6225,
      "##elia": 6226,
      "##ighton": 6227,
      "even": 6228,
      "##iden": 6229,
      "##idian": 6230,
      "##ancial": 6231,
      "stud": 6232,
      "##ilies": 6233,
      "shall": 6234,
      "shamp": 6235,
      "share": 6236,
      "##uments": 6237,
      "chir": 6238,
      "chris": 6239,
      "offer": 6240,
      "Stuff": 6241,
      "Stones": 6242,
      "##fort": 6243,
      "clin": 6244,
      "Anchorage": 6245,
      "News": 6246,
      "##ceed": 6247,
      "##agement": 6248,
      "##aghett": 6249,
      "15min": 6250,
      "snowstorm": 6251,
      "nightlife": 6252,
      "##aples": 6253,
      "reception": 6254,
      "Spec": 6255,
      "dehli": 6256,
      "##odont": 6257,
      "spears": 6258,
      "sheets": 6259,
      "plant": 6260,
      "groups": 6261,
      "##hok": 6262,
      "payments": 6263,
      "##upac": 6264,
      "avoids": 6265,
      "##portation": 6266,
      "option": 6267,
      "quest": 6268,
      "windows": 6269,
      "install": 6270,
      "lower": 6271,
      "Amber": 6272,
      "400": 6273,
      "billboard": 6274,
      "sundays": 6275,
      "##ATION": 6276,
      "breath": 6277,
      "Close": 6278,
      "Musical": 6279,
      "Adelaide": 6280,
      "##ilda": 6281,
      "presents": 6282,
      "feeding": 6283,
      "sleeping": 6284,
      "Arlington": 6285,
      "uni": 6286,
      "##ANT": 6287,
      "booked": 6288,
      "greg": 6289,
      "metallica": 6290,
      "sweatshirt": 6291,
      "northbound": 6292,
      "Comic": 6293,
      "##ylan": 6294,
      "Places": 6295,
      "fourth": 6296,
      "Ass": 6297,
      "Aspen": 6298,
      "Ashok": 6299,
      "Siber": 6300,
      "incr": 6301,
      "Trans": 6302,
      "Christina": 6303,
      "Coral": 6304,
      "Montgomery": 6305,
      "defrost": 6306,
      "Lafayette": 6307,
      "Twitter": 6308,
      "Instead": 6309,
      "Leah": 6310,
      "STOP": 6311,
      "Huntington": 6312,
      "Collins": 6313,
      "REMINDERS": 6314,
      "camera": 6315,
      "beatles": 6316,
      "bored": 6317,
      "Depot": 6318,
      "sarah": 6319,
      "sarasota": 6320,
      "Singapore": 6321,
      "Words": 6322,
      "length": 6323,
      "##ertainment": 6324,
      "Prague": 6325,
      "audit": 6326,
      "own": 6327,
      "sprinkler": 6328,
      "circus": 6329,
      "families": 6330,
      "hosting": 6331,
      "Fastest": 6332,
      "fitness": 6333,
      "internet": 6334,
      "charts": 6335,
      "Danielle": 6336,
      "Brittany": 6337,
      "Lancaster": 6338,
      "Connecticut": 6339,
      "columbus": 6340,
      "Becky": 6341,
      "Dubai": 6342,
      "Wyoming": 6343,
      "##raphy": 6344,
      "rainboots": 6345,
      "##udios": 6346,
      "Nicole": 6347,
      "Antarctica": 6348,
      "oclock": 6349,
      "##reveport": 6350,
      "shampoo": 6351,
      "##aghetti": 6352,
      "07": 6353,
      "330": 6354,
      "68": 6355,
      "88": 6356,
      "Ac": 6357,
      "AZ": 6358,
      "Aly": 6359,
      "After": 6360,
      "Bor": 6361,
      "Brist": 6362,
      "Ballet": 6363,
      "Cent": 6364,
      "Cro": 6365,
      "Cour": 6366,
      "Casey": 6367,
      "DM": 6368,
      "Foo": 6369,
      "First": 6370,
      "Fox": 6371,
      "Fighters": 6372,
      "Gab": 6373,
      "Hor": 6374,
      "Hav": 6375,
      "Hits": 6376,
      "Kh": 6377,
      "Kenn": 6378,
      "LO": 6379,
      "Len": 6380,
      "Latest": 6381,
      "Library": 6382,
      "Lana": 6383,
      "Mack": 6384,
      "Mans": 6385,
      "MAN": 6386,
      "National": 6387,
      "Oahu": 6388,
      "Pleas": 6389,
      "Ross": 6390,
      "Rox": 6391,
      "SU": 6392,
      "Son": 6393,
      "Sol": 6394,
      "Sinatra": 6395,
      "Tas": 6396,
      "Troy": 6397,
      "Team": 6398,
      "UT": 6399,
      "Wipe": 6400,
      "Wonder": 6401,
      "cant": 6402,
      "cust": 6403,
      "cater": 6404,
      "calm": 6405,
      "curb": 6406,
      "dust": 6407,
      "ess": 6408,
      "factor": 6409,
      "hub": 6410,
      "hilo": 6411,
      "lift": 6412,
      "lobby": 6413,
      "matt": 6414,
      "meteor": 6415,
      "pub": 6416,
      "peak": 6417,
      "ra": 6418,
      "row": 6419,
      "ramp": 6420,
      "##ror": 6421,
      "##rang": 6422,
      "##ias": 6423,
      "##ige": 6424,
      "##gow": 6425,
      "##IP": 6426,
      "##GO": 6427,
      "##aj": 6428,
      "##away": 6429,
      "##hi": 6430,
      "##ban": 6431,
      "##bell": 6432,
      "##boy": 6433,
      "##vy": 6434,
      "##pot": 6435,
      "##paste": 6436,
      "##zen": 6437,
      "##ator": 6438,
      "##atlin": 6439,
      "##etho": 6440,
      "alabama": 6441,
      "##anic": 6442,
      "##emet": 6443,
      "##asgow": 6444,
      "ing": 6445,
      "##icle": 6446,
      "weight": 6447,
      "isn": 6448,
      "##ractor": 6449,
      "traps": 6450,
      "beh": 6451,
      "##elve": 6452,
      "##riage": 6453,
      "haw": 6454,
      "stones": 6455,
      "##ality": 6456,
      "##amook": 6457,
      "shoot": 6458,
      "shoe": 6459,
      "Shore": 6460,
      "Shawn": 6461,
      "chips": 6462,
      "##opy": 6463,
      "Store": 6464,
      "Starbucks": 6465,
      "##icky": 6466,
      "clothing": 6467,
      "Angie": 6468,
      "##ovel": 6469,
      "##ags": 6470,
      "routine": 6471,
      "ways": 6472,
      "comic": 6473,
      "grill": 6474,
      "grunge": 6475,
      "Dod": 6476,
      "broken": 6477,
      "##ters": 6478,
      "orth": 6479,
      "carp": 6480,
      "bud": 6481,
      "Alicia": 6482,
      "floss": 6483,
      "110": 6484,
      "expire": 6485,
      "deb": 6486,
      "listened": 6487,
      "##ueue": 6488,
      "spa": 6489,
      "##achine": 6490,
      "##acey": 6491,
      "donuts": 6492,
      "Reschedule": 6493,
      "##aves": 6494,
      "##avig": 6495,
      "French": 6496,
      "##ibiot": 6497,
      "Tracy": 6498,
      "Travis": 6499,
      "Theatre": 6500,
      "##annon": 6501,
      "quality": 6502,
      "Brenda": 6503,
      "pray": 6504,
      "buses": 6505,
      "middle": 6506,
      "goodnight": 6507,
      "hitting": 6508,
      "boil": 6509,
      "phil": 6510,
      "phys": 6511,
      "Parker": 6512,
      "Grove": 6513,
      "closet": 6514,
      "closings": 6515,
      "brew": 6516,
      "slowdown": 6517,
      "Blake": 6518,
      "Peters": 6519,
      "60s": 6520,
      "Forest": 6521,
      "Tommy": 6522,
      "Elm": 6523,
      "regular": 6524,
      "gotten": 6525,
      "unlike": 6526,
      "##lines": 6527,
      "##erman": 6528,
      "Quit": 6529,
      "flower": 6530,
      "Countdown": 6531,
      "shuttle": 6532,
      "Greensboro": 6533,
      "eastern": 6534,
      "Harbor": 6535,
      "##mania": 6536,
      "fixed": 6537,
      "color": 6538,
      "colorado": 6539,
      "levels": 6540,
      "Glasgow": 6541,
      "Expected": 6542,
      "laps": 6543,
      "staying": 6544,
      "McC": 6545,
      "charge": 6546,
      "labor": 6547,
      "slick": 6548,
      "sessions": 6549,
      "halloween": 6550,
      "happened": 6551,
      "Maggie": 6552,
      "antibiot": 6553,
      "Walker": 6554,
      "Walking": 6555,
      "Martin": 6556,
      "danny": 6557,
      "Calculate": 6558,
      "autom": 6559,
      "Northeast": 6560,
      "Decrease": 6561,
      "Natalie": 6562,
      "george": 6563,
      "Bowl": 6564,
      "Grace": 6565,
      "deadline": 6566,
      "exhibits": 6567,
      "extended": 6568,
      "Kissimmee": 6569,
      "consider": 6570,
      "crossing": 6571,
      "Silver": 6572,
      "Freeway": 6573,
      "Community": 6574,
      "TEMP": 6575,
      "groomer": 6576,
      "Gaming": 6577,
      "Valentine": 6578,
      "Irvine": 6579,
      "Bronx": 6580,
      "Turkey": 6581,
      "Quickest": 6582,
      "toothpaste": 6583,
      "gymnastics": 6584,
      "Bahamas": 6585,
      "Publix": 6586,
      "supermarket": 6587,
      "papers": 6588,
      "buffalo": 6589,
      "Everett": 6590,
      "LEFT": 6591,
      "balance": 6592,
      "podcast": 6593,
      "adoption": 6594,
      "Tillamook": 6595,
      "couns": 6596,
      "taken": 6597,
      "conversation": 6598,
      "Egypt": 6599,
      "videos": 6600,
      "increments": 6601,
      "Bristol": 6602,
      "Tasmania": 6603,
      "##atlinburg": 6604,
      "##ethoven": 6605,
      "09": 6606,
      "47": 6607,
      "5PM": 6608,
      "Audio": 6609,
      "Cra": 6610,
      "Cut": 6611,
      "Cross": 6612,
      "Dam": 6613,
      "Death": 6614,
      "District": 6615,
      "Diamond": 6616,
      "Dylan": 6617,
      "Ep": 6618,
      "EX": 6619,
      "Ear": 6620,
      "Establish": 6621,
      "Father": 6622,
      "Football": 6623,
      "Gall": 6624,
      "God": 6625,
      "Hob": 6626,
      "HIM": 6627,
      "Hilton": 6628,
      "Kayla": 6629,
      "Lion": 6630,
      "Lil": 6631,
      "Lam": 6632,
      "Men": 6633,
      "Mal": 6634,
      "Ole": 6635,
      "Pay": 6636,
      "Pain": 6637,
      "Post": 6638,
      "Plym": 6639,
      "Rush": 6640,
      "Term": 6641,
      "Wat": 6642,
      "WANT": 6643,
      "age": 6644,
      "cra": 6645,
      "crow": 6646,
      "cap": 6647,
      "cash": 6648,
      "du": 6649,
      "fur": 6650,
      "gal": 6651,
      "hay": 6652,
      "hon": 6653,
      "kona": 6654,
      "lay": 6655,
      "luck": 6656,
      "latin": 6657,
      "lemonade": 6658,
      "mind": 6659,
      "mag": 6660,
      "mask": 6661,
      "pon": 6662,
      "pur": 6663,
      "raleigh": 6664,
      "sons": 6665,
      "tucson": 6666,
      "wr": 6667,
      "wood": 6668,
      "zip": 6669,
      "##ien": 6670,
      "##ients": 6671,
      "##iation": 6672,
      "##ique": 6673,
      "##gate": 6674,
      "##ever": 6675,
      "##eech": 6676,
      "##IA": 6677,
      "##IDAY": 6678,
      "##ole": 6679,
      "##then": 6680,
      "##ms": 6681,
      "##RD": 6682,
      "##URE": 6683,
      "##uch": 6684,
      "##uum": 6685,
      "##lock": 6686,
      "##fess": 6687,
      "##pus": 6688,
      "##ka": 6689,
      "##04": 6690,
      "##helor": 6691,
      "##eri": 6692,
      "##erne": 6693,
      "##esno": 6694,
      "##inger": 6695,
      "##inder": 6696,
      "##asu": 6697,
      "##asy": 6698,
      "##lls": 6699,
      "web": 6700,
      "throw": 6701,
      "##iller": 6702,
      "##illage": 6703,
      "##urg": 6704,
      "##ury": 6705,
      "france": 6706,
      "##thouse": 6707,
      "##elt": 6708,
      "##eling": 6709,
      "##elyn": 6710,
      "##essa": 6711,
      "##oosa": 6712,
      "ham": 6713,
      "##itations": 6714,
      "stock": 6715,
      "##iona": 6716,
      "##aining": 6717,
      "##stand": 6718,
      "shovel": 6719,
      "Chuck": 6720,
      "connect": 6721,
      "Shreveport": 6722,
      "##erty": 6723,
      "league": 6724,
      "##ewing": 6725,
      "##urel": 6726,
      "##oons": 6727,
      "Studios": 6728,
      "##urry": 6729,
      "arts": 6730,
      "Anu": 6731,
      "##egr": 6732,
      "##olf": 6733,
      "rode": 6734,
      "snowed": 6735,
      "happenings": 6736,
      "##apest": 6737,
      "dinners": 6738,
      "Alan": 6739,
      "twelve": 6740,
      "resort": 6741,
      "spend": 6742,
      "Box": 6743,
      "##quet": 6744,
      "##ubb": 6745,
      "Lets": 6746,
      "Athens": 6747,
      "Conn": 6748,
      "##rence": 6749,
      "inters": 6750,
      "queens": 6751,
      "prop": 6752,
      "Mayer": 6753,
      "readings": 6754,
      "removed": 6755,
      "blvd": 6756,
      "dismiss": 6757,
      "pharm": 6758,
      "Moms": 6759,
      "Gresham": 6760,
      "##ATE": 6761,
      "themed": 6762,
      "adult": 6763,
      "closure": 6764,
      "financial": 6765,
      "Blues": 6766,
      "##unted": 6767,
      "##evie": 6768,
      "coolest": 6769,
      "gifts": 6770,
      "maroon": 6771,
      "##iesta": 6772,
      "passport": 6773,
      "bachelor": 6774,
      "invitations": 6775,
      "Luis": 6776,
      "cancer": 6777,
      "##STANCE": 6778,
      "small": 6779,
      "285": 6780,
      "mothers": 6781,
      "Emp": 6782,
      "Plan": 6783,
      "easter": 6784,
      "predictions": 6785,
      "Heights": 6786,
      "Clearwater": 6787,
      "difference": 6788,
      "biggest": 6789,
      "crash": 6790,
      "Albert": 6791,
      "barre": 6792,
      "assistant": 6793,
      "Missy": 6794,
      "LIE": 6795,
      "Laurel": 6796,
      "electron": 6797,
      "Keys": 6798,
      "McD": 6799,
      "Joshua": 6800,
      "Rename": 6801,
      "WEEKEND": 6802,
      "##block": 6803,
      "Hunter": 6804,
      "Meridian": 6805,
      "##mission": 6806,
      "transportation": 6807,
      "Angela": 6808,
      "danger": 6809,
      "##ences": 6810,
      "vitamin": 6811,
      "backups": 6812,
      "##leases": 6813,
      "maximum": 6814,
      "BRID": 6815,
      "MONDAY": 6816,
      "england": 6817,
      "DISTANCE": 6818,
      "discuss": 6819,
      "lengthen": 6820,
      "Friends": 6821,
      "Golden": 6822,
      "Alternate": 6823,
      "Alternative": 6824,
      "cruise": 6825,
      "wilkes": 6826,
      "silent": 6827,
      "crockpot": 6828,
      "massage": 6829,
      "allergy": 6830,
      "senior": 6831,
      "sharp": 6832,
      "##ibbean": 6833,
      "cowork": 6834,
      "oakland": 6835,
      "televis": 6836,
      "episode": 6837,
      "screening": 6838,
      "travell": 6839,
      "Favorite": 6840,
      "Fleetwood": 6841,
      "ringtone": 6842,
      "chirop": 6843,
      "uniform": 6844,
      "hubby": 6845,
      "ingred": 6846,
      "hawaii": 6847,
      "Plymouth": 6848,
      "130": 6849,
      "AU": 6850,
      "Aerosmith": 6851,
      "Bi": 6852,
      "Bem": 6853,
      "Bible": 6854,
      "Bapt": 6855,
      "Cow": 6856,
      "Civic": 6857,
      "Fiona": 6858,
      "HW": 6859,
      "HEAR": 6860,
      "Holland": 6861,
      "IL": 6862,
      "Journey": 6863,
      "KC": 6864,
      "Kill": 6865,
      "Kel": 6866,
      "Les": 6867,
      "Light": 6868,
      "LEA": 6869,
      "Mile": 6870,
      "Near": 6871,
      "OUT": 6872,
      "Pea": 6873,
      "PST": 6874,
      "Riley": 6875,
      "RIGHT": 6876,
      "ROUT": 6877,
      "Sec": 6878,
      "Side": 6879,
      "Tre": 6880,
      "Temecula": 6881,
      "UC": 6882,
      "Were": 6883,
      "Wats": 6884,
      "Women": 6885,
      "Waco": 6886,
      "Yeah": 6887,
      "akron": 6888,
      "bb": 6889,
      "bon": 6890,
      "brit": 6891,
      "data": 6892,
      "given": 6893,
      "hrs": 6894,
      "jane": 6895,
      "jump": 6896,
      "jeff": 6897,
      "lately": 6898,
      "mood": 6899,
      "net": 6900,
      "rt": 6901,
      "races": 6902,
      "sea": 6903,
      "soo": 6904,
      "tar": 6905,
      "veg": 6906,
      "women": 6907,
      "##gly": 6908,
      "##game": 6909,
      "##ein": 6910,
      "##eart": 6911,
      "##GA": 6912,
      "##con": 6913,
      "##was": 6914,
      "##mar": 6915,
      "##hand": 6916,
      "##bra": 6917,
      "##bul": 6918,
      "##lit": 6919,
      "##ded": 6920,
      "##via": 6921,
      "##pone": 6922,
      "##Heart": 6923,
      "##jo": 6924,
      "##inu": 6925,
      "##erning": 6926,
      "##atia": 6927,
      "alb": 6928,
      "mean": 6929,
      "myrtle": 6930,
      "incoming": 6931,
      "##imals": 6932,
      "##lee": 6933,
      "##illa": 6934,
      "beef": 6935,
      "sets": 6936,
      "Seth": 6937,
      "amer": 6938,
      "##eau": 6939,
      "##ecue": 6940,
      "##ido": 6941,
      "##idji": 6942,
      "##asting": 6943,
      "##change": 6944,
      "##ists": 6945,
      "##itney": 6946,
      "straight": 6947,
      "##alian": 6948,
      "##str": 6949,
      "tonights": 6950,
      "Chad": 6951,
      "Shannon": 6952,
      "chore": 6953,
      "forecasts": 6954,
      "##emporary": 6955,
      "newport": 6956,
      "##ddy": 6957,
      "##icki": 6958,
      "##oses": 6959,
      "Area": 6960,
      "Anne": 6961,
      "##verly": 6962,
      "apple": 6963,
      "##olin": 6964,
      "showings": 6965,
      "texting": 6966,
      "##iesburg": 6967,
      "##aping": 6968,
      "##iful": 6969,
      "bul": 6970,
      "flip": 6971,
      "speak": 6972,
      "reopen": 6973,
      "##structions": 6974,
      "constructions": 6975,
      "plumber": 6976,
      "Fremont": 6977,
      "##ansing": 6978,
      "Orchestra": 6979,
      "washer": 6980,
      "interest": 6981,
      "Brighton": 6982,
      "prices": 6983,
      "busiest": 6984,
      "midtown": 6985,
      "##INT": 6986,
      "Evan": 6987,
      "blu": 6988,
      "asap": 6989,
      "toward": 6990,
      "opens": 6991,
      "perio": 6992,
      "##athons": 6993,
      "##ovato": 6994,
      "##ESS": 6995,
      "##ESDAY": 6996,
      "thursdays": 6997,
      "##LAS": 6998,
      "quickly": 6999,
      "contest": 7000,
      "slower": 7001,
      "##eoria": 7002,
      "congratulations": 7003,
      "lots": 7004,
      "Scr": 7005,
      "1980": 7006,
      "sky": 7007,
      "##ICK": 7008,
      "Grande": 7009,
      "##angers": 7010,
      "Opera": 7011,
      "vacuum": 7012,
      "Erin": 7013,
      "English": 7014,
      "##regard": 7015,
      "##iety": 7016,
      "##ietta": 7017,
      "Shelly": 7018,
      "entertainment": 7019,
      "Emma": 7020,
      "potatoes": 7021,
      "##attiesburg": 7022,
      "Harvard": 7023,
      "specific": 7024,
      "apointment": 7025,
      "##brook": 7026,
      "childrens": 7027,
      "Morris": 7028,
      "glad": 7029,
      "glasses": 7030,
      "guests": 7031,
      "LIST": 7032,
      "Jessie": 7033,
      "Glend": 7034,
      "Sunrise": 7035,
      "MAKE": 7036,
      "bayside": 7037,
      "Midnight": 7038,
      "Macon": 7039,
      "##minutes": 7040,
      "##rawberry": 7041,
      "Patty": 7042,
      "Camden": 7043,
      "Neil": 7044,
      "Label": 7045,
      "crafts": 7046,
      "involve": 7047,
      "417": 7048,
      "easiest": 7049,
      "karate": 7050,
      "conventions": 7051,
      "Darwin": 7052,
      "Lucie": 7053,
      "Cherry": 7054,
      "Running": 7055,
      "Using": 7056,
      "Hayward": 7057,
      "origin": 7058,
      "Costco": 7059,
      "engagement": 7060,
      "large": 7061,
      "Friendly": 7062,
      "organize": 7063,
      "concerning": 7064,
      "Suz": 7065,
      "suggestions": 7066,
      "Download": 7067,
      "workshops": 7068,
      "scheduling": 7069,
      "Something": 7070,
      "nature": 7071,
      "635": 7072,
      "Hartford": 7073,
      "Youngstown": 7074,
      "Estimated": 7075,
      "Logan": 7076,
      "Roger": 7077,
      "Snapchat": 7078,
      "blowing": 7079,
      "Gilbert": 7080,
      "Diane": 7081,
      "Norman": 7082,
      "Venice": 7083,
      "Dentist": 7084,
      "Liverpool": 7085,
      "Special": 7086,
      "##odontist": 7087,
      "MANY": 7088,
      "essay": 7089,
      "Olean": 7090,
      "intersection": 7091,
      "television": 7092,
      "ingredients": 7093,
      "Bemidji": 7094,
      "ROUTE": 7095,
      "bbq": 7096,
      "soothing": 7097,
      "##washer": 7098,
      "1h": 7099,
      "86": 7100,
      "830": 7101,
      "930": 7102,
      "Ag": 7103,
      "Ah": 7104,
      "Aub": 7105,
      "Bakers": 7106,
      "Cyrus": 7107,
      "Dun": 7108,
      "Dead": 7109,
      "DAY": 7110,
      "Donald": 7111,
      "Erie": 7112,
      "Fel": 7113,
      "Fil": 7114,
      "Flow": 7115,
      "Flea": 7116,
      "Gay": 7117,
      "Gardens": 7118,
      "Hand": 7119,
      "Helena": 7120,
      "Kind": 7121,
      "Mi": 7122,
      "Mir": 7123,
      "Mia": 7124,
      "Mina": 7125,
      "Master": 7126,
      "NO": 7127,
      "Nina": 7128,
      "Ori": 7129,
      "Ped": 7130,
      "Pilots": 7131,
      "Right": 7132,
      "Rod": 7133,
      "RES": 7134,
      "Rev": 7135,
      "SP": 7136,
      "SK": 7137,
      "Sed": 7138,
      "Sia": 7139,
      "Tus": 7140,
      "Tours": 7141,
      "Tupac": 7142,
      "Wau": 7143,
      "Walt": 7144,
      "boulevard": 7145,
      "crying": 7146,
      "dye": 7147,
      "foo": 7148,
      "fac": 7149,
      "foot": 7150,
      "fuel": 7151,
      "fifth": 7152,
      "giving": 7153,
      "hunt": 7154,
      "jul": 7155,
      "kick": 7156,
      "kansas": 7157,
      "ladies": 7158,
      "mart": 7159,
      "oh": 7160,
      "pea": 7161,
      "pant": 7162,
      "queue": 7163,
      "rail": 7164,
      "seat": 7165,
      "sort": 7166,
      "savannah": 7167,
      "sewing": 7168,
      "tire": 7169,
      "trees": 7170,
      "universal": 7171,
      "wal": 7172,
      "wall": 7173,
      "western": 7174,
      "##NIGHT": 7175,
      "##Graw": 7176,
      "##sm": 7177,
      "##say": 7178,
      "##tery": 7179,
      "##RY": 7180,
      "##uart": 7181,
      "##hip": 7182,
      "##haw": 7183,
      "##lain": 7184,
      "##fit": 7185,
      "##fish": 7186,
      "##pt": 7187,
      "##ple": 7188,
      "##pear": 7189,
      "##paper": 7190,
      "##xx": 7191,
      "##joy": 7192,
      "##inet": 7193,
      "##orcy": 7194,
      "##erve": 7195,
      "##anger": 7196,
      "##ishes": 7197,
      "##kel": 7198,
      "##leased": 7199,
      "thought": 7200,
      "##edians": 7201,
      "fro": 7202,
      "##thur": 7203,
      "##elin": 7204,
      "tomorow": 7205,
      "##essages": 7206,
      "##echn": 7207,
      "##ooked": 7208,
      "##ooga": 7209,
      "##ung": 7210,
      "timeout": 7211,
      "##ista": 7212,
      "##pport": 7213,
      "##still": 7214,
      "##antasy": 7215,
      "Chili": 7216,
      "##umul": 7217,
      "Shakes": 7218,
      "bye": 7219,
      "Stevie": 7220,
      "dayton": 7221,
      "daylight": 7222,
      "arrang": 7223,
      "##vern": 7224,
      "15am": 7225,
      "##eena": 7226,
      "200": 7227,
      "##mash": 7228,
      "Alt": 7229,
      "suit": 7230,
      "research": 7231,
      "results": 7232,
      "releases": 7233,
      "released": 7234,
      "calls": 7235,
      "Boerne": 7236,
      "From": 7237,
      "payday": 7238,
      "Conroe": 7239,
      "washed": 7240,
      "##umba": 7241,
      "pretty": 7242,
      "cleaners": 7243,
      "boiled": 7244,
      "blog": 7245,
      "LAST": 7246,
      "##ERAT": 7247,
      "halfway": 7248,
      "Caribbean": 7249,
      "trains": 7250,
      "closer": 7251,
      "compared": 7252,
      "Block": 7253,
      "packages": 7254,
      "toronto": 7255,
      "##apper": 7256,
      "Cheese": 7257,
      "Beethoven": 7258,
      "Messages": 7259,
      "##ooper": 7260,
      "##loaf": 7261,
      "Robin": 7262,
      "Plano": 7263,
      "exercises": 7264,
      "Miles": 7265,
      "Heather": 7266,
      "Redlands": 7267,
      "soundtracks": 7268,
      "eleven": 7269,
      "singles": 7270,
      "294": 7271,
      "ballgame": 7272,
      "else": 7273,
      "eliminate": 7274,
      "elementary": 7275,
      "Susie": 7276,
      "neighbors": 7277,
      "guy": 7278,
      "rental": 7279,
      "FRIDAY": 7280,
      "manhattan": 7281,
      "manila": 7282,
      "landsc": 7283,
      "talking": 7284,
      "Topeka": 7285,
      "McGraw": 7286,
      "Brew": 7287,
      "Farmington": 7288,
      "Cambridge": 7289,
      "Jefferson": 7290,
      "label": 7291,
      "trucks": 7292,
      "Buy": 7293,
      "Build": 7294,
      "##oomington": 7295,
      "HERE": 7296,
      "standstill": 7297,
      "##ultural": 7298,
      "Seas": 7299,
      "despacito": 7300,
      "covered": 7301,
      "collection": 7302,
      "Classic": 7303,
      "departure": 7304,
      "department": 7305,
      "dishwasher": 7306,
      "typical": 7307,
      "exhibit": 7308,
      "Prep": 7309,
      "centimetres": 7310,
      "brooklyn": 7311,
      "documents": 7312,
      "Lawrence": 7313,
      "knoxville": 7314,
      "premiere": 7315,
      "bridal": 7316,
      "treat": 7317,
      "Clarkson": 7318,
      "drake": 7319,
      "Cruz": 7320,
      "Campbell": 7321,
      "Lindsay": 7322,
      "Heavy": 7323,
      "Convention": 7324,
      "##ukah": 7325,
      "approx": 7326,
      "Tiffany": 7327,
      "watches": 7328,
      "bruno": 7329,
      "anticipated": 7330,
      "barbecue": 7331,
      "puppy": 7332,
      "squats": 7333,
      "double": 7334,
      "HEAV": 7335,
      "breathing": 7336,
      "Siberian": 7337,
      "Croatia": 7338,
      "Court": 7339,
      "Roxy": 7340,
      "orthodontist": 7341,
      "budget": 7342,
      "physical": 7343,
      "automat": 7344,
      "TEMPERAT": 7345,
      "further": 7346,
      "##egrass": 7347,
      "##ubbock": 7348,
      "travelling": 7349,
      "Watsapp": 7350,
      "Glendale": 7351,
      "##peare": 7352,
      "72": 7353,
      "Aut": 7354,
      "Aquarium": 7355,
      "Aurora": 7356,
      "BA": 7357,
      "BL": 7358,
      "Bed": 7359,
      "Bets": 7360,
      "CT": 7361,
      "Cand": 7362,
      "Cap": 7363,
      "COU": 7364,
      "Crystal": 7365,
      "Dream": 7366,
      "Fen": 7367,
      "Ga": 7368,
      "Gram": 7369,
      "Giants": 7370,
      "Hard": 7371,
      "Holly": 7372,
      "Haley": 7373,
      "Hemet": 7374,
      "Ky": 7375,
      "KY": 7376,
      "Kath": 7377,
      "Led": 7378,
      "Lib": 7379,
      "Lila": 7380,
      "Life": 7381,
      "Lovato": 7382,
      "Lubbock": 7383,
      "MN": 7384,
      "Mate": 7385,
      "Os": 7386,
      "Oh": 7387,
      "Ox": 7388,
      "Pm": 7389,
      "Pot": 7390,
      "Puerto": 7391,
      "Rico": 7392,
      "Reve": 7393,
      "Rode": 7394,
      "SO": 7395,
      "Soc": 7396,
      "Trist": 7397,
      "Und": 7398,
      "Wor": 7399,
      "Wes": 7400,
      "Winn": 7401,
      "YORK": 7402,
      "Zack": 7403,
      "Zumba": 7404,
      "bri": 7405,
      "bryan": 7406,
      "babies": 7407,
      "cand": 7408,
      "cass": 7409,
      "fold": 7410,
      "ga": 7411,
      "hang": 7412,
      "jess": 7413,
      "kent": 7414,
      "kiss": 7415,
      "kelly": 7416,
      "lau": 7417,
      "lakes": 7418,
      "likes": 7419,
      "ms": 7420,
      "mem": 7421,
      "nor": 7422,
      "oz": 7423,
      "palm": 7424,
      "rick": 7425,
      "ryan": 7426,
      "reroute": 7427,
      "sailing": 7428,
      "ta": 7429,
      "yo": 7430,
      "##right": 7431,
      "##iber": 7432,
      "##gy": 7433,
      "##eville": 7434,
      "##NE": 7435,
      "##cot": 7436,
      "##count": 7437,
      "##set": 7438,
      "##oa": 7439,
      "##oices": 7440,
      "##wa": 7441,
      "##Radio": 7442,
      "##hh": 7443,
      "##Mac": 7444,
      "##bow": 7445,
      "##bri": 7446,
      "##body": 7447,
      "##lton": 7448,
      "##do": 7449,
      "##vert": 7450,
      "##yll": 7451,
      "##pe": 7452,
      "##par": 7453,
      "##TS": 7454,
      "##BUM": 7455,
      "##hem": 7456,
      "##ined": 7457,
      "##erware": 7458,
      "##etts": 7459,
      "forest": 7460,
      "alumni": 7461,
      "##enne": 7462,
      "##ashes": 7463,
      "##llars": 7464,
      "##icate": 7465,
      "timberlake": 7466,
      "atlantic": 7467,
      "##rait": 7468,
      "##gebra": 7469,
      "##uren": 7470,
      "##enth": 7471,
      "##ently": 7472,
      "##usetts": 7473,
      "##eche": 7474,
      "##unities": 7475,
      "##chburg": 7476,
      "upload": 7477,
      "##ithe": 7478,
      "story": 7479,
      "Reminders": 7480,
      "##ados": 7481,
      "##ilates": 7482,
      "##pping": 7483,
      "##steen": 7484,
      "##states": 7485,
      "##stairs": 7486,
      "##stein": 7487,
      "##amm": 7488,
      "shir": 7489,
      "102": 7490,
      "104": 7491,
      "##anti": 7492,
      "Chandler": 7493,
      "##henect": 7494,
      "choose": 7495,
      "##oplin": 7496,
      "##ddie": 7497,
      "Storm": 7498,
      "Stock": 7499,
      "Stuart": 7500,
      "##anya": 7501,
      "arrange": 7502,
      "apples": 7503,
      "##ager": 7504,
      "##agan": 7505,
      "1500": 7506,
      "##ryn": 7507,
      "listed": 7508,
      "##ounds": 7509,
      "##apa": 7510,
      "##aca": 7511,
      "Alison": 7512,
      "flu": 7513,
      "Spice": 7514,
      "spaghetti": 7515,
      "speech": 7516,
      "Replace": 7517,
      "schools": 7518,
      "##achusetts": 7519,
      "counting": 7520,
      "##duc": 7521,
      "Board": 7522,
      "##iseum": 7523,
      "Fresno": 7524,
      "##ansisco": 7525,
      "downs": 7526,
      "##elsink": 7527,
      "Trail": 7528,
      "Trace": 7529,
      "Marietta": 7530,
      "##ording": 7531,
      "soap": 7532,
      "##ography": 7533,
      "##isha": 7534,
      "Brent": 7535,
      "price": 7536,
      "proof": 7537,
      "##udson": 7538,
      "stormy": 7539,
      "##aleb": 7540,
      "airline": 7541,
      "deterg": 7542,
      "saturdays": 7543,
      "ash": 7544,
      "required": 7545,
      "##aiwan": 7546,
      "disable": 7547,
      "tempe": 7548,
      "timeshe": 7549,
      "sleeve": 7550,
      "mailbox": 7551,
      "clocks": 7552,
      "Clos": 7553,
      "##okers": 7554,
      "president": 7555,
      "scot": 7556,
      "worked": 7557,
      "Scrap": 7558,
      "Schenect": 7559,
      "Eliminate": 7560,
      "Mode": 7561,
      "##eled": 7562,
      "1800": 7563,
      "Paula": 7564,
      "Beast": 7565,
      "encount": 7566,
      "169": 7567,
      "invoice": 7568,
      "Melanie": 7569,
      "Rocky": 7570,
      "Perfect": 7571,
      "##RENT": 7572,
      "smoke": 7573,
      "Produ": 7574,
      "Program": 7575,
      "Islands": 7576,
      "entrance": 7577,
      "##azing": 7578,
      "Allentown": 7579,
      "TRACK": 7580,
      "Julian": 7581,
      "PAU": 7582,
      "newspaper": 7583,
      "Noah": 7584,
      "roomm": 7585,
      "veh": 7586,
      "gaming": 7587,
      "iMessages": 7588,
      "British": 7589,
      "##IDE": 7590,
      "boxes": 7591,
      "planner": 7592,
      "Norway": 7593,
      "greenville": 7594,
      "greensboro": 7595,
      "signs": 7596,
      "Carlos": 7597,
      "labeled": 7598,
      "except": 7599,
      "Duran": 7600,
      "ALBUM": 7601,
      "Gardener": 7602,
      "Roswell": 7603,
      "bowl": 7604,
      "desk": 7605,
      "Stef": 7606,
      "Jenna": 7607,
      "meatloaf": 7608,
      "DOES": 7609,
      "##iatric": 7610,
      "bags": 7611,
      "tournaments": 7612,
      "##upperware": 7613,
      "390": 7614,
      "pole": 7615,
      "recommendations": 7616,
      "Wilson": 7617,
      "lunches": 7618,
      "Williams": 7619,
      "Backstreet": 7620,
      "DVD": 7621,
      "ROCK": 7622,
      "Depeche": 7623,
      "465": 7624,
      "riverside": 7625,
      "Meeting": 7626,
      "Massachusetts": 7627,
      "##ertaining": 7628,
      "surface": 7629,
      "banquet": 7630,
      "##ayetteville": 7631,
      "Helen": 7632,
      "bridges": 7633,
      "SEAT": 7634,
      "Royal": 7635,
      "Winston": 7636,
      "workshop": 7637,
      "Derek": 7638,
      "##aisley": 7639,
      "alexa": 7640,
      "beltway": 7641,
      "Discover": 7642,
      "##eppelin": 7643,
      "corner": 7644,
      "DRIVE": 7645,
      "patterns": 7646,
      "TobyMac": 7647,
      "gathering": 7648,
      "millimetres": 7649,
      "##caloosa": 7650,
      "inspection": 7651,
      "Demi": 7652,
      "EVENT": 7653,
      "lullaby": 7654,
      "terrible": 7655,
      "##ewelry": 7656,
      "Ruby": 7657,
      "Urban": 7658,
      "urgent": 7659,
      "whether": 7660,
      "Mansoura": 7661,
      "Pleasant": 7662,
      "custom": 7663,
      "Petersburg": 7664,
      "antibiotics": 7665,
      "Lambert": 7666,
      "Painting": 7667,
      "poncho": 7668,
      "webinar": 7669,
      "pharmacy": 7670,
      "dangerous": 7671,
      "britney": 7672,
      "##HeartRadio": 7673,
      "Bakersfield": 7674,
      "Sedona": 7675,
      "Seaside": 7676,
      "HEAVY": 7677,
      "TEMPERATURE": 7678,
      "Betsy": 7679,
      "Tristan": 7680,
      "##elsinki": 7681,
      "detergent": 7682,
      "Schenectady": 7683,
      "encounter": 7684,
      "430": 7685,
      "62": 7686,
      "73": 7687,
      "89": 7688,
      "82": 7689,
      "87": 7690,
      "AV": 7691,
      "BW": 7692,
      "Bart": 7693,
      "Bal": 7694,
      "Coc": 7695,
      "Cab": 7696,
      "Cod": 7697,
      "Cody": 7698,
      "Celine": 7699,
      "Du": 7700,
      "Dre": 7701,
      "Dea": 7702,
      "Dee": 7703,
      "Dix": 7704,
      "Deep": 7705,
      "Ent": 7706,
      "Esc": 7707,
      "Fly": 7708,
      "Fashion": 7709,
      "Glor": 7710,
      "Gwen": 7711,
      "Gatlinburg": 7712,
      "Hy": 7713,
      "Halt": 7714,
      "Hulu": 7715,
      "Hilda": 7716,
      "Hudson": 7717,
      "Jag": 7718,
      "Joplin": 7719,
      "Kay": 7720,
      "Kaley": 7721,
      "Kirk": 7722,
      "MIL": 7723,
      "Mrs": 7724,
      "NA": 7725,
      "Nich": 7726,
      "Nova": 7727,
      "Pike": 7728,
      "Pant": 7729,
      "PLA": 7730,
      "Peak": 7731,
      "PICK": 7732,
      "Paisley": 7733,
      "Ru": 7734,
      "Row": 7735,
      "Rad": 7736,
      "Rena": 7737,
      "Rita": 7738,
      "Rapper": 7739,
      "Sch": 7740,
      "Ther": 7741,
      "Tour": 7742,
      "Tupperware": 7743,
      "Vet": 7744,
      "Vista": 7745,
      "Whe": 7746,
      "Want": 7747,
      "Wish": 7748,
      "bass": 7749,
      "brad": 7750,
      "bird": 7751,
      "ca": 7752,
      "cit": 7753,
      "cate": 7754,
      "dav": 7755,
      "death": 7756,
      "district": 7757,
      "equ": 7758,
      "eagles": 7759,
      "fashion": 7760,
      "fantasy": 7761,
      "gust": 7762,
      "hurry": 7763,
      "jewelry": 7764,
      "kill": 7765,
      "kend": 7766,
      "mat": 7767,
      "non": 7768,
      "pleas": 7769,
      "pertaining": 7770,
      "range": 7771,
      "rangers": 7772,
      "saint": 7773,
      "section": 7774,
      "tan": 7775,
      "tail": 7776,
      "techn": 7777,
      "u20": 7778,
      "vend": 7779,
      "val": 7780,
      "##rrow": 7781,
      "##gory": 7782,
      "##ners": 7783,
      "##NY": 7784,
      "##NC": 7785,
      "##come": 7786,
      "##mine": 7787,
      "##RO": 7788,
      "##feway": 7789,
      "##fax": 7790,
      "##VING": 7791,
      "##vote": 7792,
      "##19": 7793,
      "##10": 7794,
      "##pr": 7795,
      "##pop": 7796,
      "##pause": 7797,
      "##park": 7798,
      "##PS": 7799,
      "##TER": 7800,
      "##TLE": 7801,
      "##CO": 7802,
      "##BLE": 7803,
      "##heum": 7804,
      "##init": 7805,
      "##inal": 7806,
      "##inals": 7807,
      "##eta": 7808,
      "##eton": 7809,
      "##esec": 7810,
      "##esome": 7811,
      "##onia": 7812,
      "alph": 7813,
      "##emb": 7814,
      "med": 7815,
      "##llie": 7816,
      "wel": 7817,
      "webs": 7818,
      "thumb": 7819,
      "##illian": 7820,
      "trail": 7821,
      "##eden": 7822,
      "##herst": 7823,
      "mine": 7824,
      "##idi": 7825,
      "dollars": 7826,
      "haz": 7827,
      "halt": 7828,
      "haha": 7829,
      "##anca": 7830,
      "step": 7831,
      "stopping": 7832,
      "studio": 7833,
      "strawberry": 7834,
      "Isa": 7835,
      "##arta": 7836,
      "##adi": 7837,
      "houses": 7838,
      "shine": 7839,
      "106": 7840,
      "Shir": 7841,
      "Shores": 7842,
      "cans": 7843,
      "Stan": 7844,
      "Sting": 7845,
      "Stand": 7846,
      "Staples": 7847,
      "wild": 7848,
      "muff": 7849,
      "driveway": 7850,
      "Anniversary": 7851,
      "appear": 7852,
      "##olas": 7853,
      "##agne": 7854,
      "15pm": 7855,
      "beforehand": 7856,
      "205": 7857,
      "00p": 7858,
      "lists": 7859,
      "beth": 7860,
      "roadwork": 7861,
      "Wedding": 7862,
      "Alam": 7863,
      "##rov": 7864,
      "##road": 7865,
      "Yorkshire": 7866,
      "accumul": 7867,
      "according": 7868,
      "Speed": 7869,
      "expo": 7870,
      "##stonia": 7871,
      "##ables": 7872,
      "120": 7873,
      "1230": 7874,
      "space": 7875,
      "reason": 7876,
      "plow": 7877,
      "##avin": 7878,
      "##host": 7879,
      "notice": 7880,
      "lighten": 7881,
      "##uplic": 7882,
      "reaches": 7883,
      "usher": 7884,
      "##iger": 7885,
      "##audia": 7886,
      "Mario": 7887,
      "They": 7888,
      "interstates": 7889,
      "quiche": 7890,
      "sweep": 7891,
      "storming": 7892,
      "Whitney": 7893,
      "##ORE": 7894,
      "##ORT": 7895,
      "require": 7896,
      "proceed": 7897,
      "##rade": 7898,
      "Phill": 7899,
      "emerg": 7900,
      "2016": 7901,
      "visits": 7902,
      "##LAND": 7903,
      "Claus": 7904,
      "Claudia": 7905,
      "contemporary": 7906,
      "grandpar": 7907,
      "##working": 7908,
      "preschool": 7909,
      "slowest": 7910,
      "Bloomington": 7911,
      "##ETE": 7912,
      "Arthur": 7913,
      "worship": 7914,
      "union": 7915,
      "mission": 7916,
      "mississippi": 7917,
      "Edward": 7918,
      "Beverly": 7919,
      "theaters": 7920,
      "bacon": 7921,
      "1604": 7922,
      "##phithe": 7923,
      "##izer": 7924,
      "280": 7925,
      "Project": 7926,
      "maine": 7927,
      "entry": 7928,
      "oklahoma": 7929,
      "westbound": 7930,
      "MEET": 7931,
      "##umberland": 7932,
      "Plains": 7933,
      "potty": 7934,
      "understand": 7935,
      "##llywood": 7936,
      "postpon": 7937,
      "Ski": 7938,
      "calculate": 7939,
      "caused": 7940,
      "295": 7941,
      "Corpus": 7942,
      "Morgan": 7943,
      "Appen": 7944,
      "rescheduled": 7945,
      "Franklin": 7946,
      "affected": 7947,
      "##opez": 7948,
      "Bradley": 7949,
      "celebrate": 7950,
      "Leo": 7951,
      "touring": 7952,
      "awesome": 7953,
      "priv": 7954,
      "Midtown": 7955,
      "Macy": 7956,
      "generate": 7957,
      "courthouse": 7958,
      "pepp": 7959,
      "Roses": 7960,
      "madison": 7961,
      "##encing": 7962,
      "Cookie": 7963,
      "Bowie": 7964,
      "Bowling": 7965,
      "Remaining": 7966,
      "Reba": 7967,
      "problem": 7968,
      "occur": 7969,
      "typically": 7970,
      "Lynchburg": 7971,
      "Costa": 7972,
      "changing": 7973,
      "discount": 7974,
      "President": 7975,
      "Ellie": 7976,
      "loan": 7977,
      "lovers": 7978,
      "##ELP": 7979,
      "earthqu": 7980,
      "competition": 7981,
      "Poland": 7982,
      "sixt": 7983,
      "Vanessa": 7984,
      "Denmark": 7985,
      "##grounds": 7986,
      "Bulls": 7987,
      "Minutes": 7988,
      "meetups": 7989,
      "signings": 7990,
      "beautiful": 7991,
      "delivered": 7992,
      "words": 7993,
      "Staten": 7994,
      "including": 7995,
      "Laguna": 7996,
      "tacos": 7997,
      "Guns": 7998,
      "arizona": 7999,
      "minneapolis": 8000,
      "Havasu": 8001,
      "counseling": 8002,
      "Earth": 8003,
      "crowded": 8004,
      "honey": 8005,
      "purse": 8006,
      "Empire": 8007,
      "BRIDGE": 8008,
      "chiropractor": 8009,
      "##inuous": 8010,
      "albany": 8011,
      "bulbs": 8012,
      "interested": 8013,
      "period": 8014,
      "Scranton": 8015,
      "original": 8016,
      "Minaj": 8017,
      "Revise": 8018,
      "julie": 8019,
      "##hawks": 8020,
      "##orcycle": 8021,
      "##pportunities": 8022,
      "Shakespeare": 8023,
      "Prepare": 8024,
      "Mateo": 8025,
      "Oxford": 8026,
      "Reveal": 8027,
      "Tracey": 8028,
      "timesheet": 8029,
      "SEATTLE": 8030,
      "Gloria": 8031,
      "Theresa": 8032,
      "category": 8033,
      "u2019": 8034,
      "##initely": 8035,
      "##esecake": 8036,
      "website": 8037,
      "##uplicate": 8038,
      "6PM": 8039,
      "83": 8040,
      "8AM": 8041,
      "880": 8042,
      "Af": 8043,
      "Bat": 8044,
      "Bet": 8045,
      "But": 8046,
      "Bad": 8047,
      "Baking": 8048,
      "Boss": 8049,
      "Baseball": 8050,
      "Betty": 8051,
      "Boca": 8052,
      "Bingham": 8053,
      "Come": 8054,
      "Cash": 8055,
      "Chattan": 8056,
      "CUR": 8057,
      "Catherine": 8058,
      "Date": 8059,
      "Daily": 8060,
      "Direction": 8061,
      "DEL": 8062,
      "Elect": 8063,
      "Estonia": 8064,
      "FM": 8065,
      "Fit": 8066,
      "Fuck": 8067,
      "Fifth": 8068,
      "Fayetteville": 8069,
      "Ge": 8070,
      "GW": 8071,
      "Got": 8072,
      "Han": 8073,
      "Harm": 8074,
      "Hut": 8075,
      "Hare": 8076,
      "Ignore": 8077,
      "Jude": 8078,
      "Kro": 8079,
      "Koda": 8080,
      "Last": 8081,
      "Lunch": 8082,
      "Ladies": 8083,
      "Mur": 8084,
      "Map": 8085,
      "Mik": 8086,
      "Nas": 8087,
      "Nik": 8088,
      "Our": 8089,
      "Pom": 8090,
      "Pur": 8091,
      "Rel": 8092,
      "SA": 8093,
      "SR": 8094,
      "Snoo": 8095,
      "Saw": 8096,
      "SAT": 8097,
      "Sons": 8098,
      "SAN": 8099,
      "Ts": 8100,
      "Tit": 8101,
      "Tann": 8102,
      "Type": 8103,
      "Tasha": 8104,
      "Taiwan": 8105,
      "Vol": 8106,
      "WV": 8107,
      "Wade": 8108,
      "Yu": 8109,
      "Yes": 8110,
      "Zeppelin": 8111,
      "aug": 8112,
      "batt": 8113,
      "body": 8114,
      "bapt": 8115,
      "die": 8116,
      "dub": 8117,
      "dave": 8118,
      "derm": 8119,
      "dining": 8120,
      "feat": 8121,
      "fig": 8122,
      "february": 8123,
      "ferry": 8124,
      "fighters": 8125,
      "jun": 8126,
      "journey": 8127,
      "karaoke": 8128,
      "lag": 8129,
      "lisa": 8130,
      "lamar": 8131,
      "ment": 8132,
      "math": 8133,
      "machine": 8134,
      "nas": 8135,
      "nanny": 8136,
      "oahu": 8137,
      "pan": 8138,
      "pad": 8139,
      "pete": 8140,
      "psy": 8141,
      "ris": 8142,
      "rot": 8143,
      "sis": 8144,
      "self": 8145,
      "soda": 8146,
      "symphony": 8147,
      "tie": 8148,
      "tyler": 8149,
      "tiger": 8150,
      "var": 8151,
      "wisconsin": 8152,
      "##rand": 8153,
      "##iago": 8154,
      "##green": 8155,
      "##nes": 8156,
      "##ces": 8157,
      "##cess": 8158,
      "##cked": 8159,
      "##oic": 8160,
      "##word": 8161,
      "##wave": 8162,
      "##wild": 8163,
      "##tree": 8164,
      "##ura": 8165,
      "##uard": 8166,
      "##MB": 8167,
      "##lon": 8168,
      "##lings": 8169,
      "##vale": 8170,
      "##SIDE": 8171,
      "##pson": 8172,
      "##place": 8173,
      "##CC": 8174,
      "##athe": 8175,
      "##atologist": 8176,
      "##aya": 8177,
      "##eting": 8178,
      "alaska": 8179,
      "##asure": 8180,
      "##ision": 8181,
      "##iced": 8182,
      "weed": 8183,
      "weigh": 8184,
      "animal": 8185,
      "animals": 8186,
      "necess": 8187,
      "##rak": 8188,
      "##thi": 8189,
      "##xton": 8190,
      "##rowave": 8191,
      "amy": 8192,
      "##ried": 8193,
      "##ecoming": 8194,
      "##idity": 8195,
      "dot": 8196,
      "haunted": 8197,
      "style": 8198,
      "storage": 8199,
      "##adena": 8200,
      "##ilt": 8201,
      "##oto": 8202,
      "##otic": 8203,
      "##amber": 8204,
      "shared": 8205,
      "10am": 8206,
      "##antine": 8207,
      "Child": 8208,
      "Chocolate": 8209,
      "##epend": 8210,
      "##uma": 8211,
      "##umont": 8212,
      "##ertown": 8213,
      "##sex": 8214,
      "##ewind": 8215,
      "##opher": 8216,
      "Strip": 8217,
      "Story": 8218,
      "##erator": 8219,
      "##osem": 8220,
      "climb": 8221,
      "Monster": 8222,
      "arlington": 8223,
      "appo": 8224,
      "lear": 8225,
      "showers": 8226,
      "somewhere": 8227,
      "coach": 8228,
      "##onds": 8229,
      "comedians": 8230,
      "Dothan": 8231,
      "Ali": 8232,
      "##uluth": 8233,
      "flops": 8234,
      "express": 8235,
      "##abet": 8236,
      "reserve": 8237,
      "Sanford": 8238,
      "##odge": 8239,
      "split": 8240,
      "##icho": 8241,
      "agenda": 8242,
      "chem": 8243,
      "cheer": 8244,
      "delaying": 8245,
      "##lord": 8246,
      "##nya": 8247,
      "##ube": 8248,
      "lightening": 8249,
      "checkpoint": 8250,
      "realt": 8251,
      "downstairs": 8252,
      "##iblings": 8253,
      "Track": 8254,
      "Johns": 8255,
      "Marley": 8256,
      "prot": 8257,
      "##arlic": 8258,
      "TONIGHT": 8259,
      "##INE": 8260,
      "##INA": 8261,
      "Eva": 8262,
      "NYE": 8263,
      "Amelia": 8264,
      "disregard": 8265,
      "opened": 8266,
      "radius": 8267,
      "sevent": 8268,
      "select": 8269,
      "shortly": 8270,
      "Beauty": 8271,
      "Beaumont": 8272,
      "temperate": 8273,
      "actually": 8274,
      "remix": 8275,
      "Grant": 8276,
      "trainer": 8277,
      "Parades": 8278,
      "grandson": 8279,
      "yesterdays": 8280,
      "Disneyworld": 8281,
      "##ontinue": 8282,
      "Chester": 8283,
      "joey": 8284,
      "197": 8285,
      "##insville": 8286,
      "veter": 8287,
      "Anderson": 8288,
      "Billboard": 8289,
      "skype": 8290,
      "fallen": 8291,
      "kindly": 8292,
      "flowing": 8293,
      "Italian": 8294,
      "enjoy": 8295,
      "1600": 8296,
      "##ized": 8297,
      "Peru": 8298,
      "Erica": 8299,
      "feels": 8300,
      "studying": 8301,
      "smiley": 8302,
      "##tanbul": 8303,
      "Brianna": 8304,
      "Tori": 8305,
      "Sheila": 8306,
      "##ENING": 8307,
      "ONE": 8308,
      "salem": 8309,
      "Heidi": 8310,
      "Allison": 8311,
      "election": 8312,
      "##rief": 8313,
      "singer": 8314,
      "Josie": 8315,
      "bottles": 8316,
      "Trish": 8317,
      "maadi": 8318,
      "specials": 8319,
      "Reacting": 8320,
      "Christi": 8321,
      "crashes": 8322,
      "exits": 8323,
      "manicure": 8324,
      "##ussia": 8325,
      "Drop": 8326,
      "Expo": 8327,
      "flying": 8328,
      "landlord": 8329,
      "springfield": 8330,
      "Leon": 8331,
      "Leand": 8332,
      "coupon": 8333,
      "Two": 8334,
      "cutting": 8335,
      "Idyll": 8336,
      "Leave": 8337,
      "forms": 8338,
      "Huntsville": 8339,
      "Seaworld": 8340,
      "##erole": 8341,
      "disneyland": 8342,
      "Guam": 8343,
      "Oceanside": 8344,
      "Russell": 8345,
      "Burbank": 8346,
      "Charity": 8347,
      "Mountains": 8348,
      "harry": 8349,
      "filters": 8350,
      "Olympics": 8351,
      "Cheryl": 8352,
      "Warren": 8353,
      "sams": 8354,
      "##CTION": 8355,
      "Grab": 8356,
      "hunts": 8357,
      "hungry": 8358,
      "title": 8359,
      "##ottesville": 8360,
      "##yees": 8361,
      "clients": 8362,
      "maryland": 8363,
      "empty": 8364,
      "Presley": 8365,
      "surfing": 8366,
      "brooks": 8367,
      "document": 8368,
      "owes": 8369,
      "sprinklers": 8370,
      "Juneau": 8371,
      "Pierce": 8372,
      "drag": 8373,
      "Valentines": 8374,
      "Doug": 8375,
      "SUNDAY": 8376,
      "correct": 8377,
      "Lindsey": 8378,
      "microwave": 8379,
      "schedules": 8380,
      "##banks": 8381,
      "Conventions": 8382,
      "NSW": 8383,
      "golden": 8384,
      "Circus": 8385,
      "Sugar": 8386,
      "crawl": 8387,
      "furnace": 8388,
      "tonite": 8389,
      "believe": 8390,
      "modern": 8391,
      "moderate": 8392,
      "paid": 8393,
      "Apex": 8394,
      "Return": 8395,
      "device": 8396,
      "employees": 8397,
      "Congratulations": 8398,
      "Devon": 8399,
      "Jasmine": 8400,
      "student": 8401,
      "question": 8402,
      "behind": 8403,
      "slowdowns": 8404,
      "Craig": 8405,
      "Epcot": 8406,
      "##eltic": 8407,
      "rodeo": 8408,
      "Connor": 8409,
      "electronic": 8410,
      "HWY": 8411,
      "LEAVE": 8412,
      "target": 8413,
      "Film": 8414,
      "Miranda": 8415,
      "Pedro": 8416,
      "SKIP": 8417,
      "arrangements": 8418,
      "casserole": 8419,
      "PAUSE": 8420,
      "BWI": 8421,
      "Balto": 8422,
      "Deactivate": 8423,
      "MILES": 8424,
      "Shirley": 8425,
      "plowed": 8426,
      "emergency": 8427,
      "private": 8428,
      "Binghamton": 8429,
      "Chattanooga": 8430,
      "CURRENT": 8431,
      "DELETE": 8432,
      "Snoop": 8433,
      "realtor": 8434,
      "Idyllwild": 8435,
      "1A": 8436,
      "53": 8437,
      "Ald": 8438,
      "Ba": 8439,
      "Benny": 8440,
      "Clay": 8441,
      "Cass": 8442,
      "Cup": 8443,
      "CRE": 8444,
      "COM": 8445,
      "Carter": 8446,
      "Cardi": 8447,
      "Cooper": 8448,
      "Dist": 8449,
      "Dion": 8450,
      "DON": 8451,
      "DID": 8452,
      "Diana": 8453,
      "Duluth": 8454,
      "Ely": 8455,
      "Emer": 8456,
      "Eddie": 8457,
      "FD": 8458,
      "Fork": 8459,
      "Ford": 8460,
      "Fiesta": 8461,
      "Gri": 8462,
      "Gosp": 8463,
      "GPS": 8464,
      "Ho": 8465,
      "Hank": 8466,
      "Hair": 8467,
      "HIGH": 8468,
      "Herman": 8469,
      "Helsinki": 8470,
      "IA": 8471,
      "IM": 8472,
      "Je": 8473,
      "Jak": 8474,
      "Jax": 8475,
      "Jolin": 8476,
      "Karl": 8477,
      "Katherine": 8478,
      "Lord": 8479,
      "Lob": 8480,
      "Latin": 8481,
      "Lakers": 8482,
      "Mes": 8483,
      "NW": 8484,
      "Noon": 8485,
      "Nails": 8486,
      "NBA": 8487,
      "PD": 8488,
      "Pough": 8489,
      "PAY": 8490,
      "Public": 8491,
      "Rom": 8492,
      "Rica": 8493,
      "Raton": 8494,
      "SL": 8495,
      "Sri": 8496,
      "Squ": 8497,
      "Suff": 8498,
      "SHE": 8499,
      "Sund": 8500,
      "Sox": 8501,
      "SNOW": 8502,
      "Symphony": 8503,
      "Te": 8504,
      "Tri": 8505,
      "Tex": 8506,
      "Tower": 8507,
      "TAM": 8508,
      "Tanya": 8509,
      "Vik": 8510,
      "Vicky": 8511,
      "Village": 8512,
      "Wa": 8513,
      "Wash": 8514,
      "aust": 8515,
      "bday": 8516,
      "burn": 8517,
      "bree": 8518,
      "bins": 8519,
      "boca": 8520,
      "cd": 8521,
      "cycling": 8522,
      "cultural": 8523,
      "dip": 8524,
      "dig": 8525,
      "dating": 8526,
      "dues": 8527,
      "diet": 8528,
      "died": 8529,
      "ell": 8530,
      "fan": 8531,
      "fert": 8532,
      "gard": 8533,
      "giza": 8534,
      "hr": 8535,
      "hills": 8536,
      "ir": 8537,
      "iHeartRadio": 8538,
      "jill": 8539,
      "lect": 8540,
      "load": 8541,
      "living": 8542,
      "linda": 8543,
      "looked": 8544,
      "memphis": 8545,
      "manchester": 8546,
      "nic": 8547,
      "national": 8548,
      "navig": 8549,
      "pas": 8550,
      "pier": 8551,
      "pump": 8552,
      "pean": 8553,
      "pacific": 8554,
      "poker": 8555,
      "pilates": 8556,
      "rs": 8557,
      "rh": 8558,
      "ray": 8559,
      "ron": 8560,
      "ran": 8561,
      "sep": 8562,
      "sum": 8563,
      "samp": 8564,
      "series": 8565,
      "tal": 8566,
      "tina": 8567,
      "trying": 8568,
      "troll": 8569,
      "teens": 8570,
      "uk": 8571,
      "uber": 8572,
      "utah": 8573,
      "wend": 8574,
      "wax": 8575,
      "wrap": 8576,
      "waves": 8577,
      "wishes": 8578,
      "ya": 8579,
      "yan": 8580,
      "##rus": 8581,
      "##rett": 8582,
      "##ient": 8583,
      "##irie": 8584,
      "##gles": 8585,
      "##eans": 8586,
      "##ILA": 8587,
      "##GM": 8588,
      "##ced": 8589,
      "##cue": 8590,
      "##cles": 8591,
      "##ao": 8592,
      "##olyn": 8593,
      "##worth": 8594,
      "##tail": 8595,
      "##mir": 8596,
      "##mokers": 8597,
      "##hol": 8598,
      "##be": 8599,
      "##bad": 8600,
      "##bab": 8601,
      "##bread": 8602,
      "##lter": 8603,
      "##daughter": 8604,
      "##vp": 8605,
      "##vest": 8606,
      "##vana": 8607,
      "##yers": 8608,
      "##pheum": 8609,
      "##kok": 8610,
      "##PR": 8611,
      "##PORT": 8612,
      "##jam": 8613,
      "##WAY": 8614,
      "##CA": 8615,
      "##BL": 8616,
      "##Book": 8617,
      "toledo": 8618,
      "##iner": 8619,
      "##inea": 8620,
      "##inity": 8621,
      "##orium": 8622,
      "##eron": 8623,
      "##erville": 8624,
      "##atem": 8625,
      "##onough": 8626,
      "alt": 8627,
      "##anas": 8628,
      "##eno": 8629,
      "##enna": 8630,
      "##rell": 8631,
      "mell": 8632,
      "meant": 8633,
      "int": 8634,
      "inbox": 8635,
      "##icas": 8636,
      "ana": 8637,
      "##kees": 8638,
      "##keeps": 8639,
      "##lections": 8640,
      "##ffield": 8641,
      "##uther": 8642,
      "##ghan": 8643,
      "beans": 8644,
      "##urst": 8645,
      "##edith": 8646,
      "fresh": 8647,
      "Setting": 8648,
      "##endes": 8649,
      "##rietta": 8650,
      "##eck": 8651,
      "##astle": 8652,
      "##iture": 8653,
      "stone": 8654,
      "##adise": 8655,
      "##aine": 8656,
      "##aina": 8657,
      "##ilion": 8658,
      "##otion": 8659,
      "shave": 8660,
      "10mins": 8661,
      "##cts": 8662,
      "Chan": 8663,
      "Chances": 8664,
      "Chains": 8665,
      "Shop": 8666,
      "mont": 8667,
      "monica": 8668,
      "Step": 8669,
      "Strait": 8670,
      "##osa": 8671,
      "##osal": 8672,
      "Thur": 8673,
      "Thunder": 8674,
      "##inton": 8675,
      "##oles": 8676,
      "lee": 8677,
      "lev": 8678,
      "showt": 8679,
      "rob": 8680,
      "cod": 8681,
      "2000": 8682,
      "2020": 8683,
      "##ondale": 8684,
      "##ondido": 8685,
      "##ocess": 8686,
      "##ipment": 8687,
      "##berfest": 8688,
      "##acing": 8689,
      "Ala": 8690,
      "Alumni": 8691,
      "sue": 8692,
      "such": 8693,
      "##ivities": 8694,
      "highlight": 8695,
      "Spart": 8696,
      "Space": 8697,
      "##ership": 8698,
      "Jolla": 8699,
      "spot": 8700,
      "Republic": 8701,
      "shelter": 8702,
      "seeing": 8703,
      "##struct": 8704,
      "locked": 8705,
      "##quite": 8706,
      "##hold": 8707,
      "Franc": 8708,
      "checkup": 8709,
      "##ibu": 8710,
      "##ibility": 8711,
      "Construction": 8712,
      "Connie": 8713,
      "##oughts": 8714,
      "Tracks": 8715,
      "Marathon": 8716,
      "Marcus": 8717,
      "sold": 8718,
      "queen": 8719,
      "##toberfest": 8720,
      "printer": 8721,
      "##issance": 8722,
      "clearwater": 8723,
      "warming": 8724,
      "boise": 8725,
      "walks": 8726,
      "Amway": 8727,
      "Amherst": 8728,
      "asleep": 8729,
      "profess": 8730,
      "ending": 8731,
      "Jacket": 8732,
      "thrones": 8733,
      "selections": 8734,
      "throughout": 8735,
      "perman": 8736,
      "remid": 8737,
      "Carson": 8738,
      "Carolyn": 8739,
      "Sweden": 8740,
      "Paradise": 8741,
      "breaking": 8742,
      "Clar": 8743,
      "Cloud": 8744,
      "Musicals": 8745,
      "Adult": 8746,
      "Jana": 8747,
      "Janice": 8748,
      "Charlottesville": 8749,
      "scout": 8750,
      "Southlake": 8751,
      "Southampton": 8752,
      "##ressions": 8753,
      "##enses": 8754,
      "50th": 8755,
      "region": 8756,
      "182": 8757,
      "35W": 8758,
      "Bills": 8759,
      "Billings": 8760,
      "Indie": 8761,
      "indef": 8762,
      "Jericho": 8763,
      "##ICE": 8764,
      "Sammy": 8765,
      "invoices": 8766,
      "Grandpa": 8767,
      "speeds": 8768,
      "safest": 8769,
      "vacc": 8770,
      "##REE": 8771,
      "smith": 8772,
      "FaceBook": 8773,
      "Shelton": 8774,
      "Sheffield": 8775,
      "seasonal": 8776,
      "Plaza": 8777,
      "##lsea": 8778,
      "potato": 8779,
      "Oktoberfest": 8780,
      "Ariana": 8781,
      "sitter": 8782,
      "situp": 8783,
      "Springsteen": 8784,
      "PART": 8785,
      "baked": 8786,
      "errand": 8787,
      "Christine": 8788,
      "Christopher": 8789,
      "Novi": 8790,
      "Corner": 8791,
      "Correct": 8792,
      "glass": 8793,
      "johnny": 8794,
      "MINUTE": 8795,
      "augusta": 8796,
      "serviced": 8797,
      "accounting": 8798,
      "accountant": 8799,
      "Greatest": 8800,
      "museums": 8801,
      "Express": 8802,
      "Explain": 8803,
      "flyers": 8804,
      "Metal": 8805,
      "Metro": 8806,
      "landfall": 8807,
      "##ISS": 8808,
      "Ashland": 8809,
      "programmed": 8810,
      "Describe": 8811,
      "##ipei": 8812,
      "Midway": 8813,
      "Twin": 8814,
      "general": 8815,
      "Fairbanks": 8816,
      "Kingston": 8817,
      "mowing": 8818,
      "Idol": 8819,
      "##ological": 8820,
      "excited": 8821,
      "Labour": 8822,
      "Workout": 8823,
      "HOUSE": 8824,
      "madonna": 8825,
      "Adams": 8826,
      "495": 8827,
      "Meredith": 8828,
      "relaxation": 8829,
      "Kendall": 8830,
      "babysitting": 8831,
      "harris": 8832,
      "##ILY": 8833,
      "##ITY": 8834,
      "##URDAY": 8835,
      "cambridge": 8836,
      "laws": 8837,
      "lawyer": 8838,
      "carolina": 8839,
      "kitten": 8840,
      "allowed": 8841,
      "Remember": 8842,
      "##imme": 8843,
      "thruway": 8844,
      "smoothly": 8845,
      "larry": 8846,
      "Teresa": 8847,
      "Girl": 8848,
      "Accidents": 8849,
      "TELL": 8850,
      "siri": 8851,
      "sioux": 8852,
      "Cancer": 8853,
      "famous": 8854,
      "wilmington": 8855,
      "Junction": 8856,
      "cellphone": 8857,
      "notifications": 8858,
      "stretching": 8859,
      "545": 8860,
      "Denise": 8861,
      "SUNNY": 8862,
      "bathrooms": 8863,
      "toddler": 8864,
      "toddlers": 8865,
      "Matthews": 8866,
      "Hamptons": 8867,
      "Taipei": 8868,
      "snoozed": 8869,
      "Bangkok": 8870,
      "Songs": 8871,
      "Shorten": 8872,
      "Shortest": 8873,
      "DRIVING": 8874,
      "obstructions": 8875,
      "pedicure": 8876,
      "Suggest": 8877,
      "crawls": 8878,
      "furniture": 8879,
      "Finland": 8880,
      "tablet": 8881,
      "Marsha": 8882,
      "Marshall": 8883,
      "Marcos": 8884,
      "DELAY": 8885,
      "Humidity": 8886,
      "clinic": 8887,
      "installation": 8888,
      "Lenoir": 8889,
      "catering": 8890,
      "Dodger": 8891,
      "carpet": 8892,
      "philadelphia": 8893,
      "Terminate": 8894,
      "crazy": 8895,
      "##ingerbread": 8896,
      "Boxing": 8897,
      "coworkers": 8898,
      "Nearby": 8899,
      "OUTSIDE": 8900,
      "Peach": 8901,
      "veget": 8902,
      "america": 8903,
      "bluegrass": 8904,
      "##kelback": 8905,
      "Courtney": 8906,
      "Fenway": 8907,
      "Rodeo": 8908,
      "lauderdale": 8909,
      "shirts": 8910,
      "proofing": 8911,
      "Produce": 8912,
      "Cocoa": 8913,
      "Dixie": 8914,
      "Escondido": 8915,
      "equipment": 8916,
      "kendrick": 8917,
      "alphabet": 8918,
      "welcome": 8919,
      "accumulation": 8920,
      "grandparents": 8921,
      "##phitheater": 8922,
      "postponed": 8923,
      "earthquake": 8924,
      "sixty": 8925,
      "Kroger": 8926,
      "Mikayla": 8927,
      "SATURDAY": 8928,
      "Tsai": 8929,
      "battery": 8930,
      "necessary": 8931,
      "##osemite": 8932,
      "Gospel": 8933,
      "Jakarta": 8934,
      "Poughkeeps": 8935,
      "rsvp": 8936,
      "mellow": 8937,
      "indefinitely": 8938,
      "Poughkeepsie": 8939,
      "01": 8940,
      "230": 8941,
      "520": 8942,
      "9PM": 8943,
      "AB": 8944,
      "Auck": 8945,
      "Ally": 8946,
      "AIR": 8947,
      "BJ": 8948,
      "Brow": 8949,
      "Bach": 8950,
      "Brid": 8951,
      "Bask": 8952,
      "Bache": 8953,
      "BILL": 8954,
      "Cit": 8955,
      "Cot": 8956,
      "Cry": 8957,
      "CHE": 8958,
      "CST": 8959,
      "Casino": 8960,
      "Celtic": 8961,
      "DA": 8962,
      "Dom": 8963,
      "Dark": 8964,
      "Dire": 8965,
      "Dates": 8966,
      "DOW": 8967,
      "Dana": 8968,
      "Dawn": 8969,
      "Dean": 8970,
      "FE": 8971,
      "FA": 8972,
      "Finn": 8973,
      "Fij": 8974,
      "Factor": 8975,
      "FIR": 8976,
      "GIF": 8977,
      "Ghost": 8978,
      "HR": 8979,
      "Hom": 8980,
      "Hack": 8981,
      "Hann": 8982,
      "Hattiesburg": 8983,
      "Ith": 8984,
      "Iron": 8985,
      "Jared": 8986,
      "Kir": 8987,
      "Kirst": 8988,
      "Kris": 8989,
      "Kara": 8990,
      "Korn": 8991,
      "Karaoke": 8992,
      "Koh": 8993,
      "KISS": 8994,
      "Lon": 8995,
      "Loc": 8996,
      "Lane": 8997,
      "Lena": 8998,
      "Lakes": 8999,
      "Mead": 9000,
      "Mig": 9001,
      "Mardi": 9002,
      "Nan": 9003,
      "Nine": 9004,
      "Nash": 9005,
      "Nana": 9006,
      "NIGHT": 9007,
      "NAS": 9008,
      "Ollie": 9009,
      "PO": 9010,
      "Pine": 9011,
      "Paw": 9012,
      "Pict": 9013,
      "Piano": 9014,
      "Pepp": 9015,
      "Pride": 9016,
      "Papa": 9017,
      "Ra": 9018,
      "RBA": 9019,
      "Sen": 9020,
      "Smash": 9021,
      "TU": 9022,
      "Ten": 9023,
      "Tal": 9024,
      "Tick": 9025,
      "Trip": 9026,
      "Toll": 9027,
      "Tele": 9028,
      "Ut": 9029,
      "UNT": 9030,
      "Ugly": 9031,
      "Viv": 9032,
      "WF": 9033,
      "WOULD": 9034,
      "Yps": 9035,
      "Yosemite": 9036,
      "ber": 9037,
      "bik": 9038,
      "bene": 9039,
      "biking": 9040,
      "bingo": 9041,
      "brief": 9042,
      "cur": 9043,
      "case": 9044,
      "da": 9045,
      "den": 9046,
      "dough": 9047,
      "draw": 9048,
      "duty": 9049,
      "educ": 9050,
      "fart": 9051,
      "fax": 9052,
      "ge": 9053,
      "garlic": 9054,
      "holland": 9055,
      "jake": 9056,
      "jos": 9057,
      "jenn": 9058,
      "jenny": 9059,
      "japan": 9060,
      "kay": 9061,
      "kanye": 9062,
      "ly": 9063,
      "mi": 9064,
      "mes": 9065,
      "mur": 9066,
      "mitt": 9067,
      "mardi": 9068,
      "nana": 9069,
      "nancy": 9070,
      "nicki": 9071,
      "opportunities": 9072,
      "pal": 9073,
      "pos": 9074,
      "pilots": 9075,
      "puerto": 9076,
      "pending": 9077,
      "rub": 9078,
      "rough": 9079,
      "rihanna": 9080,
      "soup": 9081,
      "sink": 9082,
      "sara": 9083,
      "sinatra": 9084,
      "ts": 9085,
      "tx": 9086,
      "tues": 9087,
      "tired": 9088,
      "vent": 9089,
      "vegan": 9090,
      "vote": 9091,
      "voic": 9092,
      "wont": 9093,
      "##ray": 9094,
      "##ring": 9095,
      "##rats": 9096,
      "##iers": 9097,
      "##nn": 9098,
      "##ns": 9099,
      "##nut": 9100,
      "##EC": 9101,
      "##DC": 9102,
      "##cord": 9103,
      "##cade": 9104,
      "##cester": 9105,
      "##wich": 9106,
      "##ted": 9107,
      "##trak": 9108,
      "##mi": 9109,
      "##RS": 9110,
      "##UST": 9111,
      "##OSE": 9112,
      "##uela": 9113,
      "##lie": 9114,
      "##lett": 9115,
      "##lene": 9116,
      "##VIE": 9117,
      "##dates": 9118,
      "##very": 9119,
      "##yles": 9120,
      "##SP": 9121,
      "##ken": 9122,
      "##kers": 9123,
      "##LK": 9124,
      "##LES": 9125,
      "##LLA": 9126,
      "##LIF": 9127,
      "##zer": 9128,
      "##ja": 9129,
      "##50": 9130,
      "##Chat": 9131,
      "##40": 9132,
      "##BO": 9133,
      "##hel": 9134,
      "##inth": 9135,
      "##orate": 9136,
      "##ority": 9137,
      "##erland": 9138,
      "##ature": 9139,
      "##arr": 9140,
      "forming": 9141,
      "##esburg": 9142,
      "##onic": 9143,
      "algebra": 9144,
      "meas": 9145,
      "mech": 9146,
      "media": 9147,
      "wee": 9148,
      "##omet": 9149,
      "##keley": 9150,
      "athens": 9151,
      "thick": 9152,
      "##illo": 9153,
      "itunes": 9154,
      "trap": 9155,
      "bear": 9156,
      "##urches": 9157,
      "minaj": 9158,
      "french": 9159,
      "##usement": 9160,
      "gokey": 9161,
      "##ecut": 9162,
      "##ides": 9163,
      "##idal": 9164,
      "dod": 9165,
      "stating": 9166,
      "stream": 9167,
      "starbucks": 9168,
      "steps": 9169,
      "Isle": 9170,
      "##arten": 9171,
      "##arters": 9172,
      "player": 9173,
      "##adian": 9174,
      "##ilize": 9175,
      "##ilanti": 9176,
      "longest": 9177,
      "##outheast": 9178,
      "##sters": 9179,
      "##amie": 9180,
      "shak": 9181,
      "shining": 9182,
      "likeli": 9183,
      "##ells": 9184,
      "107": 9185,
      "1030": 9186,
      "##andi": 9187,
      "##andra": 9188,
      "##irty": 9189,
      "##irvana": 9190,
      "Shane": 9191,
      "Shape": 9192,
      "Canadian": 9193,
      "chimes": 9194,
      "churches": 9195,
      "workers": 9196,
      "##ewart": 9197,
      "Str": 9198,
      "Stay": 9199,
      "wip": 9200,
      "withdra": 9201,
      "Month": 9202,
      "Monroe": 9203,
      "Animal": 9204,
      "whens": 9205,
      "##oland": 9206,
      "##olanda": 9207,
      "replace": 9208,
      "cole": 9209,
      "cock": 9210,
      "##ipa": 9211,
      "##ipeg": 9212,
      "gras": 9213,
      "Dolly": 9214,
      "##ief": 9215,
      "##iejo": 9216,
      "##ristown": 9217,
      "##apanes": 9218,
      "##ifax": 9219,
      "carrie": 9220,
      "##arkana": 9221,
      "bulls": 9222,
      "Alph": 9223,
      "##roads": 9224,
      "##aka": 9225,
      "flo": 9226,
      "flag": 9227,
      "125": 9228,
      "resend": 9229,
      "deep": 9230,
      "sheet": 9231,
      "agent": 9232,
      "cheap": 9233,
      "AMC": 9234,
      "supply": 9235,
      "##quarters": 9236,
      "##ubs": 9237,
      "reached": 9238,
      "Orpheum": 9239,
      "##exp": 9240,
      "Conf": 9241,
      "Concord": 9242,
      "Marin": 9243,
      "Marathons": 9244,
      "##eeds": 9245,
      "##orean": 9246,
      "committ": 9247,
      "funky": 9248,
      "Brunch": 9249,
      "process": 9250,
      "swing": 9251,
      "sweet": 9252,
      "##aled": 9253,
      "trump": 9254,
      "##issy": 9255,
      "cleaner": 9256,
      "##ORA": 9257,
      "##ORD": 9258,
      "billy": 9259,
      "Florence": 9260,
      "##ushi": 9261,
      "durham": 9262,
      "medicines": 9263,
      "Beau": 9264,
      "Gras": 9265,
      "Carp": 9266,
      "##ATER": 9267,
      "Swim": 9268,
      "wars": 9269,
      "article": 9270,
      "detouring": 9271,
      "Clap": 9272,
      "Clara": 9273,
      "contract": 9274,
      "granddaughter": 9275,
      "##ggy": 9276,
      "Philipp": 9277,
      "Arrow": 9278,
      "##borough": 9279,
      "Easton": 9280,
      "Petty": 9281,
      "##eban": 9282,
      "Forget": 9283,
      "##ensive": 9284,
      "Els": 9285,
      "Elk": 9286,
      "FOREC": 9287,
      "##iction": 9288,
      "cooling": 9289,
      "Cheap": 9290,
      "Cheshire": 9291,
      "unpl": 9292,
      "##ONE": 9293,
      "198": 9294,
      "crew": 9295,
      "Indy": 9296,
      "Independ": 9297,
      "skate": 9298,
      "indian": 9299,
      "##ICH": 9300,
      "password": 9301,
      "speedway": 9302,
      "##INGS": 9303,
      "button": 9304,
      "Highland": 9305,
      "REPE": 9306,
      "saf": 9307,
      "sms": 9308,
      "sprint": 9309,
      "Caroling": 9310,
      "Scotia": 9311,
      "projects": 9312,
      "pottery": 9313,
      "270": 9314,
      "posted": 9315,
      "Coffee": 9316,
      "Princ": 9317,
      "chickens": 9318,
      "290": 9319,
      "Richie": 9320,
      "balloons": 9321,
      "elm": 9322,
      "##ernon": 9323,
      "Walgreen": 9324,
      "Corn": 9325,
      "Keller": 9326,
      "Moreno": 9327,
      "Brody": 9328,
      "Suspend": 9329,
      "fifty": 9330,
      "Weeknd": 9331,
      "guys": 9332,
      "colon": 9333,
      "Mission": 9334,
      "CAR": 9335,
      "CALIF": 9336,
      "Brady": 9337,
      "Bradenton": 9338,
      "tomrrow": 9339,
      "doors": 9340,
      "Sunset": 9341,
      "Annapolis": 9342,
      "couples": 9343,
      "coupons": 9344,
      "Macomb": 9345,
      "Twenty": 9346,
      "film": 9347,
      "Fairfax": 9348,
      "About": 9349,
      "rename": 9350,
      "Camb": 9351,
      "Safeway": 9352,
      "Nicki": 9353,
      "labour": 9354,
      "slam": 9355,
      "fathers": 9356,
      "WEEKS": 9357,
      "WAS": 9358,
      "electricity": 9359,
      "Pasadena": 9360,
      "patches": 9361,
      "Creat": 9362,
      "Tennis": 9363,
      "paulas": 9364,
      "decorations": 9365,
      "Berkeley": 9366,
      "cups": 9367,
      "Thriller": 9368,
      "Regal": 9369,
      "Reggie": 9370,
      "bathe": 9371,
[...]
